#version: 0.2
à ¶
à ·
Ġ à¶
à· Ĭ
à· Ĵ
à¶ ±
à· Ģ
à· ı
à¶ º
à¶ »
à¶ Ń
à· Ķ
à¶ ¸
à¶ ļ
à· ĥ
à· Ļ
à· ļ
à¶ ½
à· Ħ
à¶ §
à¶ ¯
Ġà¶ ļ
Ġ à·Ģ
à· Ĳ
Ġà¶ ´
Ġ à·ĥ
à· ĵ
Ġà¶ ¸
à¶ ľ
Ġà¶ ħ
â Ģ
âĢ į
à¶ ´
à·Ĭ âĢį
Ġà¶ ¯
à· ľ
Ġà¶ ±
Ġà¶ Ń
Ġ à·Ħ
à¶ «
Ġà¶ ľ
à¶ ¶
Ġà¶ ¶
à¶ ©
Ġà¶ ĳ
à· ħ
Ġà¶ ½
à· ģ
à¶ Ĥ
à¶ °
à· Ŀ
à¶º à¶ļ
Ġà¶ º
Ġà¶ļ à¶»
Ġà¶ ĩ
Ġà¶ »
à· Ĥ
Ġà¶ ī
à¶ ¢
à· ĸ
à¶º à¶±
Ġà¶ĳ à¶ļ
à¶ ³
Ġà¶ Ĩ
à¶± à·Ģ
Ġà¶ ¢
Ġà¶ĩ à¶Ń
à¶± à¶º
à·Ģ à¶±
à·Ģ à¶Ń
Ġà·ĥ à¶¸
Ġà¶ Ķ
Ġà¶ ĭ
à·Ģ à¶»
à¶º à¶§
à¶Ń à¶»
à¶ ł
à¶¸ à¶§
à· ĳ
Ġà¶ļà¶» à¶±
Ġà¶¶ à·Ģ
Ġà¶ħ à¶´
à¶ ®
Ġà¶ Ĵ
à¶ļ à¶»
à·Ģ à·ĥ
à·Ģ à¶ļ
à¶ ħ
Ġà·ĥ à·Ħ
à¶´ à¶Ń
à·Ģ à¶½
à¶ ĳ
à¶º à¶½
à¶» à¶¸
Ġà¶¸ à·Ħ
Ġà¶ħ à¶±
Ġà¶ļ à·ħ
à¶ ·
à¶» à¶ļ
Ġà·Ģ à¶±
à¶¸ à¶ļ
à¶» à¶º
à¶ Ĵ
à¶¸ à¶±
à¶« à¶º
à¶¸ à¶º
à¶± à¶¸
à·Ģ à¶§
Ġà¶¶ à¶½
Ġ à·ģ
à·Ģ à¶º
Ġà¶± à¶¸
à¶¸ à¶Ń
Ġà¶º à¶±
à·Ħ à¶±
à¶½ à¶º
Ġà·ĥ à¶³
à¶± à¶Ń
à¶ Ł
Ġà¶ħ à¶Ńà¶»
Ġà¶ħ à·Ģ
à¶» à¶Ń
Ġà¶ļ à¶½
à¶ľ à¶Ń
Ġà¶ħ à¶¯
Ġà¶ħ à¶Ń
Ġ 1
âĢį à·ĬâĢį
Ġà¶ħ à¶º
Ġà¶´ à¶»
Ġà¶´ à·ĥ
Ġà·Ģ à¶ľ
Ġà¶ī à¶±
Ġà¶½ à¶¶
Ġà¶ľ à¶±
à¶± à¶§
à·Ĵ à¶Ĥ
Ġ 2
à·Ħ à·ĥ
Ġà¶ §
Ġà¶ ł
à¶ļ à¶º
à¶ Ķ
Ġà¶ħ à¶¸
Ġà·Ģ à¶½
à¶ļ à¶§
Ġà¶ľ à¶Ń
à¶» à¶¯
à¶ ¹
Ġà¶ ·
à·ģ à¶º
à· ĺ
à¶ļ à¶¸
à¶ľ à¶±
à¶º à¶¸
Ġà·ĥà¶³ à·Ħ
à¶½ à¶±
Ġà¶¸à·Ħ à¶Ń
à¶» à·Ģ
Ġà¶¢ à¶±
Ġà¶ļ à¶§
à¶½ à¶ļ
Ġà¶´ à¶Ń
à¶§ à¶Ń
à¶Ń à¶º
Ġà¶Ķ à·Ħ
à¶ľ à¶¸
Ġà¶ļ à¶Ń
Ġà·Ħ à¶»
à·Ħ à¶½
Ġà¶¸ à¶ľ
à¶Ń à¶±
Ġà¶ħ à¶°
Ġà¶» à¶§
à¶¯ à¶±
Ġà¶¸ à¶Ń
Ġà¶ħ à·Ģà·ĥ
à·Ģà¶» à¶º
Ġà¶¯ à¶ļ
à¶¶ à¶±
à¶± à¶ļ
Ġà¶ ķ
Ġà¶Ń à¶»
à·ĥ à¶»
Ġà¶¸ à¶¸
Ġà¶ī à¶Ń
Ġà¶ĳ à·Ħ
Ġà¶¸ à¶§
0 0
Ġà·Ħ à¶¸
Ġà¶ī à¶¯
à·ĥ à¶±
à¶ľ à¶º
Ġà¶ħ à¶»
à¶¯ à¶»
Ġà¶Ķ à¶¶
à· Ĩ
Ġà¶ĳ à¶º
à¶§ à¶¸
Ġà·Ģ à¶»
Ġà¶ĳ à¶¸
à¶» à¶«
Ġà¶ĳà¶ļ à¶ļ
Ġà¶ĭ à¶´
à¶¶ à¶³
à¶ ī
à¶º à¶º
à¶ħ à¶´
à¶ľ à¶½
Ġà¶¸ à¶±
Ġà¶Ń à¶¸
à¶º à¶Ń
Ġà·ĥ à¶Ń
à·ĥ à¶ļ
Ġà¶´ à·ħ
à¶¸ à¶«
Ġà¶Ń à¶¸à¶º
à¶ļ à¶ļ
Ġà¶Ķ à¶º
Ġà¶ĭ à¶±
Ġà¶ļà¶§ à¶º
à¶» à·ĥ
Ġà¶Ķ à·Ģ
Ġà¶ķ à¶±
à¶¯ à¶º
Ġà¶ħ à¶½
à¶¢ à¶±
Ġà¶ħ à¶©
à¶¢ à¶º
à¶ Ľ
à·Ĥ à¶º
à·ĥ à¶º
à¶» à¶§
à· Ľ
à¶© à¶ļ
Ġà¶¯ à¶»
Ġà¶ĭ à¶Ń
à¶ĳ à·Ħ
Ġà¶½ à¶ļ
à·Ĥ à¶«
à· ŀ
Ġà¶ Ĭ
à¶° à¶º
à·Ħ à¶»
Ġà¶ °
à¶± à·ĥ
Ġà¶´ à¶¸à¶«
0 1
Ġà¶¶à·Ģ à¶º
à¶Ń à¶¸
Ġà·Ģ à¶©
à·ĥ à¶½
à¶ ĩ
Ġà¶ ©
à¶± à¶ºà¶ļ
Ġà¶´ à·Ģà¶Ń
à¶¸ à¶¸
à¶Ń à¶ļ
Ġà¶ĳ à¶±
à¶¸ à¶»
à·ĥ à¶¸
Ġà¶½ à¶¯
à¶ļ à¶½
à¶» à¶±
Ġà¶Ĵ à¶ļ
à¶º à·Ģ
Ġà¶ĭ à¶¯
à·ı à¶Ĥ
à¶§ à¶±
Ġà¶¯ à¶±
Ġà¶´ à¶ļ
à¶¯ à¶½
à·Ģ à¶¯
à·Ģ à¶¸
Ġ 3
à·ģ à¶´
Ġà¶Ń à¶Ń
à¶° à¶±
Ġà¶¢ à¶±à¶Ń
à¶´ à¶ļ
à·Ĵ .
Ġà¶ļ à¶¸
à¶ºà¶ļ à¶§
Ġà¶ļà¶» à¶¸
Ġà¶¶à·Ģ à¶§
Ġà¶Ń à¶¸à¶±
Ġà¶ļà¶» à¶½
à¶´ à·ĥ
à¶» à·Ħ
à¶´ à¶±
Ġà¶ħ à·ĥ
Ġà·ĥà¶¸ à¶ľ
à¶» à·ģ
Ġà·ĥà¶³ à·Ħà¶±
à¶ ¨
Ġà¶ħà·Ģ à·ģ
Ġà·ĥ à¶·
à¶´ à¶º
à¶» à¶°
Ġà·Ģ à·ĥà¶»
à¶§ à¶»
Ġ à·Ĩ
à¶ ĭ
Ġà¶´ à¶¯
à·ĥ à¶Ń
Ġà¶Ĩ à¶»
Ġà·ĥ à¶¯
Ġà¶´ à·Ģà·ĥ
à¶±à¶º à¶§
à¶» à¶«à¶º
Ġà¶ľ à¶¸à¶±
à¶ħ à¶±
Ġà¶ī à¶½
à·Ģà¶½ à¶§
Ġ à·ħ
Ġà¶´ à·Ħ
à¶ Ĩ
Ġà¶ĳ à¶½
Ġà·Ģà¶½ à¶§
Ġ2 01
à¶¯ à·Ħà·ĥ
Ġà¶¶ à·Ģà¶Ń
à¶º à¶¯
à¶Ń à·Ģ
Ġà¶¶à¶½ à¶±
Ġà¶ļ à¶«
Ġà¶ħà¶¯ à·Ħà·ĥ
à·ĵ .
Ġà¶Ĩ à¶º
à·ĥ à¶§
à¶º à¶ľ
Ġà¶ļà¶» à¶±à·Ģ
Ġà·Ģ à¶Ń
Ġà¶´ à¶±
Ġà¶´ à·Ģ
Ġà¶Ĩ à¶«
Ġà¶Ń à·Ģà¶Ń
Ġà·Ģ à¶§
Ġà¶¯ à·Ģà·ĥ
à¶ĳ à¶¸
à¶º à·ĥ
à·ħ à¶¹
Ġà¶ļ à¶©
à¶¸ à¶¯
Ġ 5
Ġà·Ħ à¶¯
à¶½ à¶§
à¶» à¶ºà¶ļ
à¶½ à¶°
Ġà¶Ĩ à¶»à¶ļ
à¶½ à¶ºà¶ļ
Ġà¶Ĩ à¶ļ
à¶ļà¶» à¶±
Ġà¶ļ à·Ģ
Ġà·Ģ à·ģà¶º
à·Ĭ .
à¶ ¥
Ġà¶ħ à·Ħ
à¶¶ à¶»
Ġà¶± à·Ģ
Ġà¶Ĩ à¶¯
Ġà¶Ń à¶»à¶¸
à·Ģ à¶ºà¶ļ
à¶Ń à¶½
Ġ 4
à¶´ à¶ºà¶ļ
Ġà¶ī à·ĥ
Ġà¶Ĵ à·Ģ
à¶ºà¶± à·Ģ
Ġà¶ľ à¶«
à¶± à¶±
à¶ļà¶» à¶«
à¶ĳ à¶º
à¶» à¶´
à¶½ à·ĥ
à¶ļà¶» à¶«à¶º
à¶§ à¶´
à·Ĥ à¶ļ
Ġà¶ĩ à¶º
Ġà·ĥà¶¸ à¶Ł
à¶Ķ à¶º
à¶Ķ à·Ħ
Ġà¶Ń à·Ģ
à¶ļ à·Ģ
à¶¶ à¶½
à¶Ĵ à¶Ń
à¶¶ à¶¯
à¶ ¡
à¶º à·Ģà¶»
à¶½ à·Ģ
Ġà¶ļ à¶±
à¶ Ĭ
à¶ļ à¶Ń
à¶¸ à¶½
Ġà¶» à¶¢à¶º
à¶½ à¶±à¶º
à¶ļ à¶¯
Ġà¶ħ à¶·
à¶ ¬
Ġà¶ĳà¶ļ à¶Ń
à¶¢ à¶´à¶ļ
Ġà¶ ¡
à¶Ķ à¶¶
Ġà¶Ĩ à¶»à¶¸
à¶» à¶½
Ġà·ĥ à¶±
à¶» à¶ºà¶§
à¶¸ à¶ľ
Ġà¶º à¶¸
Ġà¶» à¶¢
Ġà¶ħ à¶ļ
Ġ 0
Ġà¶ī à·Ħ
à·Ĥ à¶«à¶º
Ġà¶º à¶§à¶Ń
à¶¶à¶³ à·Ģ
à¶ľ à¶½à¶º
Ġà¶Ĩ à·Ģ
Ġ1 9
à¶ī à¶Ń
à¶° à¶Ń
Ġà¶± à¶ľ
Ġà¶¸ à¶½
Ġà¶ĳà¶ļ à¶§
à¶§ à¶½
à·Ĳ à¶Ĥ
Ġà¶½à¶¶ à¶±
Ġà¶ħ à¶ľ
Ġà¶ĳ à¶»
à¶ħ à¶©
à·Ħ à¶§
à¶´ à¶¯
à¶¯ à¶ļ
à¶¸ à·ĥ
Ġà¶´à¶¸à¶« à¶ļ
Ġà¶ħà¶± à¶Ń
à¶ł à¶±
à¶§ à¶º
Ġà¶ī à¶©
à¶° à¶±à¶º
à¶½ à¶¸
Ġà¶ļà¶» à¶ľ
à¶ħ à¶¯
à¶ļ à¶ºà¶±
à¶ĳ à¶ļ
Ġà¶ħà·Ģà·ĥ à¶±
Ġà¶ĳ à¶´
Ġ 6
Ġà¶ľ à¶¸
Ġà¶ĩ à·ĥ
à¶ĳ à·ĥ
à¶Ńà¶» à¶º
Ġà¶¸ à¶°
Ġà¶ĩ à·Ģ
à¶ľ à¶ºà¶ļ
Ġà¶ĳ à·Ģ
à¶ Ŀ
à¶Ķ à·Ģ
à¶ļ à¶ł
à¶½ à¶Ń
Ġà¶ļà¶» à¶º
Ġà¶ī à·Ģà¶Ń
Ġà·Ģ à·Ħà¶±
Ġà¶¶ à·ĥ
à¶´ à¶»
à¶§ à·ĥ
à·Ķ à¶Ĥ
à¶Ĵ à¶ļ
Ġà¶¸à¶Ń à¶ļ
à¶« à¶ºà¶ļ
à·ģ à¶±
Ġà¶¸ à¶«
Ġà·Ħ à¶³
à¶Ń à¶§
à·Ģà¶» à¶«à¶º
Ġà¶´ à¶§à¶±
à¶¯ à¶ľà¶Ń
à¶´ à¶±à¶º
Ġà¶ħà¶´ à¶§
à¶Ń à¶Ń
Ġà¶» à·ĥ
Ġà·ĥà¶¯ à·Ħ
Ġà¶» à¶®
à¶ļ à·ħ
à¶» à¶¢
à¶ļ à¶±
à¶© à¶±
à·Ħ à¶¸
Ġà¶´ à¶½
Ġà¶Ńà¶» à¶ľ
Ġ 7
à¶º à·Ģà·ĥ
Ġà¶ĳ à·ĥ
à¶» à¶§à¶Ń
à¶¯ à¶±à¶º
Ġà¶ħà·Ģ à¶°
Ġà¶Ĭ à¶§
à·Ģà¶ļ à¶§
à¶¢ à¶±à¶º
Ġà¶ļà¶» à¶ľà¶±
à·Ģ à¶ľ
Ġà·Ģ à·ĥ
à·Ļ à·Ĭ
Ġà¶ĩ à¶¸à¶Ń
à¶¸ à·Ħ
Ġà¶» à¶±
à¶± à¶¯
à¶³ à·Ģ
Ġà¶Ĭ à¶º
à¶ł à¶»
Ġà¶ĭ à·ĥ
à¶« à¶Ń
Ġà¶¸ à¶»
à¶º à·Ģà¶»à¶º
Ġà¶īà·Ħ à·ħ
Ġà¶´ à·Ħà·ĥ
Ġà¶¶à¶½ à¶´
Ġà¶´à·ħ à¶¸
Ġ 8
à¶« à¶ļ
Ġà¶ľ à¶½
Ġà¶¶ à¶±
à¶ļ à·ĥ
Ġà¶¸ à·ĥ
Ġà·ĥà·Ħ à¶·
à¶ī à¶±
Ġà¶¶ à·Ħ
Ġà¶ī à¶³
Ġà¶º à¶±à·Ģ
Ġà¶¶ à¶¯
à¶½ à¶ľ
Ġà¶Ķà¶¶ à¶§
Ġà¶ľà¶« à¶±
à¶Ńà¶» à¶¸
à¶ĩ à¶Ń
00 0
à·Ģ à¶ºà¶§
à¶´ à¶½
Ġà¶ħ à¶»à¶¸
à·ģ à¶ļ
Ġ1 0
Ġà¶ĭ à¶©
Ġà¶¡ à¶±
Ġà¶ĳ à·ħ
Ġà¶»à¶§ à·Ģà¶½
Ġà¶ Ŀ
Ġà·ĥ à¶§
à·Ģà¶» à¶«
Ġà·Ħà¶» à·Ħ
Ġà¶ī à¶ļ
Ġà¶Ń à·Ħ
Ġà¶ĩ à¶¸
à¶ºà¶ļ à¶º
à¶º à·Ģà¶±
à·Ħ à¶Ń
Ġà¶ĳà¶ļ à¶¸
Ġà¶» à¶Ń
à¶± à¶½
Ġ âĢį
à¶¯ à·Ģ
à¶Ń à¶±à¶º
Ġà¶Ĩ à¶¯à¶»
à·ĥà¶§ à·Ħà¶±
Ġà·ĥ à¶»
Ġà¶ħ à¶ºà¶§
Ġà¶ĭ à¶¹
Ġà¶ĳ à¶¯
à¶½ à¶¯
à¶»à¶¸ à¶º
Ġà¶¶ à¶»
Ġà¶ļà¶» à¶´
Ġà¶Ĩ à·ĥ
Ġà¶Ĩ à¶ºà¶Ń
Ġà¶ħ à¶¸à¶Ń
Ġà·Ģ à¶±à·Ģ
à¶© à·ĥà¶§à·Ħà¶±
Ġà¶Ń à¶¶
à¶§ à·Ħ
Ġà¶ĩ à·Ħ
Ġà¶± à¶©
Ġà¶¶à¶½ à¶º
Ġà¶ī à¶ľ
Ġà¶ĩ à¶¯
Ġà¶ĭà¶´ à¶¯
Ġà·ģ à¶ļ
Ġà¶Ķ à¶ļ
Ġ 9
Ġà·ĥà¶¸ à·Ħà¶»
à¶º à¶´
à¶± à¶ľ
à¶±à·Ģ à¶¯
à¶± à¶»
Ġà¶Ń à¶±
à¶¸ à·ħ
Ġà¶Ĩ à·Ħ
Ġà¶ĳ à¶Ń
à¶»à¶´ à¶§
à·Ĥ à¶±
Ġà·ĥà¶§ à·Ħà¶±
à·Ħ à¶º
à¶Ń à¶§à¶¸
Ġà¶ħà¶´ à¶»
à¶Ń à¶ºà¶ļ
à·ħ à¶ļ
à¶Ńà¶» à¶ļ
à¶º à¶ºà¶±
à¶© à¶¸
Ġà¶ħà¶º à¶Ń
Ġ2 0
Ġà¶ħà¶© à·Ģ
Ġà¶´ à¶§
Ġà¶Ķ à·ĥ
à¶¯ à¶ºà¶ļ
à¶© à¶½à¶º
Ġà¶¯ à¶¸
Ġà¶¶à·Ģ à¶¯
à¶Ĭ à¶§
à¶±à·Ģ à¶½
à·ģ à¶±à¶º
Ġà¶º à¶§
à¶´ à·Ģ
à·ģ à¶ºà¶§
Ġà¶ł à¶»
à¶» à¶ł
Ġà¶ĩ à¶³
à¶»à¶« à¶ºà¶ļ
Ġà·ĥ à¶½
Ġà¶ħ à¶ľà¶¸
Ġà¶Ĩà¶º à¶Ńà¶±
à¶º à¶»
à¶§ à¶ļ
Ġà·ħ à¶¸à¶º
Ġà¶ł à¶±
Ġà¶ļ à¶®
à¶¸ à·Ģ
à¶ µ
Ġà¶Ĩ à¶ľà¶¸
à¶ºà¶ļ à¶Ń
Ġà¶½ à·ĥ
à·ĥ à¶³
Ġà·Ģà¶ľ à¶ļ
Ġà¶º à¶º
Ġà¶ Ī
Ġà¶¢à¶± à¶´
Ġà¶Ĩ à·ĥà¶±
2 01
Ġ1 5
Ġà¶Ĩ à¶±
Ġà·Ħ à¶¯à¶±
Ġà¶ĩ à¶±
à¶° à·Ģ
à¶ļ à¶ºà¶ļ
à¶ħ à¶¸
à·ħ à¶Ń
Ġà¶ĩ à¶¸à¶»
à¶´ à·Ħ
1 9
Ġà¶ĩ à¶»
Ġà¶ī à¶»
Ġà¶ļ à¶´
Ġà¶¶ à¶º
Ġà¶º à·Ħ
à¶¸à¶§ à¶Ń
à¶½ à¶»
Ġà¶¸ à¶Ł
Ġà¶¸ à·Ģ
Ġà¶° à¶»
à¶ĩ à¶º
à¶ ķ
Ġà·ĥà¶¸ à¶Ń
Ġà¶Ĩà¶ºà¶Ń à¶±à¶º
à·Ģ à·Ģ
Ġà¶´à·Ģà·ĥ à¶º
Ġ1 2
à·ģ à¶ºà¶ļ
Ġ à·Ĥ
Ġà¶Ĩ à·ģ
à¶Ńà¶» à·Ģ
à·Ħ à¶ļ
Ġ2 00
Ġà¶ĩ à¶½
Ġà·ĥà·Ħ à¶º
à·ħ à¶³
à¶ľ à¶»
Ġà¶¢ à¶½
à¶ļ à¶©
à¶ľ à¶¸à¶º
à¶» à¶ľ
à¶« à¶±
Ġà¶ī à¶§
Ġà¶ļà¶» à¶ľà¶Ń
Ġà¶± à·Ģà¶Ń
à¶½ à¶´
à¶´ à·ħ
à¶¸ à¶ºà¶ļ
à¶° à¶ºà¶ļ
à¶Ń à¶ºà¶§
à¶» à¶®
à¶½ à¶ºà¶§
à·Ģ à¶ºà¶±
Ġà·ĥ à¶½à¶ļ
Ġà¶´à·Ħ à¶Ń
Ġà¶¢ à¶ºà¶ľ
Ġà¶Ĩ à¶ł
à¶»à¶¸ à·ĥ
Ġà·ĥ à¶ļà·ĥ
Ġà·ĥ à¶§à¶±
à¶» à¶ºà¶±
à·ļ .
Ġà¶ĭà¶¯ à·Ģ
à¶¯ à¶¸
à¶· à¶º
Ġà·ħ à¶Ł
Ġà¶ħà¶¸à¶Ń à¶ļ
Ġà¶´ à¶«
Ġà·Ģ à¶ºà·ĥ
à¶® à¶ļ
Ġà¶¯à·Ģà·ĥ à¶ļ
Ġà·Ħ à¶§
Ġà·ĥà¶¯ à·Ħà¶±
Ġà·Ģ à¶»à¶¯
à¶Ķ à¶±
Ġà¶¶ à¶©
à¶ļ à¶ļà¶»
Ġà·Ģ à·Ħ
à¶Ń à·Ģà¶Ń
Ġà·ĥ à¶´
Ġà¶±à¶ľ à¶»à¶º
à¶º à¶ºà¶ļ
Ġ1 8
à¶ħ à¶»
Ġà¶Ķ à¶±
Ġà¶»à¶§ à¶ļ
à¶© à¶º
Ġà¶ľ à·ĥ
Ġà¶º à·ħ
à¶± à·Ħ
Ġ3 0
à¶¸à¶ļ à¶§
à¶¯ à¶§
à¶º à·Ħ
Ġà¶¶ à¶«
à¶º à¶ºà¶§
à·ĥà¶¸ à·Ħà¶»
Ġà¶´à·Ģà·ĥ à¶±
Ġà¶¸ à¶¯
Ġ1 1
Ġà¶ľ à·Ħ
Ġà¶ħ à·Ħà¶±
à¶» à·Ģà¶»
Ġà¶ħà¶» à¶±
Ġà¶ĭ à¶±à¶Ń
à¶»à¶ļ à¶§
Ġà¶¸à·Ħ à¶±
à¶ħ à¶Ń
Ġà¶Ńà¶» à¶ľà¶º
Ġà¶ĩ à¶ľ
Ġà¶¢ à¶º
Ġà¶ĳ à¶±à·Ģ
Ġà¶´à¶¯ à¶±à¶¸
Ġà¶ĭà·ĥ à·ĥ
à¶§ à·Ģ
à¶º à·ħ
Ġà¶ħà¶¸ à¶Ńà¶»à·Ģ
Ġà¶ Į
Ġà¶ľ à¶»
Ġà¶ħà¶» à¶ľ
à¶±à·Ģ à¶Ń
à¶¢ à¶ļ
Ġà¶ĭ à¶«
Ġ2 5
à·Ģ à·Ħà¶±
Ġà¶Ĩ à¶°
à¶ł à¶±à¶º
Ġà¶¯ à·Ħ
Ġà¶´ à¶±à¶Ń
à¶» à¶ľà¶Ń
Ġ 000
à·Ĵ âĢįà·ĬâĢį
Ġà¶Ńà·Ģ à¶¸à¶Ń
Ġà¶Ń à·Ģà¶¯
Ġà¶» à¶ļ
à¶ ¤
à¶ĭ à¶¹
à¶ħ à·Ģ
Ġà¶Ńà¶» à¶Ł
Ġà¶ «
à¶ľà¶½ à¶ºà¶±
Ġà¶¸ à¶»à¶«
à¶± à¶ºà¶±
Ġà·ĥ à¶º
à¶© à¶½
à·ħ à¶¯
Ġà¶ħà·Ģ à¶¶
à¶» à·ħ
à¶ĳ à·Ģ
Ġà¶ļ à·Ģà¶¯
Ġà¶¶ à¶§à·Ħ
Ġà¶Ĩà¶¯ à¶»à¶º
Ġ1 3
à¶ĳ à¶Ńà¶ļ
Ġà·Ģ à¶łà¶±
Ġà¶ľ à·Ħà¶±
Ġà·ħ à¶¸
à·ı .
à¶® à¶±
Ġà·ĥà¶¸ à¶±
Ġà·Ģ à¶º
Ġà¶´ à·Ħà¶»
à·ĥ à¶ºà¶ļ
à¶ĳ à¶Ń
à¶¶ à·Ģ
à¶³ à¶¸
à¶ĳ à¶¯
à¶ļ à¶¸à¶ļ
Ġà¶ļ à¶³
Ġà¶ī à·Ģà¶»
à¶ºà¶¯ à¶¸
Ġà¶»à¶§ à¶§
à¶ºà¶§ à¶¸
Ġà¶±à¶ľ à¶»
à¶»à¶ļ à¶¸
Ġà¶ħ à¶¶
Ġà¶´à·Ħ à·ħ
à·ħ à¶Ł
Ġà¶´ à¶¸
Ġà¶¯ à¶Ń
Ġà¶Ńà·Ħ à¶±à¶¸
Ġà·Ħ à¶º
à¶¯ à¶ºà¶§
Ġà·ĥà¶¸ à¶º
à¶§ à·ĥà¶ļ
Ġà¶¢à¶± à¶´à¶Ń
Ġ1 00
à¶³ à¶º
Ġà¶ĩ à¶Ł
à¶¢ à·Ģ
à·Ģ à¶·
Ġ1 6
Ġà¶ħà·Ģ à¶¯
à¶ħ à¶º
Ġà¶» à¶«
Ġà·Ħ à¶Ńà¶»
Ġà¶īà¶© à¶¸
Ġà¶¢ à¶½à¶º
à¶ľ à¶§à¶¸
Ġ1 4
à·Ļ à·ı
à¶Ńà¶» à¶ºà¶ļ
à·Ĥ à¶ºà¶ļ
à¶ľ à¶ºà¶§
à¶§ à·ħ
à·ĥ à¶¯
Ġà¶º à¶Ń
Ġà¶Ńà·Ħ à·Ģ
à¶¯ à¶»à¶º
Ġà¶ī à·Ħà¶½
à·Ĥ à¶ºà¶§
Ġà¶ĳà¶ļ à¶Ł
à¶° à¶ļ
à¶º à¶¸à¶ļ
à¶» à¶·
Ġà·ģ à¶»
Ġà¶Ń à¶¯
à¶Ń à¶¸à¶±
Ġà¶ħ à·ĥà¶½
à·Ĥà¶« à¶ºà¶ļ
à·Ģ à¶±à·Ģ
Ġà¶» à·Ħà·ĥ
à¶»à¶´ à¶§à¶º
Ġà¶ĭ à¶»
à¶ ŀ
Ġà¶¶à¶» à¶´à¶Ń
Ġà¶» à·Ģ
Ġà¶´ à¶»à¶¸
à¶± à¶ļà¶§
Ġà¶Ĩ à¶´
à¶±à·Ģ à¶±
à¶»à¶® à¶¸
à·ĥ à·Ģ
Ġà·Ħ à¶¬
à¶§ à¶¯
Ġà¶« à¶º
à·Ģà¶½ à¶¯
à¶© à¶´
à·ĥ à·Ħ
Ġà¶¢ à¶±à·Ģ
Ġà¶¯ à·Ħà·ĥ
à¶ľà¶Ń à¶º
Ġà¶´à·Ģà·ĥ à¶±à·Ģ
à¶± à¶ľà¶±
Ġ1 7
à¶® à¶º
à¶Ń à¶ºà¶±
Ġà¶ļà·ħ à¶¸à¶±
à¶Ĵ à·Ģ
Ġà¶ħà·Ģ à¶¸
Ġà¶ħà¶º à¶ľ
Ġà¶° à¶±
Ġà¶ħ à¶³
Ġà¶ħà¶´ à¶ľ
Ġà¶ħà¶Ń à¶§
Ġà¶ºà·Ħ à¶´à¶Ń
à·Ĥ à¶Ń
à¶» à·Ģà¶½
Ġà¶ħà¶´ à·Ħà·ĥ
Ġà¶ĭà¶´ à¶ļ
à·Ģ à·Ħ
Ġà¶ Ľ
Ġà·Ģ à¶¯
à¶ĳ à¶±
Ġà¶± à¶»
Ġà·ĥ à·Ģ
Ġà·ĥà·Ħ à¶Ń
à¶ļà¶»à¶« à¶ºà¶§
à·Ħ à¶¯
Ġà¶ĭà¶´ à¶±
Ġ2 4
à·Ĥ à¶ļà¶º
à¶»à¶¯ à¶»
à¶ħ à¶½
Ġà¶¸à·Ħ à¶¢à¶±
Ġà¶ļ à·ĥ
Ġà¶ĳ à¶ºà¶§
Ġà¶īà¶³ à¶½
à¶¯ à¶½à¶ļ
Ġà¶¢ à¶ºà·ĥ
à¶ºà¶½ à¶º
Ġà·ĥà¶¸ à·ĥ
à·ģ à·Ģà¶½
Ġ201 8
Ġà·Ħ à¶Ń
Ġà¶ĳà¶ļ à¶º
à¶»à¶¸ à¶ºà¶ļ
Ġà¶Ń à¶±à¶Ń
Ġà¶ ¥
Ġà¶īà·Ħ à¶Ń
Ġà¶ī à¶½à¶ļ
à¶ĭ à¶Ń
Ġ5 0
à¶¶ à·ĥ
à¶»à·Ħ à¶«à¶º
à¶© à¶»
à·Ļ à¶Ĥ
à¶¥ à¶º
Ġà¶Ķà¶¶ à¶ľ
à·Ħ à¶±à¶º
Ġà¶¯ à¶©
Ġà¶Ĵ à¶Ń
Ġà¶¯ à¶¬
à¶± à¶ľà¶Ń
Ġà¶± à¶Ńà¶»
Ġà¶ķ à¶ļ
Ġà¶ĭ à·ħ
à¶¢ à¶±à¶Ń
Ġà¶¸à¶Ń à¶ļà¶º
à¶º à·Ģà¶½
à¶¶à¶¯ à·Ģ
Ġà¶ħ à·Ħà¶½
à¶ĭ à¶¯
Ġà¶Ń à¶½
Ġà¶¶à·Ģ à¶ļ
à¶ºà¶ļ à¶ºà¶±
Ġà¶¯ à·ĥ
à¶ľ à¶«à¶ļ
à¶ī à·ĥ
à¶³ à¶§
Ġ201 7
Ġà¶º à¶¸à¶ļ
Ġà¶½ à¶Ł
Ġà¶º à¶ļ
Ġà¶ħ à¶ľà¶º
à¶¸à¶§ à¶º
Ġà¶ħ à·ħ
Ġà¶¸ à¶Ńà¶º
à·ĵ âĢįà·ĬâĢį
à¶ħ à¶°
à¶ľ à¶§
Ġà·Ħ à·ĥ
à¶ľà¶¸ à¶±à¶º
à¶± à¶´
à¶ĭ à¶±
à¶¶ à¶º
à·Ģà¶Ń à¶Ń
à¶ĳ à¶½
Ġà¶ĩ à¶ºà¶§
à·ľ à¶Ĥ
Ġà¶»à¶® à¶º
à·Ģ à¶±à¶º
à¶ľ à·ĥ
Ġà¶´ à·Ħà¶½
à¶µ à¶½
Ġà¶ļ à¶¸à¶ļ
Ġà¶¯à¶» à¶±
Ġà¶ľà¶« à¶±à¶ļ
à·ģ à¶ļà¶º
Ġà¶ļà·ħ à·Ħ
à·Ģ à¶¸à¶±
Ġà¶¯ à·Ħà¶¸
à¶± à·ĥà¶ļ
à¶¶ à¶©
Ġà¶¸ à¶º
Ġà¶¶à¶½ à¶½
2 0
à·ĥ à¶»à¶º
à·ĥ à·Ģà¶º
Ġà¶Ķ à¶½
Ġà¶ĭ à¶½
Ġà¶¯ à¶¸à¶±
à·ħ à¶§
à¶ļà¶» à¶¸
Ġà¶Ķ à¶´
à¶ľ à¶½à¶±
Ġà¶º à·Ģà¶±
à¶Ĩ à¶»
Ġà¶¢ à¶±à¶º
Ġà¶ĳ à¶ł
à·Ķ .
Ġ201 5
Ġà¶± à¶»à¶ļ
Ġà¶Ĩ à¶Ń
Ġà¶ĭà¶´ à¶»
à¶¢ à¶»
Ġà·Ģà¶½ à¶¯
Ġà¶ĳ à¶¢
Ġà¶īà¶³ à¶±
Ġà¶¸ à¶§à¶Ń
Ġà¶ļ à¶ļ
Ġà¶´à¶¸ à¶«à¶º
Ġà¶¸ à¶©
Ġ2 1
Ġà¶ĭ à¶ľ
Ġà¶Ĩ à¶½
à¶° à¶´
à¶Ń à¶±à·Ģ
Ġà¶¸ à¶¸à¶Ń
à·ħ à·Ģ
à¶« à¶¯
à¶¶ à¶§
Ġà¶Ĵ à¶ļà¶§
Ġà¶¢ à¶»
Ġà¶¢ à¶±à¶¸
Ġà·Ģ à¶»à¶ļ
à·Ģà¶ļ à¶¯
Ġà¶¶à¶½ à¶¸
à¶´ à¶§
Ġà¶ļà¶» à¶Ń
Ġà·ĥà·Ħ à¶±
Ġà¶ĩ à¶´
Ġà¶Ī à¶Ń
ĸ à·Ĥ
Ġ2 2
à¶ļ à¶ºà¶§
Ġà¶ µ
Ġà¶ľ à·Ħà¶½
à¶§ à·Ģà¶Ń
à¶ľ à¶¸à¶±
Ġà·Ģà¶± à¶¯
à¶ħ à·Ģà·ĥ
à¶ĳ à¶±à¶¸
à·Ģà¶ļ à¶º
à¶¯ à¶ľ
à¶» à¶¶à¶½
Ġà¶ĩà¶» à¶¹
Ġà¶» à¶Ł
Ġà¶»à¶® à¶ºà¶ļ
Ġà·Ħà¶¯ à·Ģà¶Ń
à¶»à·Ħ à¶º
à¶ļ à¶´
Ġà¶ļ à¶¯
à¶º à¶«
à¶¸ à¶¸à¶Ń
Ġà¶ļà¶» à¶¯
Ġ19 9
à¶»à¶ļ à¶®à¶±
à·Ģ à¶«
Ġà¶¢à¶± à¶»
à¶ºà¶± à¶º
à¶Ĭ à¶º
à¶¥ à¶ºà¶±
à·Ħà¶½ à¶§
Ġà¶´à¶» à¶«
Ġà¶ ĸà·Ĥ
Ġà·ĥ à¶¢
Ġà¶½ à¶ľ
Ġà¶½ à¶±
à·ģ à·Ģ
Ġà·Ħ à¶±
Ġà¶ĭà¶± à¶±
à¶º à¶¸à¶º
Ġà¶¸ à·ħ
Ġà¶´ à·Ģà¶»
2 00
Ġà¶¶à¶½ à¶°
Ġà¶ĳ à¶Ńà¶±
Ġà¶ħ à·ĥà¶±
Ġà¶ļà¶½ à¶ļ
Ġà¶ħà¶¯à·Ħà·ĥ à¶ļ
Ġà¶ħà¶Ńà¶» à¶Ń
Ġà¶ĳ à¶»à¶§
ð Ł
Ġà¶ħ à¶Ł
à·Ģà·ĥ à¶»
Ġ2 3
Ġà¶½ à¶º
Ġà¶ļ à¶³à·Ģ
à¶¢ à¶ºà¶ļ
à¶´ à¶ºà¶ļà¶§
à·Ĥ à·Ģ
Ġà¶ī à¶©à¶ļ
Ġà¶ĭà¶´ à¶ļà¶»à¶«
Ġà¶´à·Ħ à¶»à¶¯
Ġà¶º à¶¯
Ġà¶§ à¶º
à¶« à·Ģà¶Ń
Ġà¶ĳ à·Ģà¶±
à¶±à·Ģ à¶½à¶§
à¶ī à¶¯
Ġà¶¶à¶½ à¶ļ
Ġà¶¶à¶½ à·Ģà¶Ń
à¶© à¶ļà¶º
Ġ201 6
Ġà¶¶ à¶Ń
à¶ļà¶» à¶ľ
à¶Ĩ à¶«
à·ģ à¶±à¶ºà¶ļ
à¶¢à¶± à¶ºà¶ļ
à¶½ à¶ļà¶º
à¶ļ à¶ļà¶§
à¶»à¶¸ à·Ģ
Ġà¶´ à¶¸à¶±
Ġà¶Ńà¶» à¶¸à¶§
Ġà¶ļà¶» à·Ģ
Ġà·ĥ à¶»à·ĥ
Ġà¶± à·ħ
à¶Ĩ à¶º
Ġà·ĥ à¶ļ
Ġà¶Ĩ à¶´à·Ħ
à¶¢ à¶ºà¶§
à¶ļà¶» à¶º
Ġà¶ħ à¶§
Ġà¶¶à¶»à¶´à¶Ń à¶½
Ġà·ĥ à¶»à¶Ń
Ġà·ĥ à¶¶à¶³
Ġà¶Ńà¶»à¶¸ à¶ļ
à·Ħ à¶¬
Ġà·Ħ à¶¯à¶½
Ġà¶Ĩ à¶´à·ĥ
à¶¶ à¶½à¶±
Ġ2 6
à·Ģ à¶´
Ġà¶¸ à¶ł
à·Ģà¶» à¶ļ
Ġà¶ħà¶± à¶±
Ġà¶ļà¶» à¶¯à¶»
Ġ4 0
à¶ľ à¶±à¶º
à¶¸ à¶©
Ġà¶ħà¶º à·Ģ
à·ĥ à¶±à¶º
à¶ľ à¶´
à¶ºà¶§ à¶Ń
Ġà·Ģà¶»à¶¯ à¶ļ
Ġà¶¶ à¶³
à¶¯ à¶Ń
Ġà¶¢à¶±à¶´ à¶¯à¶º
Ġà¶ħ à·Ģà¶ļ
à¶¯à¶± à¶ºà¶ļ
Ġà¶ĳà¶ļ à¶ļà¶§
Ġà¶ħ à·Ģà¶§
à¶ļ à¶ľ
Ġà·ĥà¶¶à¶³ à¶Ń
à¶´à¶Ń à¶ļ
à·ħ à¶´
à·ĥ à·ĥ
à¶¶ à¶»à·Ģ
Ġ19 8
Ġà·ĥ à¶¶
à¶© à¶ºà¶ļ
Ġà¶¸à·Ħ à¶½
à¶± à¶ļà¶¸
à·Ģà·ĥ à¶§
Ġà¶¶à¶½ à¶´à¶Ń
Ġà¶± à·Ģà¶ļ
Ġà¶ºà·Ħ à¶´
à¶Ł à·Ģ
Ġà¶º à¶®
Ġà¶»à¶¢ à¶ºà¶§
à¶© à·Ģ
Ġà¶Ĵà¶ļ à¶ļà¶º
Ġ2 7
Ġà¶¢ à·Ģ
Ġà¶ľà¶± à¶±
à¶ľ à¶«
à·Ģà¶» à¶ºà¶ļ
à·Ģà·ĥ à¶ļ
Ġà¶ĳ à¶±à¶¸
Ġà¶¶à¶½ à·Ģ
à¶Ľ à¶±
5 0
Ġà¶´ à¶º
Ġà·Ģà·ĥ à¶»à¶ļ
à¶½ à¶½
Ġà¶´à¶» à¶´
à·ħ à¶º
à¶ľ à¶ļ
à¶« à·ĥ
Ġà¶± à¶º
Ġ2 8
Ġà¶Ń à¶§
Ġà¶ħ à·ģ
à¶´ à¶ºà¶§
à¶Ń à·Ģà¶¯
Ġà¶ĸà·Ĥ à¶°
à¶© à¶±à¶º
Ġà¶ĭà¶´ à¶º
Ġà¶ĩ à¶ºà¶ľ
Ġà¶º à¶½
à¶» à¶ļà¶»
à¶¸à¶§ à¶¯
Ġà¶ķ à·ĥ
Ġà¶¢ à¶´
à¶¸ à¶ºà¶§
Ġà¶¸ à¶»à¶«à¶º
Ġà¶½à¶¶ à¶º
à·Ħ à¶ºà¶ļ
Ġà¶ľ à·Ģ
Ġà·ĥà¶»à·ĥ à·Ģ
Ġà¶ħ à·Ħà·ĥ
Ġà·Ģ à·ĥà¶±
Ġà¶¯ à¶º
à·ĥà¶» à¶«
à¶« à·Ģà¶»
Ġà¶ĳ à¶Ńà¶ļ
Ġà¶¶à¶½ à¶ºà¶§
ĵ à¶Ń
à¶ħ à¶±à¶Ń
Ġà·Ģ à¶ļ
à¶« à¶§
Ġà¶ħà·Ģà·ĥ à¶»
Ġà¶± à¶½
à¶ºà¶½ à¶Ń
à¶ľ à·Ħ
Ġà¶´à·ħ à·Ģ
Ġ 01
Ġà·Ħ à·Ģ
Ġà·Ģà¶§ à·Ħ
à¶Ķà¶¶ à¶§
Ġà¶ĭ à¶´à¶Ń
Ġà¶ħ à¶±à·Ģ
Ġà¶ļ à·Ģà¶»
Ġà·ĥ à¶»à¶½
Ġà¶¢ à¶ºà·Ģà¶»
à¶ľà¶½ à¶ºà¶ļ
Ġà¶» à·Ħ
à¶» à·Ħà·ĥ
Ġà¶ĭà¶´ à·ĥ
Ġà¶± à¶¸à¶ļ
Ġà¶´à·Ħ à¶ļ
à·ĥ à¶½à¶ļ
à¶ł à¶±à¶ºà¶ļ
à¶¶ à·Ħ
à¶§ à¶§
Ġà¶ĳ à¶Ńà¶»à¶¸
à¶»à¶§ à¶§
à¶º à¶¸à¶§
à¶½ à¶±à¶ºà¶§
à·ĥ à¶ļà¶§
à·Ģà¶ļ à¶ºà¶±
à¶® à¶±à¶º
Ġà¶ħ à¶ļà¶¸
à¶¯à¶» à¶§
à¶¶ à¶Ń
Ġà·Ģ à¶łà¶±à¶º
à¶½à¶ļ à¶ºà¶±
Ġà·ĥ à·Ģà·ĥ
à¶Ń à¶¯
Ġà·ĥà·Ħ à¶ľà¶Ń
Ġà¶ĭ à·Ģà¶¸à¶±
à¶´ à¶«à¶º
Ġà·ĥà¶½à¶ļ à¶±
Ġ 00
Ġà¶ĭ à¶ľà¶±
Ġà¶ºà¶± à¶ļ
à¶« à¶ºà¶±
à¶« à¶ºà¶§
à¶¨ à¶º
à·Ĥà¶ļ à¶ºà¶±
Ġà¶Ń à¶¶à¶±
à¶Ĵ à¶ļà¶§
à·Ħ à¶»à¶«à¶ºà¶ļ
à¶» à¶¢à¶º
Ġà¶ł à¶¸
Ġà¶ī à·Ģà·ĥ
à¶° à¶»
à¶ľ à¶ºà¶±
Ġà¶ľà¶Ń à·Ģ
Ġà¶¢à¶± à¶´à¶¯
à¶Ń à¶ļà¶§
Ġà¶ħ à¶¢
à¶¯ à·ĥ
Ġà¶± à¶±
à¶´à·ħ à¶¸
Ġ19 7
Ġà¶»à¶« à·Ģ
Ġà·ĥà¶´ à¶ºà¶±
à·Ĵ âĢį
à¶» à·Ģà¶±
à·ĥ à¶·
à¶Ł à¶ļ
à·Ģà¶± à¶¸
à¶½ à¶ļà¶§
Ġà¶ļà¶Ń à¶±
à¶ĳ à¶¶
Ġ2 9
Ġà¶Ń à¶ļ
Ġà¶ ĵà¶Ń
Ġà¶Ń à·Ģà¶¸
Ġ0 3
Ġà¶Ķà¶¶ à¶Ń
Ġà·Ħ à¶½
Ġà¶ī à·Ģà¶»à¶º
Ġà·Ħ à¶Ńà¶»à¶ļ
Ġ3 1
Ġà¶»à¶Ł à¶´
Ġà·Ģ à·Ħà¶½
à¶§ à¶ľ
à¶±à¶ºà¶ļ à¶§
à¶¶ à¶½à¶º
Ġà¶ĭ à¶ľà¶Ń
à¶ľ à·Ģ
à¶ļà¶» à¶½
à¶¯ à¶»à·Ģ
Ġà¶¸à¶± à·ĥ
Ġà¶´ à¶©
à¶» à¶¹
à¶±à¶§ à¶Ń
Ġà¶ĳ à¶±à¶ļ
Ġ201 4
Ġà·Ģ à·ħà¶ļ
à¶Ń à¶´
Ġà¶ĩ à¶§
à¶± à¶©
à¶±à¶§ à¶¸à¶Ń
Ġ6 0
à¶± à¶¸à¶ļ
à¶ľ à¶¸à¶ļ
à¶ºà¶ļ à¶»
Ġà¶ħà¶Ńà¶» à¶¸
à¶¹ à¶±
Ġ0 7
à¶ķ à¶±
à¶ľ à¶¸à¶§
à¶» à·ĥà¶±
Ġà¶ħà¶º à¶¯
Ġà·Ģà¶» à¶§
à¶³ à¶´
à·Ģà¶» à¶«à¶ºà¶ļ
Ġà¶Ĩ à¶Ńà¶½
Ġà·Ģ à¶¸
Ġà¶ľ à¶¶à¶©
Ġà·ģ à¶¶
à¶Ľ à¶«
à·ĥà¶» à·Ħ
Ġà¶Ĩ à¶¶
Ġà¶ī à¶¯à¶±
Ġà¶Ĩà¶ºà¶Ńà¶± à¶ºà¶ļ
à¶· à¶ļ
à¶ħ à¶ļ
à¶» à¶±à¶º
à¶ Į
à¶¸à·Ħ à¶Ń
à¶© à¶§
à¶ĩ à¶½
à¶ĳ à¶ºà¶§
Ġà¶Ķ à·Ĩ
Ġ0 5
Ġà¶ļà¶» à·Ģà¶±
à¶Ń à¶ľ
1 8
Ġ5 00
à¶½à¶± à¶ºà¶ļ
Ġà¶ī à¶´à¶¯
Ġà¶īà¶¯ à¶½
à·Ģà¶§ à¶¸
Ġà¶»à¶¢ à¶Ń
Ġà·ĥà·Ħ à¶ļ
à¶ĩ à¶¸à¶»
Ġà¶Ĵ à¶ļà¶ļ
Ġà¶ĳ à·ħà¶¹
à¶» à¶ľà¶±
à¶©à¶ļ à¶ºà¶±
Ġà¶Ĩ à¶ļà¶»
à¶»à¶ļ à¶º
à·Ģà¶§ à¶Ń
à·ħ à¶¸
Ġà¶Ĩ à¶±à¶±
Ġà¶ħ à·ĥà¶»à¶«
à¶¨ à¶¸
à·ģ à¶ºà¶±
Ġà¶ľà¶¸à¶± à¶ļ
Ġà¶ħà¶´ à·Ħ
Ġà¶´ à¶½à·Ģ
à¶ĳ à·ħ
à¶» à·Ģà¶º
Ġà¶ĩ à¶©
à¶´ à¶¸à¶«
à·ĥ à¶ºà¶§
à¶ħà¶´ à¶§
Ġà¶ħà¶» à¶ľà¶½à¶º
Ġà¶Ĭ à·ħà¶Ł
Ġà¶´ à·ģ
Ġà¶ī à·Ģ
à¶ºà·Ģ à·ģ
à¶±à·Ģ à¶§
Ġà¶» à¶³à·Ģ
à·Ĥà¶« à¶ºà¶§
Ġà¶ĭà¶¹ à¶§
Ġà¶Ĩ à¶´à¶¯
à·ĥà¶» à·Ħà¶§
Ġ0 8
Ġ201 3
Ġ3 5
à·Ĥ à¶½
Ġ201 2
à·ħ à¶°
Ġà·ĥà¶¸ à¶»à·Ģ
à·Ĥ à¶ºà¶±
Ġà¶ħ à¶ľà¶±
à¶½ à¶¶
Ġà¶¸ à¶ļ
à·Ģ à¶ºà¶ļà¶§
Ġà¶ľ à¶Ł
Ġ7 0
à¶§ à¶´à¶Ń
à¶¢ à¶±à¶ºà¶§
à·Ģà¶» à¶±
à·ļ âĢįà·ĬâĢį
à¶¸à¶ļ à·Ģ
à·Ģ à¶©
Ġà¶· à¶º
Ġà¶ħ à·Ģà¶Ń
à¶Ń à¶ļà¶º
à¶±à·Ģ à¶±à¶¸
à·Ĥ à¶¸
à¶ī à·Ħà¶Ń
à¶ľà¶Ń à·Ģ
à¶Ĩ à¶»à¶ł
Ġ0 2
à¶ł à¶º
à·Ħ à¶½à¶º
Ġà·ĥ à¶Ł
à¶° à¶±à¶ºà¶ļ
à¶¢ à¶½
Ġà¶ħà¶´ à¶±à¶ºà¶±
Ġà·Ĩ à¶º
Ġà·Ģ à·ħ
à¶© à¶¶
à¶µ à¶½à¶ºà¶ļ
Ġà¶± à¶Ń
à¶¸à¶ļ à¶¯
Ġà¶½ à·Ģ
à¶ľ à¶«à¶º
à¶« à·Ģ
Ġà¶ł à¶ļ
à·Ģ à·ħ
à¶© à¶Ń
à¶´à¶¯ à·Ģ
à¶ķ à¶ļ
Ġ0 4
à·Ģà¶»à¶« à¶ºà¶§
à¶ļ à¶¸à¶§
à¶ºà¶ļ à·Ģà¶»à¶º
1 0
à¶¸ à¶´
à¶¯ à·Ħà¶±
à¶¸à¶± à¶§
à¶½ à·Ģà¶½
à·ı âĢį
Ġà¶Ńà¶» à·Ħ
à¶® à¶¸
Ġ0 6
Ġà¶ĳà¶ļà¶Ł à¶Ń
à¶»à¶º à¶Ń
à·ĥ à¶´
à¶³ à¶§à¶¸
Ġà¶ħ à¶«
à¶¸ à·Ħà¶±
à¶»à¶Ń à·Ģ
Ġ201 0
à¶ľ à¶©
à·Ĥ à¶¥
1 2
Ġà¶¶à¶»à¶´à¶Ń à·ħ
Ġà¶¶à¶½ à¶±à·Ģ
à¶Ń à¶ļà¶»
à·Ĥ à¶±à¶º
Ġà¶½ à¶Ń
Ġà¶ħ à¶ºà¶ļ
à¶½ à¶¹
à¶»à·ĥ à¶º
Ġà¶ħà¶Ńà¶» à¶§
Ġà¶ħà¶Ń à·Ħ
Ġà¶¶ à¶¶
Ġà¶¸à¶Ń à·Ģ
à¶»à¶¸ à¶«
â Ĩ
Ġà¶¸à·Ħ à¶¢à¶±à¶Ń
Ġ8 0
à¶Ķà¶¶ à¶ľ
à ®
Ġà¶Ķ à¶Ń
Ġà¶Ĩ à¶¥
à¶¸ à¶°
à·ĥ à¶±à¶§
à·Ķ âĢį
à¶½ à·Ģà¶º
à¶»à¶¸ à¶ºà¶§
à¶ļà¶» à¶Ń
à·Ħ à¶»à·Ģ
Ġà¶ī à¶¶
à¶»à¶« à¶ºà¶§
à¶¢ à¶°
à¶ħ à¶ľ
Ġà¶ħ à·Ģà¶½
à¶º à¶·
Ġà·Ģ à·Ģ
à¶º à·Ĥ
à¶» à¶§à¶¸
à¶»à¶¸ à¶«à¶º
Ġà¶ħ à¶¬
Ġà·Ģ à¶»à¶º
Ġà¶¶à¶½ à¶ºà¶ļ
Ġà¶ħ à¶¹
Ġà¶ļ à·Ħ
à¶» à¶ºà¶ļà¶§
à·Ģà¶» à¶§
à¶ĩ à¶¸
Ġà¶¶ à¶§
Ġà¶» à¶ł
Ġ4 5
à¶¸ à¶ºà¶±
Ġà¶¶à¶½ à¶Ńà¶½
Ġà·ĥà¶§à·Ħà¶± à¶ļ
Ġ201 1
Ġà¶ļà·ħ à¶Ń
à¶° à¶ºà¶±
Ġà¶Ķ à¶»
à¶¸ à¶»à¶º
à¶Ń à·Ħ
Ġà¶» à¶łà¶±
à¶ºà¶ºà¶± à¶º
3 0
à¶© à¶ļà¶§
Ġà·Ħà¶¯ à¶´
Ġà·Ħ à¶»à¶ļ
Ġà¶´à¶¯ à¶ļ
à¶ī à¶»
Ġà¶ħà¶¯ à¶Ń
Ġà¶ħà¶» à¶ľà¶½
Ġà¶Ĩ à·Ģà¶»à¶«à¶º
à¶½ à¶Ł
Ġà¶Ĭ à¶±
à¶½ à¶ºà¶±
Ġà¶´ à·Ħà¶±
Ġà¶ĳ à·Ģà¶ļà¶§
à¶± à¶´à¶Ń
à¶® à¶ļà·Ģ
à¶»à¶ļ à¶®à¶±à¶º
à¶° à¶±à¶ºà¶§
à¶ī à¶ļ
Ġà¶ļ à¶º
Ġà¶¯ à¶«
Ġà·ĥ à¶½à·ĥ
Ġà¶ł à¶Ń
Ġà¶Ĩ à·ĥà¶º
Ġà¶Ĵ à¶¸à¶§
Ġà·Ģ à¶łà¶±à¶ºà¶ļ
Ġà¶±à·Ģà¶ļ à¶Ń
à¶©à·ĥà¶§à·Ħà¶± à¶ļ
Ġà¶Ĵ à¶¸
Ġà·ĥ à¶»à¶«
Ġ à·Ļ
Ġà¶¯ à¶¹
à·ģ à·Ģà¶º
Ġà¶° à¶¸
Ġà¶ħà¶¸ à¶Ńà¶»
à¶´ à¶ł
Ġà¶¯ à·ģà¶ļà¶º
à¶³ à¶ļ
Ġà¶ľ à¶½à·Ģ
à·ĥ à¶ľ
à¶° à¶ºà¶§
Ġà¶ķ à·Ģ
Ġà·ĥà¶¸ à¶ľà¶¸
à¶´ à·Ģà¶Ń
à¶¯ à¶ºà¶±
Ġà·Ģà¶½ à¶ļ
Ġà¶ħà¶¯ à¶§à¶Ń
à·Ħà¶± à¶ºà¶ļ
à¶Ń à¶±à¶ºà¶§
Ġà·Ħ à·Ģà·ĥ
Ġà¶ħà¶±à·Ģ à·ģ
201 8
1 5
à¶§ à¶¸à¶ļ
à¶¯ à¶´
à¶»à¶ļ à¶Ńà¶±
Ġà¶Ķ à¶§
à¶µ à¶½à¶º
Ġà·ĥà¶¸ à¶»
Ġà¶ĩ à¶ľà¶º
à¶§ à¶½à¶º
à·Ģà¶½ à¶Ń
Ġà¶ħ à¶Ľà¶«
à¶® à¶ºà¶ļ
à¶Ķ à¶ļ
à¶¯ à¶»à¶Ń
Ġà¶´à¶¯ à·Ģ
Ġà¶´à·Ģà·ĥ à¶¸
201 5
à¶ħ à·ĥ
Ġà¶¢ à¶ºà¶ļ
Ġà¶ĭ à·Ĥ
à¶Ńà¶½ à¶¸
à¶º à¶¸à¶±
à¶ļà¶» à¶ľà¶Ń
à¶« à¶ľ
à¶· à·Ģ
à¶¸ à¶½à¶º
à·Ģà¶Ń à¶ļ
Ġà¶Į à·Ģ
à¶ĳ à¶Ńà¶±
à¶´ à¶«
Ġà·Ģà¶ľ à¶±
à·Ļà·ı à·Ĭ
Ġà¶¯ à·ģà¶ļ
à¶¶ à·ħ
Ġà¶¶ à¶³à·Ģ
Ġà¶¯ à·ħ
Ġà¶± à·ĥ
à·Ħ à¶»à¶«
à¶½ à¶Ńà¶¸
à·Ĳ à·Ķ
Ġà¶Ńà¶»à¶Ł à¶º
Ġà¶° à¶±à·Ģ
Ġà¶´à¶¸à¶± à¶ļ
Ġà¶±à·Ģà¶Ń à¶¸
à·Ħà¶» à¶«à¶º
Ġà¶Ĩ à¶ļà¶½
Ġà¶ĭ à¶¶
Ġà·Ħà¶¯ à¶±à·Ģ
Ġà¶¯à·Ħà·ĥ à¶ļ
à·ħà¶³ à¶´
à·ĥ à·Ģà¶ºà¶ļ
Ġà¶ į
à¶ºà¶ļ à¶ľ
à·Ĥ à¶»
Ġà¶ħà¶¸à¶Ń à¶¸
Ġ0 9
Ġà¶© à¶¶
à¶´à¶Ń à¶§
âĢį âĢį
à¶¯ à·Ħà¶¸
à¶ļà¶» à¶ľà¶±
à¶¯ à·Ħ
19 9
à¶ĩ à¶±
à¶» à¶¶
Ġà¶ī à¶¸
Ġà¶´ à¶´
à¶¹ à¶½
Ġà¶ħà·ĥ à¶Ń
à¶« à¶»à¶Ń
Ġà¶±à¶© à¶Ń
Ġ19 6
Ġà¶Ķ à·ħ
Ġà¶»à·ĥ à·Ģà¶Ń
à·Ħ à¶ľ
à¶ºà·Ģà¶» à¶ļ
Ġà¶ľà·Ħ à¶±à·Ģ
à¶¸à¶± à¶¸
à¶ľ à·Ģà¶½
Ġà¶½ à¶¸à¶º
Ġà¶¸à¶»à¶« à¶ºà¶§
Ġà¶°à¶± à¶´à¶Ń
à¶»à¶ł à¶«
Ġà¶ħà¶Ń à¶ļ
à¶ļà¶§ à¶Ń
ðŁ ĳ
à·Ħ à¶»à¶ļ
Ġà¶¯à·Ħ à·Ģà¶½
Ġ3 2
à¶¶ à¶»à¶º
à¶Ľ à¶º
à¶ĳ à¶ļà¶ļ
1 7
Ġà·ĥà¶Ł à¶»
Ġà¶» à¶º
à¶ĩ à¶ľ
Ġà¶Ĩ à¶©à¶¸
à¶½ à¶¶à¶±
à¶¶ à¶§à·Ħ
Ġà¶´ à¶»à¶ļ
à·Ģ à¶³
à¶ļà¶§ à¶¯
Ġà¶ļà¶« à¶ľ
à¶ĳ à¶ł
Ġà·Ħ à¶ºà¶ļ
Ġà¶ħ à·Ģà¶±
à·Ĥ à¶ľ
à·Ģà¶» à¶¯
Ġà·Ģ à¶¯à¶±
Ġà¶ĭ à¶ļ
Ġ3 6
à¶ Ī
Ġà¶º à·Ģ
Ġà¶ħ à·ĥà¶¸
à¶ľ à·Ģà¶Ń
Ġà¶¶à¶½ à·ģà¶ļ
Ġà¶ĳ à¶¶
Ġà¶¸à·Ħ à·Ģ
Ġ3 00
Ġ200 9
à¶¯à·Ħà·ĥ à¶ļ
à·Ħ à¶«
Ġà·Ħ à¶ļ
à¶³ à¶½
Ġà¶ĳà¶ļ à¶½
à¶Ł à¶±
à¶»à¶´à¶§ à¶ºà¶ļ
Ġà¶¢ à¶ľà¶Ń
Ġà¶¢à¶± à¶ľ
1 3
à¶Ń à¶½à¶±
à¶ļ à¶ľà¶Ń
à¶»à¶ļ à¶ºà¶±
à¶ħ à¶ľà¶¸
à·ĥ à¶¸à¶ļ
à·ħ à¶ľ
Ġà¶ĭ à¶¸
à¶ļ à·Ģà¶¸
Ġà¶º à¶ļà¶©
à¶© à¶½à¶ºà¶§
à¶ļà¶» à¶±à·Ģ
Ġà¶¢ à¶ºà¶±
Ġà¶ĭ à¶¯à¶º
à¶» à¶¥
Ġà¶ĩ à¶¶
19 7
Ġà¶ļà¶½ à¶¶à¶½
Ġà¶ħ à¶¸à¶±
Ġà¶ĳà¶¸ à¶ľ
à¶¯ à·Ģà¶±
Ġ ï
Ġà¶¯ à·Ģ
Ġà·ĥà·Ħ à¶½
à¶Ńà¶ļ à¶¯
à·ĥà¶½ à¶§
Ġ9 0
à¶¢ à¶±à¶ļ
à¶¯ à¶¯
Ġà¶· à¶§
à¶ľà¶« à¶ļà¶º
1 4
Ġà¶ĭ à¶ł
Ġà¶ħà·Ħ à¶±à·Ģ
à¶³ à¶ľ
Ġà¶ĩ à¶»à¶½
Ġà¶Ĩà¶± à¶ºà¶±à¶º
19 8
à¶Ĭ à·ħà¶Ł
Ġà·Ģà¶± à¶¢
Ġà·Ģ à¶³
Ġà¶´ à¶ł
Ġà¶Ĵà¶ļ à¶Ń
à¶¸ à·Ħà¶»
Ġ ðŁ
à¶½ à¶«
Ġà¶ĭ à¶ºà¶±
ðŁĳ Į
Ġà¶¯à·Ħ à¶ºà¶ļ
Ġà¶ļà¶½ à¶Ń
Ġà¶īà·ĥ à·Ģ
à·Ħ à¶´
à¶ĩ à·ĥ
Ġà¶ħà·Ģ à·Ħ
à¶§ à¶»à¶§
Ġà¶ħà·ĥ à¶¸à¶Ń
Ġà¶ĩà¶Ń à¶Ń
à¶´ à¶¸
Ġà¶ĳ à¶©
à¶¸ à·Ħà¶½
ðŁĳĮ ðŁĳĮ
Ġà¶¯ à·Ģà¶½
à¶±à¶ļ à¶±
à¶¶à¶» à¶ľà¶¸
à¶±à·Ģ à¶º
à·Ģà¶» à¶ĳà·ħ
Ġà¶¯ à¶»à¶«
Ġà·Ģà¶» à¶´
Ġà¶± à¶§
Ġà¶ħ à¶»à¶ļ
Ġà·Ģà·ĥ à¶»à¶ļà¶§
Ġà¶´ à¶½à¶¸
à¶ļà¶» à¶±à¶º
Ġ7 5
Ġà¶ħà¶ľ à¶ºà¶ļ
à¶Ńà¶» à¶ľà¶¸
à¶§à¶» à¶ºà¶ļ
Ġà¶ļà¶»à¶¯à¶» à¶ºà¶ļ
à·Ħ à¶ºà¶±
à· ²
Ġà¶Ńà¶» à¶ľà¶ºà¶ļ
Ġà·Ģà¶º à¶¹
à¶® à¶ļà¶Ń
Ġà·ĥ à¶´à¶º
à¶· à¶ºà¶ļ
1 6
Ġà¶¶à·Ģà¶§ à¶º
Ġà¶ī à¶»à¶«
Ġà¶¯à·Ģà·ĥ à¶§
Ġà¶¸à¶Ń à¶ºà¶ļ
Ġà¶¯ à¶½
à¶º à·Ģà¶Ń
à·ģ à·Ģà¶½à¶§
Ġ15 0
à¶´ à¶±à¶ºà¶§
2 5
à¶ĭ à¶´
Ġ3 3
à¶ħà¶´ à¶ľ
à¶Ŀ à¶±à¶º
Ġà¶¯ à·ħà¶¯
à¶¢ à·ĥ
à¶ļà¶§ à¶¸
Ġà¶Ĩà¶¯à¶» à¶«
Ġà¶±à¶» à¶¹à¶±
à¶ºà¶± à·Ģà¶¯
Ġà¶¸ à¶»à¶±
Ġà¶ĩ à¶¹
Ġà¶¢ à¶´à¶±
Ġà¶ļà¶» à¶«
Ġ1 000
à¶±à¶§ à¶¸
Ġà¶ĭà¶© à¶§
Ġà·ĥà¶¸ à¶»à¶±
à¶½ à¶ºà¶ļà¶§
à¶½ à¶³
Ġ2 000
à¶ħ à·Ħ
Ġà¶ļ à¶´à¶±
à¶ħ à¶·
à·ĥ à¶¸à¶§
Ġà¶ĩ à¶ļ
à·ĥà¶» à¶ºà¶ļ
Ġà¶¸à·Ħ à¶»
Ġà¶Ĩà¶ºà¶Ń à¶±à·Ģà¶½
Ġà¶± à·Ģà·ĥ
Ġà¶¯ à¶Ł
à¶Ńà¶± à¶ºà¶ļ
à¶½ à¶±à·Ģ
Ġà¶±à¶ľ à¶»à¶ºà¶§
1 1
à¶¢ à¶ºà¶±
à·ģ à¶«
Ġà¶» à¶«à¶Ń
Ġà¶ľà·Ħ à¶´
à¶ł à¶½
Ġà¶Ľ à¶±
à¶ħà¶´ à¶»
à¶Ĩ à¶±
201 7
à¶¸à¶Ń à¶ļ
à·Ģ à·ģ
à¶ļ à·Ģà¶¯
à¶¶ à¶«
Ġ19 4
à¶ºà¶§ à¶º
à¶Ń à¶¸à¶º
Ġà·ģ à¶½
à·Ħà¶½ à¶ºà¶±
à¶¯ à¶ļà¶º
Ġà¶´ à¶½à¶ļ
Ġà¶µ à¶½à¶¯
Ġà¶ħà¶Ł à·Ħà¶»
Ġà¶¢à¶± à¶ļ
Ġà¶ĩà¶Ł à·Ģ
Ġà¶´ à¶±à·Ģ
Ġà¶Ĭ à·ģ
à¶© à¶ľ
Ġà¶ĭà¶´ à·Ħ
à¶ļ à·Ģà¶½
à¶¯ à¶ºà¶ļà¶§
Ġà¶ļ à¶¶
à·Ĥ à¶´
à¶Ĩ à¶¯à¶»
à¶´ à¶±à¶ºà¶ļ
à¶±à¶ļ à¶½
à¶© à¶ļà¶»à¶±
Ġà¶ĭà¶¹ à¶½
Ġ3 4
Ġà¶ī à·Ĥ
à¶ļà¶»à¶« à¶ºà¶ļ
Ġà¶´à¶» à¶¯
Ġà¶ľ à¶¸à¶§
Ġà¶¸ à¶łà¶±
à·Ĳ âĢį
Ġà¶½à¶¶ à¶±à·Ģ
Ġ4 00
Ġà·Ĥ à¶»
à·ģ à¶ľ
à·Ĵ à·Ĵ
Ġà¶¶à¶½ à·Ħà¶Ń
à¶»à¶Ń à¶½
2 2
à¶¯ à·Ģà·ĥ
Ġà¶ħà·Ģ à·Ģ
Ġà·Ģ à¶ļà·Ģ
Ġà¶Ĩ à¶¸
Ġ4 8
à¶±à¶Ń à¶¸
Ġà¶ĳ à·Ĩ
Ġà¶ļ à¶±à·Ģ
à·ĥ à·Ģà¶ºà¶§
à¶½à¶° à¶»
à¶Ķà¶¶ à¶Ń
Ġà¶¸ à¶©à¶ļ
Ġà¶© à¶ºà·ĥ
à¶´ à·Ħà¶Ń
à¶Ńà¶» à¶±
à¶³ à·Ģà¶±
Ġà¶¶à¶½ à¶¯
à¶»à¶º à¶º
à¶§à¶Ń à¶§
à¶»à¶¸ à¶ļ
à¶¸ à¶»à¶«
Ġà¶īà¶©à¶ļ à¶©
à·Ħ à¶½à¶ļ
Ġà¶Ĵ à¶ļà¶º
à¶ĩ à¶¸à¶Ń
à·Ĥ à¶¸à¶Ń
à·ħ à·ĥ
à¶ļ à·Ģà¶Ń
Ġà¶ľ à¶ºà¶±
Ġ19 5
Ġà¶´à·Ģà·ĥ à¶Ń
à¶¢ à¶±à·Ģà¶Ń
Ġà¶ĩ à¶ºà·Ģ
à¶¢à¶± à¶´à¶Ń
Ġ3 7
Ġà¶»à¶§ à·Ģà¶½à¶§
Ġà¶ħà¶´ à¶¯
Ġà¶ħà¶´ à·Ģ
à¶½ à¶·
Ġà¶´ à¶¯à¶±
Ġà¶ī à¶´
Ġà·Ħ à¶»à·Ģ
Ġà¶ĩà¶¯ à·Ħ
à¶¸ à¶±à¶º
à¶ĭ à·ĥà·ĥ
à¶ľ à¶ºà¶ļà¶§
à¶¯ à·Ģà·ĥà¶ļ
à·Ģà¶½ à¶¸
à¶¸ à¶ł
à¶±à¶º à¶º
à·ĥ à¶ºà¶±
à¶Ł à¶º
Ġ6 5
à·ĥà¶½ à¶Ń
âĨ ĳ
à¶ļ à¶ľà¶±
à·Ģà¶º à¶Ń
à¶¶ à¶ºà¶ļ
Ġà¶ĳà¶ļ à·Ģà¶»
à¶º à·Ģà¶ļ
Ġà·ĥ à¶¶à¶»à¶ľà¶¸
à¶¸ à¶łà¶±
Ġà¶Ķà¶¶ à·Ģ
à¶» à¶©
Ġà¶± à¶¯
à¶¯à¶½ à¶§
Ġ3 8
à¶§ à¶»à¶º
Ġà¶īà·Ħà·ħ à¶§
à·ģ à¶±à¶ºà¶§
à¶» à¶»
Ġà¶ĩà¶¯ à¶ľ
à·Ħ à¶ļà¶§
Ġà¶¶à·Ģ à¶§à¶Ń
Ġà¶Ńà¶»à¶ľ à¶ºà¶§
à¶¯ à¶±à¶ºà¶§
Ġ5 5
Ġà·ĥ à·Ģà¶±
à¶ĭ à¶©
Ġà¶´à¶Ń à¶±à·Ģ
à¶Ĩ à·ĥ
à·Ħ à¶´à¶Ń
Ġà¶ļ à¶´à¶½
à¶ľ à¶«à¶±
Ġà¶»à¶« à·Ģà¶ļ
Ġà¶ļà·ħ à¶¸à¶«
Ġà¶½ à¶½
à·ħà¶¹ à¶§
Ġà·ħà¶Ł à¶§
Ġà¶´à·Ħ à¶»à¶ļ
à¶¡ à¶±
à·ħ à¶½
à¶ºà¶± à¶¸
Ġà·Ģà¶§ à¶´
Ġà¶¶ à¶»à¶ļ
à¶»à¶Ń à¶±
Ġà¶ľ à¶¸à¶ľ
Ġà·Ģà¶± à¶Ń
Ġà¶° à¶±à¶º
à·Ħ à·Ģ
à·Ģà¶º à·ĥ
201 6
Ġà¶¢à¶±à¶ľ à·Ħà¶±à¶º
Ġà¶īà·Ģà¶Ń à¶§
Ġà¶½à¶¶ à¶¸
Ġà¶ļà¶© à¶±
Ġà¶ħà¶» à¶¹
Ġà·Ħ à¶©
à·ģ à¶¸
à¶ļà¶» à¶´
à¶Ĩ à¶»à¶ļ
à¶» à¶¶à¶±
Ġà¶ħà·Ħ à¶´
Ġà¶¸ à¶½à¶º
Ġà¶¶ à¶¸
Ġà¶ĩ à·Ĩ
à·Ĥ à·Ģà¶»à¶º
Ġà¶ĭà¶© à¶»à¶§
Ġà¶ħà·Ħ à¶¸
à¶ĳ à¶ļà¶¸
à¶¯ à·Ģà¶½
Ġà¶¢à¶º à¶»à¶Ń
à¶ħà·Ģ à·ģ
à·Ģà·ĥ à¶±
à¶¶à¶» à¶½
à¶± à¶±à¶¸
à¶»à¶ł à¶½
à¶±à¶§ à¶º
Ġà¶· à¶ļ
Ġà¶ļ à¶Ńà¶»à¶ľà¶¸
Ġà¶Ĩ à·Ģà¶§
Ġà¶į à¶¢
à¶ľ à¶»à¶º
à¶± à¶¸à¶º
Ġà¶¸ à·Ģà¶ļ
Ġà¶Ĭ à¶¢
Ġà·ĥ à¶´à¶Ń
Ġà¶»à¶« à·ĥ
à¶ľ à¶ľ
à¶½ à¶§à¶¸
00 00
Ġà¶īà·Ħà·ħ à¶¸
à¶ħà·Ģà·ĥ à¶±
à¶Ńà¶± à¶¯
à·ģ à¶«à¶º
Ġà¶´à¶Ń à¶±
à¶½à¶± à¶¥à¶º
Ġà·ĥ à·ĥ
à·Ĩ à¶»
Ġà¶ħ à¶ł
¿ ½
Ġà¶ĩ à¶´à¶½
à¶ĭà¶¹ à¶§
Ġà¶ħà¶¸ à¶»à·ĥ
Ġà·Ģ à¶»à¶¸
Ġà¶ĭà¶´ à·Ģ
Ġà·Ģà¶§ à¶º
Ġà¶ĳà¶º à¶º
à¶» à·Ģà¶½à¶§
Ġ200 8
Ġà¶¸à·Ħ à¶¢à¶±à¶º
Ġà¶ħà¶» à¶½
Ġà¶ħ à¶§à¶ļ
Ġà¶ļà¶± à¶ľ
à¶Ĩ à¶ł
Ġà¶Ķà·ĥ à·Ģ
Ġà¶ļ à¶½à¶º
à¶ºà·Ģ à¶±à·Ģ
à¶ł à¶ºà¶ļ
à¶Ń à¶½à¶º
à¶° à¶ļà¶ºà¶ļ
Ġà¶± à¶ľà¶±
Ġà¶ļà¶½ à·Ħ
Ġà¶° à¶±à·Ģà¶Ń
à¶ľ à¶»à¶§
à·Ģà¶º à¶º
à¶ł à¶»à¶º
à¶»à·Ħ à¶«à¶ºà¶ļ
à¶¶ à¶¸
Ġà¶¢ à¶ºà¶Ń
Ġà¶» à¶¶à¶»
Ġà·Ģà¶½ à¶§à¶Ń
Ġà·ģ à¶Ń
Ġà·ħ à¶ľ
Ġà¶© à·Ģ
Ġà·Ħ à¶Ńà¶ļ
à·Ħ à¶ºà¶§
Ġà¶ľà¶« à¶±à¶º
Ġà¶± à¶Ł
à·Ģà¶» à¶Ń
à¶Ĩ à¶ľà¶¸
Ġà¶Ĩ à·Ģà¶Ń
Ġà¶´ à¶½à¶Ń
Ġà¶Ĩà¶ºà¶Ń à¶±à¶ºà¶§
à¶Ľ à¶Ń
Ġ5 6
à¶¸ à¶Ł
à¶ºà¶± à·Ģà¶±à¶¸
à¶ºà¶± à¶ļ
Ġà¶Ĭ à¶§à¶Ń
âĢ ī
à¶® à·Ģ
à¶¸à¶ļ à¶º
à¶»à·Ģ à¶«à¶Ń
Ġà¶ļ à¶¸à¶§
Ġà¶ºà¶§ à¶´à¶Ń
Ġà·Ħà¶» à·ĥ
Ġà¶Į à¶§
à·ħ à¶±
à¶° à¶ļà¶»
Ġà¶ħà¶º à·Ħà¶´à¶Ń
à·Ģà¶» à¶ºà¶±
Ġà·ĥà¶¸ à¶»à·ĥ
à·Ģ à·Ħà¶¸
Ġà¶Ĩà¶¯à¶» à¶ºà¶ļ
Ġà·ĥà¶¸ à·Ħà¶»à¶ļ
à¶¯ à¶¸à¶§
2 4
Ġà¶ī à¶Ł
à¶ľ à·Ģà¶½à¶§
à¶´à¶¯ à·Ģà¶±
Ġà¶ļà¶»à¶± à¶ļ
à·ĥà¶» à¶ºà¶§
Ġà¶»à¶§ à¶ļà¶§
à¶» à·Ģà¶»à¶º
Ġà¶´à¶¯à¶± à¶¸à¶ļ
à¶Ĵ à¶ļà¶Ń
à¶© à¶»à¶½
à·Ģà¶§ à¶º
Ġà¶ľà·Ħ à¶ľ
2 1
à¶° à¶ļà¶º
Ġà¶ĳà¶ļ à¶¯
à¶ł à¶ļ
Ġà¶´ à¶±à·ĥ
Ġà¶ĳà¶ļ à¶´
à·ľ à·Ĭ
à¶ºà·Ģà·ĥ à¶¸
Ġà¶ħà¶ºà¶§ à¶Ń
à¶½à¶± à¶¥à¶ºà¶±
Ġà¶ļà¶½ à¶ļà¶§
à¶ĳ à·Ģà¶±
à·ĥà¶ļ à¶ľ
à¶±à¶º à¶Ń
à¶½ à·Ģà¶Ń
à·Ģ à¶¸à¶ļ
Ġà¶¶à¶© à¶ľ
Ġà¶¸ à¶¸à¶º
Ġà¶µ à¶½
Ġà¶» à·ĥà¶º
Ġà¶ĩ à·ħ
à¶»à·Ģ à¶«
Ġà¶ĳà·ħ à·Ģà·ħ
Ġà¶Ĩà¶± à¶ºà¶±
Ġà¶ĩ à¶¯à¶½
à¶ļ à¶¸à¶º
Ġà·ĥà¶¸ à¶ľà¶º
à¶¶ à¶ļ
Ġ20 20
Ġà·ĥ à·ħà¶ļ
Ġà¶ļà·ħ à¶º
à¶± à¶±à·Ģ
à¶± à¶¸à¶±
à¶¯ à¶§à¶¸
à¶¢ à¶ļà¶º
à·ħ à¶«
2 3
Ġ4 4
Ġà¶ľ à¶º
à¶½à·Ģ à·Ģ
Ġà¶¶ à·ħà¶ļ
Ġà¶¯à¶© à¶ºà¶¸
Ġà¶¢ à¶¸
Ġà¶»à·ĥ à·Ģ
à¶©à¶± à¶ľ
Ġà·ĥ à¶Ńà¶»
Ġ3 9
à¶ļ à¶³
Ġà¶ħà¶¸ à¶»à·Ģ
Ġà·Ģà¶»à¶¯ à¶ļà¶»
Ġà¶Ĩ à¶·
à·Ĥ à¶ºà¶ļà¶§
à·Ģ à·Ħà¶½
à¶Ľ à¶ļà¶º
à¶´ à¶ºà¶±
à¶´à¶¸à¶« à¶ļ
à¶»à¶¸ à¶±
Ġà¶Ĩ à¶Ńà¶Ń
à¶Ĩ à¶¯à¶»à¶º
à¶¢ à¶´
à¶¢ à¶±à·Ģ
à¶¶à¶½ à¶¸
à¶½ à¶¸à¶ļ
à¶Ń à·Ģà¶½
Ġà¶ļà·ĥ à·ħ
Ġà¶Ĵà¶ļ à¶±
à¶ĳ à¶¢
à·Ĥ à¶§
à·ĥà¶¸ à·Ħà¶»à·Ģ
Ġà·ĥà¶¸à¶Ł à¶¸
Ġ4 3
Ġà¶ħà¶ľ à·Ģ
à·Ĥ à·Ģà¶»
Ġà¶» à¶ľ
à·Ļ .
à¶ī à¶½
Ġà¶¯ à¶¸à¶¸
à¶ºà·Ħ à¶´
Ġà¶ķ à¶±à¶¸
6 0
Ġà¶»à¶¢ à¶ºà¶ļ
à¶ºà¶ļ à¶ºà¶ļ
à·Ģà¶» à¶±à¶º
Ġà¶© à¶º
à¶¨ à¶ļà¶º
à¶½à¶º à¶Ń
à¶ºà¶ļ à¶¯
à·ħà¶¹ à¶¯
à· Ł
à¶© à¶¯
à¶»à¶ļ à¶Ńà¶±à¶º
Ġ4 2
Ġ199 8
Ġà¶»à¶® à·Ģ
à¶ļ à¶«
à·Ĥ à·Ģà¶½
à¶¯ à¶ļà¶§
Ġà¶± à¶§à¶±
Ġà¶ĳà¶ļ à¶±
à¶ ª
Ġà¶īà¶»à¶« à¶¸
à¶½ à·Ħ
Ġà¶ľ à·ĥà¶±
à¶ºà·Ģ à¶´
Ġà·ĥ à¶Łà·Ģ
à¶« à¶¸
à·Ļ à·Ĵ
Ġà¶ľ à·Ħà¶ļ
à¶Ńà¶º à¶Ń
Ġà¶ħà·Ħ à·Ģà¶½
à¶±à¶ľ à¶»
Ġà·Ħ à¶´
Ġà¶± à¶´
Ġà¶´ à¶¶
Ġà¶¶à¶½ à·ĥ
à¶§ à¶¸à¶§
à¶ºà¶½ à¶¯
à¶ºà¶Ń à¶±à¶º
à¶ºà¶± à·Ģà¶±
Ġà¶ķ à·Ģà¶»
à·ħ à¶¸à¶º
à·Ħ à¶ļà¶º
à·ĥà¶¸ à·ĥ
Ġà¶ľà¶¸à¶± à¶§
à¶Ľ à¶±à¶º
Ġà¶īà¶³ à¶ľ
Ġà¶´ à¶§à·Ħ
4 0
à¶»à·Ħ à¶«
à¶Ĩ à·Ħ
Ġà·Ħà¶§ à¶ľà¶Ń
Ġà¶¸à¶©à¶ļ à¶½à¶´
à¶ĳà¶¸ à¶ľ
Ġ4 7
Ġà¶ĩ à¶«
à¶© à¶½à¶ºà¶ļ
à¶© à¶¸à¶ļ
Ġà¶ħà¶» à¶ľà¶½à¶ºà¶ļ
à¶ķ à·ĥ
à¶¯ à¶»à¶ļ
à¶±à¶ļ à¶¯
ĠðŁ ĺ
à·Ģà¶» à¶¸
à¶ĳ à¶ļà¶½
à¶°à¶± à¶´
Ġà¶ľ à¶©
Ġà¶ľà¶Ń à·Ħ
à¶º à·ģ
Ġà¶¸ à¶±à¶¸
Ġà¶½à¶Ł à¶§
Ġà¶ļà·ħ à¶¯
à¶§ à¶ļà¶º
Ġ9 9
Ġà¶±à¶ľ à¶»à¶ºà¶ļ
à¶»à·Ħ à¶ºà¶ļ
à¶ķ à·Ģ
à¶¸ à·ĥà¶±
Ġà¶Ĩ à·Ģà¶¸
Ġà¶» à·ħ
Ġà·Ģ à¶ł
à·ħ à·Ģà¶»
Ġà¶Ĵ à¶¢à¶±
Ġà¶¢à¶º à¶ľà¶Ń
2 6
à·Ĩ à¶º
Ġ5 8
à¶ľà¶¸ à¶ľ
201 4
2 8
à¶¢à¶º à¶ľ
à¶½à¶º à¶º
Ġà¶ľà¶± à¶±à¶ļ
à·Ĥà¶ļ à·Ģà¶»à¶º
Ġ25 0
Ġà¶Ń à·Ħà¶±
Ġà¶¶ à¶ºà¶º
à·Ĵ à·ĬâĢį
Ġà·Ħ à¶¹
Ġà·Ģ à¶°
à¶§ à¶±à¶º
Ġà·ĥ à·ħ
à¶ľà¶Ń à¶ºà¶ļ
Ġà¶¸ à¶½à¶ļ
Ġ5 7
Ġà¶¶ à¶ļ
à¶§ à·Ģà¶±
à¶ł à¶¸
à¶Ĵ à·Ģà¶ľ
à·Ļ âĢį
à¶ºà¶± à¶ľ
Ġà·ĥà·Ħ à¶¢
Ġà·ĥà·Ħ à¶±à¶ºà¶ļ
à¶ºà¶ľ à·Ħ
à¶¢ à¶ľà¶Ń
Ġà·Ģà¶º à·ĥà¶§
Ġ201 9
Ġà¶¯à·Ģà·ĥ à¶ļà¶§
à·Ħ à·ħ
Ġà¶» à·Ģà¶§
Ġà¶¸à¶Ń à¶§
à¶Ĵ à¶ļà¶º
Ġà¶Ńà¶»à¶¸à¶§ à¶¸
Ġà¶»à¶§ à¶¸
Ġà¶Ń à¶«
2 7
Ġà·ĥà¶§ à¶±à¶ļ
Ġà·ĥ à¶±à¶Ń
à¶ĩ à¶ºà¶§
à·Ģà·ĥ à¶¸
Ġà¶´ à¶¬
Ġà¶¸à·Ħ à¶¸
à¶Ŀ à¶»à¶Ń
à¶º à¶´à¶±
âĨ Ĳ
Ġà¶» à¶¸
à¶Ĩ à¶¯
à¶´ à¶·
Ġà¶ħà¶¸à¶Ń à¶±
à¶ĭ à¶¶
à¶¸à¶§ à¶¸
à¶»à¶® à¶¸à¶º
à¶ºà·Ģ à·Ħ
Ġà·ĥà¶¸ à¶½
à·ģ à¶Ńà¶ºà¶ļ
à¶· à¶±
à·ĥà¶³ à¶±
Ġà·Ħà¶§ à¶ľ
à¶©à¶ļà¶§ à¶º
Ġà·Ģà¶ľ à¶ºà¶ļ
Ġà¶ħà·Ħ à¶ľ
à¶ĳ à¶´à¶¸à¶«à¶ļ
Ġà¶Į à¶»
à¶§ à¶ºà¶ļ
à¶» à·Ħà¶½
Ġà¶Ĵ à·Ģà¶§
à¶ºà¶º à¶º
Ġà¶Ķ à¶ł
Ġ4 6
Ġ200 5
Ġ âĢ
Ġ6 4
à¶© à·Ģà¶»
à¶¸à¶» à¶ºà¶ļ
Ġà¶© à¶ºà¶½
Ġà¶¢ à¶ºà·Ģ
Ġà·ħà¶Ł à¶¯
Ġà¶´à·Ħà·ħ à¶§
à¶§ à¶½à¶ºà¶ļ
à·ľ âĢį
à·Ģà¶ļ à¶¸
Ġà¶´à·ħ à¶½
à¶» à·Ħà¶»
à¶« à¶»
Ġà¶Ń à¶½à¶º
Ġà¶ºà¶§ à·Ģ
Ġà¶ī à¶¸à·Ħà¶Ń
à¶ľ à¶¯
à¶ĩ à¶ºà¶ľ
2 9
8 0
Ġà·Ħà¶¬ à¶ļ
à¶©à·ĥà¶§à·Ħà¶± à¶§
Ġà¶Ńà¶¶ à¶¸
Ġà·Ģà¶½ à¶Ń
Ġà¶ļà¶»à¶±à·Ģ à¶¯
à·ħ à¶ºà¶ļ
Ġà¶¸ à·Ģà¶ľ
Ġà¶Ĭ à¶¸
Ġà¶īà¶© à¶¸à¶ļ
à¶§ à¶©
Ġà¶ħà·Ģ à¶´
Ġ5 4
Ġ13 0
Ġà¶Ĭ à¶½à¶Ł
Ġà·ĥà¶¸ à·Ħà¶»à·Ģ
Ġà¶»à¶ł à¶ļà¶º
à¶ºà¶± à¶ºà¶ļ
Ġà¶ħà¶¯ à¶§
à¶ºà¶Ń à¶¸
Ġà·ĥà¶¸ à¶ļ
Ġà¶ħà·Ģà·ĥ à¶»à¶º
à¶Ń à¶ºà¶ļà¶§
Ġà¶Ķà¶¶ à¶½
Ġï ¿½
à¶»à·Ģ à¶ºà¶ļ
Ġ6 00
à¶» à·Ģà¶Ń
Ġà¶ħà¶¯ à·Ħà¶±
à¶½à¶ļ à¶±
Ġà¶»à¶¢ à·Ģà¶»
à¶½ à¶ļà¶»
Ġà¶ļà¶© à¶¯
Ġà¶ļ à·ĥà¶½
à ¯
à¶¢ à¶ļà¶ºà¶±
Ġà¶Ĩ à¶ľà¶¸à¶ļ
à¶½ à¶§à¶Ń
à¶¢ à¶ľ
à¶« à¶´
Ġà·Ģ à¶´
Ġà¶ĳà¶ļ à·ĥ
Ġà¶»à·Ħà·ĥ à¶ļ
à¶¢ à¶§
Ġà¶ħà¶´ à¶º
à¶« à¶½
Ġà¶¸à¶Ń à¶ļà¶ºà¶±
à¶¶ à·Ħà¶§
à·Ħ à¶§à¶¸
à·Ĥà¶« à·Ģà¶½
Ġà¶Ŀ à¶±
Ġà¶¸à¶Ńà¶ļ à¶ºà¶ļ
Ġà¶Ĩà·ĥ à¶±à¶º
à¶° à¶¸
Ġà¶ĭà¶´ à¶ļà¶½
Ġà¶ļà¶© à¶½
Ġà¶ľ à¶¸à¶ļ
Ġà¶§ à·Ģ
à¶Ńà¶» à¶ľ
Ġà¶ĭà¶´ à¶ºà¶±
Ġ5 3
à¶±à·Ģ à¶½à¶¯
à¶¨ à¶½
Ġ4 9
201 2
Ġà¶»à¶¢ à¶¸à·Ħ
à¶© à·Ģà¶½
8 8
Ġà¶´à·ĥ à¶ļ
Ġà¶ļà¶» à¶ļ
à·ģ à·ĥ
Ġà¶ĳà¶ļ à¶§à¶¸
à¶« à·ģ
Ġà·Ģà¶º à·ĥà¶ļ
à¶½ à¶ľà¶±
Ġà¶ħà·Ģ à¶·
à¶ļ à¶®
à¶« à¶ºà¶ļà¶§
Ġà¶ħà¶ľ à¶ºà¶±
Ġà¶Ĭ à·ĥ
à¶Ń à¶±à¶§
Ġà¶Ķ à¶»à¶½
à¶Ńà·Ģ à¶¸à¶Ń
Ġà¶ĩà¶³ à¶ľ
à·ĥ à¶¸à¶±
Ġà¶¶à·Ģà¶§ à¶¯
à·ĥ à¶ºà¶ļà¶§
Ġà¶ľ à·ĥà¶ļ
Ġà¶Ĵà·Ģ à¶ľ
Ġà¶ħà¶´ à¶ļ
à¶« à¶ļà¶»
à·ħ à·Ħ
Ġà¶Ĩ à¶»à·Ģ
à¶»à¶§ à¶ļ
Â ©
Ġà¶´à·Ħà¶½ à¶§
Ġà¶» à¶łà¶±à¶º
à¶½ à¶´à¶Ń
Ġà¶½ à·ĥà¶±
à·Ģà¶ļ à¶ľ
à¶Ń à¶½à¶ºà¶ļ
Ġà¶¸à·Ħ à¶´
à¶ĳ à¶ļà¶§
Ġ5 000
Ġà¶ľà¶Ń à¶º
Ġà¶¸à·Ħà¶» à¶ľà¶¸
à¶½ à·Ģà¶±
à¶Ĭà·ħà¶Ł à¶§
201 0
à¶´ à¶»à¶¸
à¶ĭà¶¹ à¶½
Ġ8 9
Ġà¶Ķà¶¶ à¶§à¶Ń
à¶¯ à¶ºà¶Ń
Ġà¶´à¶» à·ĥ
à¶º à¶ºà¶ļà¶§
à¶¯ à¶»à¶¸
Ġà¶» à¶³
à¶¸ à¶»à¶Ń
Ġà¶¯ à·Ħà¶º
à¶¯ à¶¹
à¶» à¶±à·Ģ
à¶Ń à¶¶
à·Ĥà¶« à¶ºà¶±
à¶ºà·Ģ à¶¯
Ġà¶Ń à¶»à¶º
à·ĥ à¶»à¶Ń
Ġ200 7
Ġà¶ħ à·Ģà¶º
à¶»à¶« à¶ºà¶ļà¶§
à¶º à¶ľà¶¸
à·ģ à¶Ńà¶º
Ġà¶¢à¶±à¶¸ à¶Ń
Ġà¶» à¶¹
Ġà¶ħà·Ħ à¶ļ
Ġà¶ħà·ĥ à·ħ
à¶¢ à¶¸
à¶¥ à·Ģà¶»
Ġà·ĥ à¶ł
Ġà¶ħà¶´à¶±à¶ºà¶± à¶º
Ġ9 5
à·ĥ à¶¶
ðŁĳĮðŁĳĮ ðŁĳĮðŁĳĮ
à¶Ńà¶» à¶ºà¶§
Ġà·Ħ à·Ĥ
à¶Ķ à·ĥ
Ġ6 6
à·ĥ à¶¯à¶º
3 3
Ġà¶ħà¶¯à·Ħà·ĥ à¶º
Ġà¶ħà¶´ à¶Ń
Ġà¶ļà¶§ à·Ħà¶¬
à¶» à¶¢à¶±
à¶ł à¶ļà¶º
Ġà·Ħà¶Ń à·ħ
à¶¸à¶Ń à¶º
Ġà·ĥà¶¸ à¶±à¶½
Ġà¶¶à¶½ à¶±à¶ļ
à¶¶à¶½ à¶´
à¶Ŀ à¶±
Ġà¶´ à¶¯à¶º
7 0
à¶ħ à·ħ
Ġà·Ģ à·ĥà¶¸
à¶ļà¶§ à¶º
à¶ł à¶Ń
Ġà¶ĳà¶ļ à¶§à¶Ń
à¶ĳ à·Ĩ
Ġà¶½à¶Ł à¶¯
Ġà¶º à·ĥ
à¶¸ à·Ģà¶±
à·ĥà¶§ à¶º
Ġà¶ĳà¶Ń à¶±à¶§
Ġà¶´ à¶§à¶º
à¶ºà·Ģà¶» à¶ºà¶ļ
à¶¢à¶± à¶´
Ġà¶īà·Ģà¶» à·Ģ
Ġà¶ºà¶§à¶Ń à¶§
à·ĥà¶» à¶«à¶º
Ġà¶´à·Ħ à¶ļà¶§
Ġà¶´à·ħ à¶Ń
Ġ4 1
à¶Ń à·ģ
à¶© à¶¶à¶½à¶±
à·ĥà·Ģ à¶ºà¶ļà¶§
Ġà¶´à¶Ń à¶½
à·Ģ à¶´à¶Ń
à·ĥ à·Ģà¶½
à·Ģà¶± à¶§
à¶Ĵà¶ļ à¶±
201 1
Ġà¶Ĩ à¶ľà¶±
à¶¨ à¶ļ
Ġà¶Ľ à¶«
Ġ200 6
Ġà·ĥà¶» à¶½à·Ģ
à¶»à¶« à¶Ń
Ġ Ð
Ġà¶¸ à¶»à¶½
à·Ŀ à¶Ĥ
200 9
3 1
Ġà¶Ĩ à¶¸à¶±
à¶« à·Ħ
Ġ8 5
Ġà·Ģà·ħ à¶½
Ġà¶» à¶Ńà¶±
Ġà¶ħ à¶»à·Ģ
Ġà¶¸à¶ľ à·Ħ
19 4
19 5
Ġà¶¸à¶½ à¶½
201 3
Ġà¶¶ à¶¹
Ġà¶Ĩ à¶ľ
Ġà¶¸ à¶³
Ġà·ģ à¶Ńà¶ļ
à¶º à¶´à¶Ń
19 6
à·Ħ à¶Ńà¶»
à¶° à¶ºà¶ļà¶§
à¶´à·ĥ à¶§
à¶¯ à¶ļà¶½
Ġà¶± à¶¸à¶§
à¶§ à¶´à¶Ńà¶ļ
à¶º à¶¸à¶Ń
à¶»à¶¸ à¶Ń
à·Ħà¶¬ à·Ģ
à¶»à¶ļ à¶®
Ġà·Ģ à¶¢
à¶º à¶»à¶Ń
Ġà¶ľà¶Ń à·Ģà¶±
à·ģà¶ļ à·Ģà¶»à¶º
à¶° à¶¯
Ġà¶ħà¶º à¶º
Ġà¶ĭà¶´ à¶¸
Ġ7 7
Ġà¶´à·Ģà¶» à¶±
Ġà¶ķ à¶ļà¶§
Ġà¶Ń à¶¹
Ġ5 9
à¶ľ à·Ħà¶±
à¶¸à·Ħ à¶¢à¶±
à·ģ à¶¶
à¶Ń à·Ģà¶½à¶§
à¶´ à¶»à¶«
Ġà¶ħà¶¸ à¶»à¶Ń
à¶¯à¶» à¶ºà¶ļ
à·ĥ à¶±à¶¸
à¶Ń à·Ģà¶¸
Ġà¶Ńà¶» à¶«à¶º
à¶ł à¶±à¶ºà¶§
à¶Ńà¶» à¶ľà¶º
Ġà¶ĭ à·Ģà¶¯
Ġà¶ī à¶ľà¶±
à¶» à·ĥà¶»
à·Ķ à·ı
à¶¯ à¶»à¶¯
Ġ8 00
Ġà·Ģà¶½ à·Ģ
Ġà¶ĩà¶Ł à¶§
Ġà¶Ķ à¶Ńà¶±
Ġà¶¸ à¶¯à¶ļ
à¶º à¶¶à·Ħ
à¶½ à·Ģà¶»
Ġà·Ģà¶» à¶§à¶Ń
Ġà·ĥà¶§ à¶±à¶§
à·ĥ à¶ļà¶º
Ġà¶¢ à¶ºà¶¸
Ġà¶´ à¶½à·ĥ
Ġà¶ĳà¶ļ à¶±à¶¸
Ġà·ĥà·Ħ à¶ļà¶»
à¶º à¶°
à·Ħ à¶Ńà¶¸
à¶Ńà¶» à¶¯
Ġ200 4
à¶»à¶¸ à¶»à¶Ń
à¶¸à¶» à¶ºà¶§
Ġà¶ħà¶Ń à·Ģà¶»
Ġà¶Ĭ à¶»
Ġà¶ħ à¶«à¶¯
à¶© à·ĥ
à¶´ à¶ľ
Ġà¶ľà¶«à¶± à¶ļà¶§
à¶ļ à¶¶à¶½
à¶ľà¶Ń à¶ºà¶±
Ġà¶ļà¶¸ à¶½
à¶»à¶¸ à¶¶
Ġà¶¸ à¶»à¶¯
à¶ļà¶» à·Ģ
à·ĥ à·Ģà¶±
Ġà¶Ĵ à¶ľ
à¶± à¶Ł
Ġà·ĥà·Ħ à¶±à¶º
âĢį à·Ļ
Ġà¶ħà¶¬ à¶±
3 5
à¶ºà¶½ à¶±
à¶º à¶¹à¶½
Ġà¶ĳà¶ļà¶Ł à¶º
à¶©à¶± à¶ľà¶±
Ġà¶´à¶Ń à¶¸
à¶ºà¶¯ à¶¸à¶ļ
Ġà·ħ à¶¯à¶»
Ġà¶Ĩ à¶§
Ġà¶¯à¶© à¶ºà¶ļ
Ġà¶ ®
Ġ12 0
à·ģ à¶»
à¶» à¶±à¶ºà¶ļ
Ġà¶īà·Ģ à·Ħà¶½
à¶´ à¶¶
Ġà¶ļ à¶¢
à¶ ĥ
à·Ģà¶§ à¶¯
Ġ5 2
Ġ6 8
Ġà¶½ à¶¸
à¶¯ à¶ļà¶¸
à¶· à·Ģà¶º
Ġà¶ħà¶» à¶¹à¶±
à¶ļ à·Ģà¶»à¶«à¶º
à¶Ŀ à¶º
Ġà¶½ à¶ľà¶§
Ġà¶ħà¶Ł à¶½
à¶§ à·Ģà¶½
à·Ĵ à·Ļ
Ġà¶¢à¶±à¶» à¶¢à¶º
à·Ħ à¶©
à·Ĥ à¶¥à¶º
Ġ5 1
à·ĥ à¶¢
à¶© à¶ºà¶§
Ġà·Ģà·ĥà¶» à¶§
Ġà¶¸à¶§ à¶±à¶¸
Ġà·ĥà¶¸à¶Ł à¶º
à¶Ń à¶ļà¶¸
à¶½ à·Ģà¶½à¶§
à¶¸ à·Ģà¶Ń
à¶Ńà¶º à¶º
à¶»à¶ľà¶Ń à·Ģ
Ġà¶īà¶© à¶¯
à¶± à¶»à¶Ń
à¶¸ à¶ºà¶ļà¶§
Ġà¶Ń à¶©
Ġà¶īà·Ħà¶Ń à¶¯
Ġà¶ļ à¶¹
Ġà·ĥ à·ĥà¶»
Ġà¶½ à·Ħ
à·ĥà¶» à¶±
Ġà¶ħ à¶§à·Ģ
à¶¶à¶³ à·Ģà¶Ń
4 4
Ġà¶ħà·ĥà¶½ à¶§
à¶§ à¶ºà¶¸
à¶±à¶º à¶¸
Ġà¶¸à¶Ń à¶ļà¶¯
Ġà¶¶ à¶ºà¶ļ
Ġà·Ħà¶Ńà¶» à¶ļà¶§
à¶´à¶ºà¶ļ à¶¯
à¶±à¶§ à¶¯
Ġà¶Ĩ à·ĥà¶¸
à·Ĥ à¶ºà¶º
Ġà¶Ī à¶Ńà¶§
Ġà¶īà·Ģà·ĥ à¶±
Ġà¶īà¶³ à¶½à¶¸
Ġà¶±à¶» à¶¹
3 6
ã ģ
Ġà¶¸à·Ħ à¶¶
à¶¸à¶§ à·Ģà¶Ń
à¶¢ à¶¶
à¶»à·Ģ à¶¸
à¶ħà¶¯ à¶§à¶Ń
Ġà¶ľ à¶¶
Ġà¶ĳà¶± à¶ļà¶¸
à¶ºà¶ļ à¶»à¶«à¶º
à¶ĭ à·ĥ
Ġà·ĥ à¶¶à¶¯
à¶ºà¶§ à¶¯
Ġà¶ĳà¶º à¶Ń
Ġà·Ħ à¶´à¶±
à¶ļà¶© à·Ģ
à¶¶ à·Ħà¶ļ
Ġà¶Ĭ à¶½à¶ľ
Ġ24 7
Ġà¶» à¶¯
à¶ļ à¶½à¶º
à·Ģà¶½ à¶º
Ġà¶ļ à¶¯à·Ģ
à¶½ à¶ļà¶»à¶Ń
Ġ6 9
à·ĥ à¶ļà¶»
Ġà¶¯à·Ħ à¶¸à¶§
à¶Ń à¶·
à¶© à¶ºà¶±
Ġà¶ħà¶± à¶ľ
à·Ģà¶± à¶¯
à¶¶à¶³ à·Ģà¶º
Ġà·ĥ à¶ľà¶º
à·Ĭ à·Ļ
Ġà¶ľà¶½ à·Ģà¶½
à·ģ à¶½
à¶¸à¶§ à¶±à¶¸
Ġ6 2
à·Ĥ à¶±à¶½
à¶ĩ à·Ģ
Ġà¶ķ à¶½
à¶»à¶´à¶§ à¶ºà¶§
à·ĥ à¶ļà¶¸
Ġà¶ľ à¶«à¶º
Ġ3 000
à¶»à¶ļ à¶ºà¶ļ
à¶Ĭ à¶§à¶Ń
à¶¸à¶» à¶±
Ġà¶¸à¶Ńà¶ļ à¶ºà¶§
à¶ł à·ĥ
Ġà¶ĳ à¶¶à¶³
3 9
à¶¸à¶± à·ĥ
à¶¸à¶± à¶§à¶¸
Ġà¶ľ à¶½à¶ļ
Ġ6 7
à¶± à·Ħà¶¸
à¶»à¶¸ à·Ģà¶Ń
3 7
à¶½ à¶¯à¶ļ
Ġà¶ĳà·ĥ à·Ģ
Ġà¶īà·Ħà¶½ à¶§
à¶· à·ĥ
Ġà¶ĳà¶ļ à·Ħà¶¸
à·ģ à¶ºà¶ļà¶§
à¶»à¶« à·Ģ
Ġà¶ħà¶½ à·Ģ
Ġà¶ħà¶¸ à¶»
à¶¯ à¶¶
à¶ļà¶½ à¶§
à¶½ à¶¸à¶º
Ġà¶´à¶Ń à¶ļ
Ġà¶ĩà¶³ à¶½
Ġà¶¸à¶Ń à¶·
Ġà¶ĳà¶ļ à¶ľ
Ġ â
à¶¯à·Ħà·ĥ à¶§
Ġà·ĥà¶¶à¶¯ à¶Ń
Ġà¶¸à·ĥ à¶ļà¶§
Ġà¶ħà¶¸ à¶»à¶¯
Ġà¶´ à¶±à·Ģà¶±
Ġà¶¸à¶§ à¶¸
Ġà¶Ĭà·ħà¶Ł à¶§
Ġà¶ ¤
à¶© à¶±à¶ºà¶§
à¶© à¶±à¶ºà¶ļ
Ġà¶¯ à¶»à¶¸
à¶¥ à¶ºà¶ļ
à·Ģà¶½ à¶§à¶Ń
Ġ25 00
à¶Ńà¶» à¶½
200 8
Ġà¶Ńà¶»à¶ľ à¶ļ
Ġà¶ħà¶Ń à¶ļà¶§
Ġà·Ħ à¶¸à¶±
Ļ Ĥ
à¶³ à¶¯
à·ĥ à¶½à¶º
à¶¢ à¶±à¶¸
à¶±à¶¸ à¶¸
à·Ħ à¶³
à¶º à·Ģà¶½à¶§
Ġà¶ħà¶¯à·Ħà·ĥ à¶§
à·Ķ à·Ķ
Ġà¶´à¶±à¶Ń à¶§
à·Ģ à¶łà¶±à¶º
à·ĥ à¶ºà¶º
Ġà¶Ĭ à·ħ
Ġà¶Ĩà¶ºà¶Ń à¶±à·Ģà¶½à¶§
à·ģ à¶¯
à¶Ł à¶ºà¶ļ
Ġà¶Ĵà¶ļà¶ļ à¶ºà¶ļ
Ġà¶ħà¶¯ à¶º
à¶ļ à·Ħà¶¸
à¶¢à¶± à¶±
Ġà¶ļà¶» à·ħ
Ġà¶»à¶¢ à¶»à¶§
à·ģ à¶ļà¶ºà¶±
à¶ļà¶º à¶¸
à¶¥ à·Ģà¶»à¶º
Ġà¶ħ à¶ľà¶Ń
à¶® à¶ļà¶º
Ġà¶´à¶» à¶Ńà¶»à¶º
Ġà¶Ĵ à·Ģà¶Ń
à¶° à¶ļà¶¸
à¶´ à·Ģà¶½
Ġà¶ļà¶§ à¶§
à¶ºà¶ºà¶± à¶ºà¶ļ
à·Ļ à·ĬâĢį
à¶»à¶ľ à·Ħ
à¶ºà·Ħ à¶´à¶Ń
à¶Ń à¶«
Ġà¶ľ à¶ľ
Ġ198 9
à¶ī à¶ľ
à¶ĭ à¶«
Ġ8 8
à¶´ à¶§à¶º
à¶¸à¶» à¶«à¶º
Ġ199 0
Ġà¶¢à¶º à¶ľà¶±
à¶º à·ĥà¶±
à¶»à·Ħ à¶±à¶º
à¶ħà¶¯ à¶Ń
Ġà¶ħà¶· à¶º
Ġà¶ħà·Ħ à¶ľà¶±
à¶º à¶¯à¶»
Ġà¶¸ à·Ģà¶§
Ġà·ĥà¶ļ à·ĥà¶±
3 8
Ġà¶¢à¶½ à¶¢
à¶ĳ à·Ģà¶ļà¶§
Ġà¶¸à·Ħ à¶«
à¶Ķ à¶½
Ġà¶ºà·Ħ à·ħ
Ġà¶¶à¶½ à¶ľà¶Ń
à¶ħ à¶¢
Ġà¶¸ à·Ģà¶±
Ð °
à¶´ à·ģ
Ġà¶ľà¶½ à¶ľ
à¶¢ à¶Ń
à¶ī à¶¸
Ġà·ĥà¶½ à·ĥà¶±
à¶Ń à¶±à¶¸
ĠðŁĺ Ģ
à¶® à¶ºà¶±
Ġà¶´ à¶®à¶º
à·Ĥà¶º à¶ºà¶±
à·ģà¶ļ à¶ºà¶ļ
à·Ĥà¶« à¶ºà¶ļà¶§
à·ģ à¶ľà¶Ń
3 4
Ġà·Ħ à¶Ńà¶½
à¶» à¶łà¶±
à¶© à¶»à¶º
Ġ7 2
Ġà¶´ à¶§à¶½
Ġà¶¶ à·ħà¶½
Ġà¶ĳà¶ļà¶Ł à·Ģ
à¶° à·ĥ
Ġà·Ħà¶§ à¶ľà¶±
à¶´ à¶½à¶º
Ġà¶ħà¶Ń à¶ľ
à¶º à¶Ńà¶±
Ġà¶¶ à¶ºà·Ģ
à¶¯à¶» à¶±
à·Ģ à¶¸à¶º
à¶ļ à¶¸à¶Ń
Ġ7 00
Ġà¶· à¶§à¶º
à¶» à¶ľà¶¸
Ġà¶ł à¶½à¶±à¶º
à¶ĭ à¶ľ
à¶»à·Ħ à¶«à¶ºà¶§
à·ĥ à¶¸à¶º
à¶© à·Ģà¶½à¶§
Ġà¶ħà¶Ńà¶» à·Ģ
Ġà¶ľ à¶½à¶±
1 00
Ġà¶·à¶§ à¶ºà¶±
Ġà¶¸à·Ħ à¶ļ
à¶± à¶Ńà¶»à¶¸
à·ļ à·ĬâĢį
Ġà¶´ à¶³
Ġà¶¢à¶± à¶ľà·Ħ
à¶± à¶Ľ
Ġà¶ĩ à¶»à¶º
Ġà·Ģà¶»à¶¯ à¶§
à·Ĥ à¶±à¶ºà¶ļ
à¶¨ à¶ļà¶ºà¶±
à¶¸ à¶¸à¶º
Ġà¶´à¶±à¶Ń à¶ļ
à¶¯ à¶±à·Ģ
Ġ15 00
Ġà¶° à·Ģà¶½
Ġà¶ļà¶½ à¶¶
à·ĥ à¶»à·Ģ
à¶º à·Ħà¶¸
Ġà·ĥà¶³ à¶»
à¶¶à¶³ à·Ģà¶¯
Ġà¶´à·ħ à¶ļà¶»
à¶´ à¶½à¶ºà¶ļ
Ġà¶Ĩ à¶´à¶±
Ġà¶ħ à¶ºà¶±
Ġà·ģ à¶Ńà¶ļà¶º
Ġà¶Ķ à¶©
Ġà¶§ à¶»
Ġà·Ĩ à¶±
Ġà¶Ńà¶¯ à¶¶à¶¯
Ġà¶´à·ħ à¶´
à¶Ĭ à¶½à¶Ł
à¶§ à·ĥà¶§
à¶¢à¶º à¶¯
Ġà¶ļà¶© à¶ºà¶ļ
Ġ7 8
à¶Ĩ à¶»à¶¸
à¶±à¶º à¶¯
à¶»à¶ļ à¶Ń
Ġà¶¶à¶½ à¶´à¶±
à¶ļ à·Ħ
à·Ĥà¶ļ à·Ģà¶»
Ġà¶ĳ à¶±à¶Ń
Ġà¶ĳà¶ļ à·Ģ
Ġà¶ĭà¶´à¶ļà¶»à¶« à¶ºà¶ļ
à·Ĥà¶« à·Ģà¶½à¶¯
à¶ľà¶º à¶º
à¶¶ à¶´
à¶Ń à·ĥ
Ġ200 1
Ġà¶ħà¶Ń à¶´à·ĥ
Ġà¶ħà¶© à¶±
Ġà¶ħà¶© à¶ļ
Ġà¶±à¶»à¶ļ à¶º
Ġà¶Ķ à¶ºà¶Ń
Ġ7 1
à·ļ à·Ĭ
Ġà¶ĳ à·Ģà¶ļ
Ð ¾
à·ħà¶³ à·ĥ
Ġà¶ķ à¶º
à·ħ à·Ģà¶½
à·Ĥà¶ļ à¶ºà¶ļ
à¶ľà¶Ń à¶ºà¶§
à¶ļà¶» à¶¯
Ġà¶Ĩ à¶ľà¶¸à¶±
à¶ļà·ħ à·Ħ
à¶ľ à·ģ
à¶¯à¶ļ à¶ºà¶±
à¶ļ à¶½à¶ļ
à¶Į à·Ģ
à¶Ń à¶±à¶Ń
à¶¯ à¶¸à¶±
Ġà¶½ à¶ºà¶±
Ġà·Ĩ à¶»
Ġà¶¯ à¶¸à¶º
Ġà·ĥà¶¸ à¶±à¶º
à¶»à¶¸ à¶¯
Ġà¶ĭ à¶»à·Ħ
à·Ģà¶º à¶¯
Ġà¶½à¶ľ à¶¯
Ġà¶¯à·Ħà·ĥ à¶ļà¶§
Ġà¶ħà·Ģà¶º à·Ģ
à¶»à¶¥ à¶´
Ġà¶ĳà¶¸ à¶Ł
Ġà¶ľà¶½ à·Ģà¶±
4 5
Ġà¶» à¶¯à·Ģ
Ġà¶´à¶» à¶±
à·ħà¶¹ à·Ģ
Ġà¶¯ à·ĥà¶±
à¶¹ à¶§
Ġà¶¢ à·Ģà¶±
à ¤
7 7
Ġà·Ħ à¶¶
à·Ģ à¶łà¶±
Ġà¶» à·Ħà¶Ń
à¶½ à·Ģà¶ļ
à·ģ à·Ģà¶ºà¶±
Ġà¶ļà¶» à¶§
à¶´ à¶±à¶Ń
à¶ºà·Ģ à¶ľ
Ġà¶ħà¶´ à·Ģà¶Ń
Ġà¶ļà¶´ à¶§
Ġà¶»à·Ħ à¶Ńà¶±
à¶³ à¶±
à¶ĭ à¶´à¶Ń
Ġà¶ħà·Ģà·ĥ à¶»à¶ºà¶ļ
à·ĥà·Ħ à¶ľà¶Ń
Ġà¶Ńà·Ħ à¶©
Ġà·Ģ à¶ºà¶»
à¶ºà·Ģ à¶¸
à·Ĭ à·Ĭ
à¶ľ à¶±à¶ºà¶§
Ġà¶»à¶® à¶ºà¶§
à¶» à·Ĥ
ĠðŁ ĻĤ
à·Ĥ à¶Ńà¶¸
Ġà¶ĭà¶¹ à·Ģ
3 2
Ġà·Ģ à·ĥà¶º
Ġà·Ģà·Ħ à¶ľ
Ġ200 2
Ġà·Ħ à·ĥà¶±
à¶»à·Ħ à¶ºà¶±
Ġà¶ ŀ
Ġà¶ļà¶» à·Ģà¶½
Ġ200 3
Ġà¶ħà¶± à¶»
Ġà¶´à·ħ à¶ļ
ķ Ķ
Ġà¶ļ à¶©à¶ļ
Ġà¶ºà¶±à·Ģ à¶¯
Ġà¶¯ à·ģ
Ġà¶ļà¶½ à¶¸à¶±
à¶ºà¶ļ à·Ģà¶»
à¶Ńà¶º à¶ľ
Ġà¶± à¶¶
Ġà¶ĳ à·Ģà¶½
à¶ħ à¶§
à¶»à¶ºà¶§ à¶¸
à¶ī à¶©à¶¸
à·ĥ à¶»à¶¯
Ġï ķĶ
Ġà¶ľ à¶³
à¶½ à¶¥à¶º
Ġà¶ħà¶» à¶ľà¶±
Ġà·ĥ à¶»à¶¸
Ġà¶º à·Ģà¶½
Ġà·Ģ à¶±à¶º
Ġà¶Ńà¶»à¶Ł à¶ºà¶ļ
Ġà·Ħ à·Ģà·ĥà¶§
Ġà¶ļà¶½ à·Ģ
à·Ģà¶½ à¶ļ
Ġà¶¸à¶Ń à¶ºà¶§
à¶· à¶¯
Ġ7 6
à¶Ľ à¶ļ
à¶ºà¶ļ à¶¸
à¶½ à¶ľà¶Ń
Ġà¶Ĵ à·Ģà¶º
Ġ198 0
Ġ199 4
Ġà¶īà·Ħà¶½ à¶¸
à¶ħ à¶Ł
Ġà¶ľ à·ĥà¶¸
à¶»à¶º à¶¯
Ġà·ģ à·Ĥ
Ġà¶» à¶§à¶Ń
Ð µ
à¶¢ à¶½à¶º
à¶¤ à¶º
Ġà¶Ķà¶º à¶ľ
Ġà¶´à¶± à·Ħà¶ļ
Ġà¶ħ à·Ĥ
à¶ºà¶½ à·Ģà¶Ń
Ġà¶ħà·ĥ à¶·
Ġà¶ĩ à¶¬
Ġà¶© à¶¶à¶½
Ġà¶ħà¶±à·Ģ à·ĥà¶»
Ġà¶ħà¶´ à¶ł
à¶Ń à¶¸à¶§
à¶» à¶ľà¶½
Ġà¶ĩ à·ĥà¶§
à¶ĳ à¶¸à¶±
ĠâĢ Ľ
Ġà¶ĳà¶±à¶ļ à¶±
à¶ī à¶³
à¯ į
à¶§ à¶¸à¶ļà¶§
à¶»à·Ħà·ĥ à¶ļ
Ġà¶ļà¶½ à¶¯
Ġ9 4
Ġà¶Ĩà¶» à¶ł
9 0
Ġà¶½ à¶¢
à¶ħ à¶¶
à·ĥà¶» à¶½
Ġà¶ĭ à¶¶à¶§
à¶ī à·Ģà·ĥ
Ġà¶ļà¶½ à¶§
Ġà¶Ńà·Ħà¶± à¶¸à¶ļ
Ġà¶´à·Ħ à¶¯
à¶ľà¶¸ à¶ºà¶§
Ġà¶ħà¶¯ à·Ħ
à¶» à¶¸à¶§
à¶« à·Ģà¶½
Ġà¶¸ à¶ļà¶»
à¶¯ à¶ºà¶º
Ġà¶ļà¶§ à¶ļ
Ġà¶ľà¶½ à¶´
à¶± à¶»à¶º
à¶ĳ à¶ļà¶Ń
à¶»à¶ľà·Ħ à¶ļà¶±
Ġà¶¸à¶± à·ĥà¶ļ
Ġà¶Ĩ à¶ľà¶¸à¶§
Ġà·ĥà¶¸ à¶¶
Ġ18 0
à¶½ à¶³à¶´
Ġà¶Ĵ à¶ļà¶»
Ġà¶±à¶¸ à·ĥ
à¶¯à¶» à¶ºà¶±
Ġ7 4
à·Ģ à¶±à¶ºà¶§
Ġà¶± à·Ģà¶º
à¶© à¶ľà¶¸
à¶© à¶ħà¶Ń
à¶§ à¶ºà¶±
200 5
à·ı à·Ĭ
à¶Ŀ à¶«à¶º
à¶»à¶° à¶»
Ġà·ĥà¶» à·ħ
Ġà¶¯ à¶»à¶º
Ġ3 50
à·Ĥ à¶¥à¶ºà¶±
Ð ¸
Ġà¶§ à¶ºà¶»
Ġà·ĥà·Ħ à¶¸
à¶ī à·Ħà·ħ
Ġ197 0
à¶± à¶Ľà¶º
Ġà¶º à·Ģà¶±à·Ģ
Ġà¶ĳ à¶ľ
Ġà¶» à·Ħà¶ļ
à·Ģ à¶¶
Ġà¶Ń à¶´
Ġà¶¸ à¶³à¶ļ
à·Ĥà¶« à·Ģà¶½à¶§
Ġà¶´à¶§ à¶½à·Ģ
Ġà¶ħ à¶§à¶¸
à¶°à¶± à¶ºà¶±
Ġà¶ħà¶Ńà¶» à¶¸à¶ľ
à¶±à·Ģ à¶ļ
Ġà¶ħà¶º à¶»
Ġ19 0
Ġà¶ħà·ĥà¶½ à¶¯
à¶ºà¶½ à¶½
âĢ ²
à¶· à¶»à¶«
à¶ħ à¶¯à·Ħà·ĥ
Ġà·Ħ à¶»à¶º
à¶± à¶ļà¶º
à¶® à·Ģà¶Ń
Ġ8 6
9 9
Ġà·Ģà¶± à·ĥ
â ĸ
à¶»à¶ļ à¶¸à¶ļ
à¶ļ à¶Ńà¶±
à¶½à¶ºà¶ļ à¶¯
à¶´ à¶´
Ġà¶Ń à¶±à¶±
Ġà¶ħà¶Ń à¶½
Ġà¶´ à¶Ńà¶»
à¶» à¶´à¶±
Ġà¶¸à¶ľ à¶´
à·ĥà¶» à·ĥà·Ģ
à·Ħ à¶¶
Ġà¶ľà¶Ń à¶ļà¶»
à¶¯à¶½ à¶ļà¶§
Ġ9 6
à·Ħ à¶±à¶ºà¶§
à¶»à·Ģà¶± à¶Ń
à¶Ń à·Ģà¶º
à¶Ĩ à·Ģ
à¶ºà¶¸à¶± à¶ļ
à¶¶ à¶¯à¶º
à¶ļ à·Ģà¶½à¶§
à¶¬ à¶½
Ġ8 7
Ġà¶ ¹
Ġà¶ºà·Ħà¶´à¶Ń à¶ļ
Ġà¶ļà·ħ à¶ļ
à¶Ńà¶» à¶ļà¶»
à¶Ĩ à¶´à¶¯
à·ĥ à¶¢à¶±à¶ļ
Ġ197 7
à·ĥà¶½ à¶ļà¶§
Ġà¶Ĵ à¶©
Ġà¶ĳà¶½ à·Ģ
Ġà¶ĩà¶³ à¶±
à·ĥà·Ģà¶ºà¶ļ à¶¯
Ġà¶» à·ĥà¶ļ
à·Ģà¶½ à·Ģ
à¶´ à¶ľà¶Ń
à¶ļ à¶±à¶¸
Ġà¶±à·Ģ à¶ºà¶ļ
à·ģà¶º à¶º
Ġà·ħà¶Ł à¶¸
à¶° à·Ģà¶½
Ġà·Ģ à·ģ
à¶¯ à·ģà¶ļ
Ġà·ģà¶Ń à·Ģà¶»
Ġà¶» à¶ľà¶´
Ġà·Ģà¶§ à¶ºà¶§
Ġ9 8
Ġà¶© à¶½à·ĥ
Ġà¶ļà¶© à¶º
Ġà¶ķ à¶¸
à¶½ à¶»à¶º
Ġà¶Ĩ à·Ģà¶»à¶«
à¶· à¶¸
Ġà¶Ńà¶» à·Ħà¶ļ
Ġà¶¸à¶Ńà¶º à¶º
Ġ9 7
Ġà·ĥà¶´ à¶ºà¶º
à¶· à·Ģà¶ºà¶ļ
Ġà¶ĭà¶´ à¶ļà¶»à¶«à¶º
Ġà¶ļà¶½ à¶´
à¶§ à¶ľà¶Ń
à¶»à¶¯ à¶¬
à·Ģà·ĥ à¶»à¶ļ
à¶»à·ģ à·ĥ
Ġà¶ļà·Ģà¶¯ à¶Ń
à¶ľà¶«à¶ļ à¶ºà¶ļ
à¶ĩ à·Ħ
Ġà¶±à¶§ à¶¶
4 8
Ø §
à¶ĩ à¶³
Ġà¶º à·Ħà¶¸
Ġà·ĥà·Ħ à¶ºà¶ļ
à¶±à·ĥ à¶ļà¶§
à·ĥ à¶±à¶ºà¶§
Ġà¶» à·ģ
Ġà¶ħà¶Ń à¶´à¶Ń
Ġà¶Ķ à¶¶à¶±
Ġà¶¶à¶¹ à¶»
Ġà¶¢à¶± à¶±à¶º
Ġà·ĥ à¶¶à¶±
Ġà¶ķ à¶´à¶±
Ġà¶¯ à·Ħà¶Ń
Ġà¶ľ à·Ģà¶º
à·ĥ à¶ľà¶Ń
à¶¶ à¶»à¶ºà¶ļ
Ġà¶ī à¶´à¶º
Ġà¶Ńà¶¯ à¶¶à¶¯à¶º
à·ĥ à¶±à¶ļ
Ġà¶ļà¶» à¶´à¶±
à¶Ńà¶» à¶§
à¶¯ à¶¸à¶º
à¶±à¶ºà¶ļ à¶¯
à¶Ń à¶§à¶Ń
à¶¯ à¶©
Ġà¶§ à¶ļ
Ġà¶ľà¶Ń à¶ļà¶»à¶±
à·Ħà¶§ à¶º
Ġà·Ħà¶Ńà¶» à·Ģà¶±
Ġ12 5
Ġà¶ł à¶«
Ġà¶¸à¶ľ à¶ļ
ĠâĢį à·Ļ
Ġà¶ĭ à¶¶à¶½
Ġà¶ļ à¶¶à¶½
Ġà¶´à·ħ à¶ļà¶»à¶±
à¶» à¶´à¶Ń
à¶Ńà¶» à·Ģà¶½
Ġà¶Ĩà¶¯à¶» à·Ģà¶±
à¶´ à¶½à¶¸
à¶¢à¶º à·Ģà¶»
Ġ7 9
Ġà¶¸à¶± à·ĥà¶§
Ġà¶ľà·Ħ à¶ľà¶±
à¶Ī à¶Ń
à¶Ń à·Ģà¶±
Ġà·Ģà¶§ à¶»à·Ģ
à¶§ à¶±à¶¸
âĢį à·Ĭ
Ġà¶ĩà¶» à¶ľ
Ġà¶Ĩ à¶½à¶º
à¶Ĩ à¶´à·Ħ
Ġà¶ļà¶»à¶±à·Ģ à¶§
à¶ħ à·Ħà·ĥ
Ġà¶° à¶¢à¶º
à¶§à¶Ń à¶¸
Ġà·ĥ à¶ľà¶ºà¶±
à¶±à·Ģ à·ĥ
à¶ľ à¶¸à¶ļà¶§
Ġ6 3
à¶» à·Ħà¶±
à¶ĳà¶Ńà¶± à¶¯
5 6
Ġà¶ļà¶»à¶½ à¶Ń
Ġà¶ļ à¶±à·ĥ
à¶¢à¶º à¶¶
Ġ01 1
à·Ĥ à·Ģà¶½à¶§
Ġà¶ħ à¶ľà¶½
Ġà¶± à·Ģà¶¯
à¶¢à¶ºà¶ļ à¶½
Ġà¶ħà¶»à¶ľà¶½ à¶ºà¶§
à¶ºà¶ļ à·Ģ
Ġà·ģ à¶±
Ġà¶ºà¶§ à¶§
Ġà¶ĩà¶Ł à¶½
âĢ ³
Ġà¶ĳà·ħ à·Ģà¶½
à¶ħ à·ģ
Ġà¶¸à·Ħ à¶ľ
Ġà¶ĩà¶¹ à¶»
à·Ģà¶Ń à¶º
à·ģà¶º à¶Ń
à¶»à·ħ à¶§
Ġ8 4
Ġà¶ħ à·Ģà¶»
Ġà·Ģà¶ľ à¶¶à¶½
Ġà¶¯à¶Ł à¶½à¶±
Ġà·Ģ à¶¯à¶ºà¶ļ
Ġà·Ģà¶ľ à¶ĭà¶Ń
Ġà¶ľ à¶¯
à¶ĭ à¶¸
Ġà¶ĳà¶±à¶ļ à¶½
à¶° à¶±à·Ģ
Ġ9 2
à¶©à¶± à¶Ł
à¶» à¶»à¶Ń
à¶ĳ à¶´
Ġ198 7
Ġà¶¯à¶¹ à¶¯
à·Ĩ à·ĥ
Ġà¶īà·Ģà¶» à¶ºà¶ļ
à¶¸à·Ħ à·Ģ
Ġà¶ĭ à·ĥà¶§
à¶´à¶Ń à¶±
à¶ł à¶»à¶¸
Ġà¶ĩ à·Ģà¶±
à¶Ľ à¶Ńà¶¸
Ġà·Ħà¶¯à·Ģà¶Ń à¶§
Ġà·Ħà¶» à·Ģà¶±
à¶ºà¶Ń à¶½
Ġà¶ºà¶± à¶Ń
Ġà¶ł à¶¸à¶Ń
Ġà¶»à¶Ł à·Ħà¶½
Ġà¶¢ à¶ºà¶½à¶Ń
à¶´ à¶ºà¶º
à·ļ âĢį
à¶ºà¶± à·Ģà¶§
Ġà·ĥà·Ħà¶ľà¶Ń à·Ģ
Ġ198 8
Ġà·ĥ à·ĥà¶´
à¶ħ à·Ģà¶¸
à¶¨ à¶Ńà¶¸
à¶± à¶»à¶½
à¶¸ à¶«à¶º
à¶º à¶ľà¶Ń
à¶´à·ħ à·Ģ
à¶½ à·Ģà¶»à¶«à¶º
à¶ĩ à¶Ł
à·ĥà¶¸ à·Ħ
à¶Ń à¶¥
à¶»à·ĥ à¶¸
Ġà¶ĳà¶½ à·Ģà¶±
Ġà¶ħà·Ħà·ĥ à¶§
à¶ºà¶¸ à¶ºà¶ļ
Ġà¶ħà·Ħ à¶¹
à·Ģà¶½ à¶´
Ġà¶ĩ à¶½à·Ģ
Ġà·ĥ à¶»à¶¯
à¶¯à¶± à¶ºà¶±
Ġ8 3
à¶¢à¶± à¶ºà¶ļà¶§
Ġà·Ģà¶ł à¶±à·Ģà¶½
Ġà¶ħà¶± à¶´
Ġ11 0
Ġà¶½à¶¶ à¶´
à¶ľà¶º à¶Ń
à¶¢ à¶ºà¶¸
Ġà¶´à·ħ à·Ģà¶±
Ġà¶¯ à¶±à·Ģà¶±
à·Ĥ à¶ºà¶Ń
à¶® à¶ºà¶§
Ġà¶»à¶§ à¶§à¶¸
Ġà¶ĩà¶ļ à¶©à¶¸
à¶Ĩ à¶ļ
à¶½ à·Ģà¶ºà¶ļ
à¶« à¶ļà¶§
20 20
à¶¯ à¶ľà¶±
Ġà¶¯ à¶¸à¶½
Ġà¶ħà·Ģà¶± à¶Ń
à¶±à·Ģ à¶¸
Ġà¶Ĵà¶ļà¶ļ à¶ºà¶§
Ġà¶ī à·ģ
Ġà·Ģà¶½ à·ĥ
à¶Ń à¶½à¶§
à¶ ĵà¶Ń
à¶ľ à¶Ł
à·Ģà¶»à¶« à¶ºà¶ļà¶§
à¶ºà·ĥ à¶±à¶º
Ġà¶Ĩà¶· à¶»à¶«
à·Ģà¶Ń à¶§
Ġà¶¢à¶±à·Ģ à¶»
Ġà¶ļ à¶ł
à¶¸à¶± à¶ļ
Ġà¶¸ à·ĥà¶ļ
Ġà¶¸à·Ħ à·ĥ
Ġà¶»à¶¢ à¶ºà¶±
Ġà·ĥ à¶ļà¶½
Ġà¶ĭà¶¹ à¶Ń
à¶¸ à·Ģà¶½
Ġà¶¶ à·Ħà¶§
Ġ196 0
Ġà¶ĳà¶ļ à¶ľà¶Ń
à¶¢ à¶¸à¶º
Ġà¶ħà¶´ à¶§à¶Ń
à¶º à¶Łà¶º
Ġà¶´à·Ħ à·Ģ
Ġà¶´ à¶»à¶º
à·Ļ à·Ł
Ġà¶´à·ħ à¶ļà·ħ
Ġ16 0
à¶»à¶« à¶ºà¶±
Ġà¶Ń à¶½à¶Ń
à¶´à·Ħ à¶¯
à¶Ń à¶ºà¶¸
à¶ļ à·Ģà¶»
à¶´ à¶»à¶ºà¶ļ
Ġà¶Ńà¶»à¶Ł à¶ļ
à·Ģ à¶¥
à·Ģà¶± à¶ļ
à¶Ĩ à¶´
Ġà·Ģà¶»à¶¯ à·Ģ
Ġà¶º à·ģ
Ġà¶¯à·Ħ à¶¯
à¶»à·Ģ à¶¯
Ġà¶±à¶¸ à¶Ń
à¶¸ à¶¢à¶ºà¶±
à¶¸à¶º à¶º
Ġà¶Ĵ à¶ļà¶¸
Ġà¶ĭ à¶¸à¶Ń
à¶»à¶¸ à¶ºà¶ļà¶§
Ġà¶ĳà¶º à¶¯
à¶»à¶¢ à¶Ń
Ġà¶ľà¶Ł à¶§
Ġà¶± à·Ģà¶¸
Ġà¶§ à¶Ń
Ġà¶¯ à·ģà¶¸
Ġ197 8
à¶§ à¶¹
Ġà¶« à¶ºà¶ļ
200 7
âĢįâĢį âĢįâĢį
à¶³ à¶ľà¶Ń
Ġà·ĥà¶¸ à¶»à¶ļ
Ġà·ĥà¶¯à·Ħ à¶§à¶¸
5 5
Ġà¶»à¶§ à¶´
à·ģ à¶Ń
Ġà·ĥà¶¸ à¶´
Ġà¶±à¶ľà¶» à·Ģà¶½
Ġà¶Ńà¶¯à¶¶à¶¯ à¶ºà¶ļ
à¶º à·Ħà¶±
à¶Ĩ à¶±à¶±
à¶ºà·Ģà¶» à¶ºà¶±
à¶Ĭ à¶½à¶ľ
Ġà¶ĳà¶½ à¶¹
Ġà¶¸à¶Ł à·Ħ
à¶¨ à¶ºà¶ļ
Ġà¶¶ à·ĥà¶º
à¶°à¶± à¶ľ
ðŁĳĮðŁĳĮðŁĳĮðŁĳĮ ðŁĳĮðŁĳĮðŁĳĮðŁĳĮ
à¶ĳ à¶ºà¶Ń
à¶ħ à¶ºà·Ģ
à·Ĥ à¶¶
Ġà·Ħ à¶Ł
Ġà¶ł à¶º
à¶±à·Ħ à·Ģ
Ġà¶´à¶»à¶« à·Ģ
à¶» à¶½à¶±
à·Ħà¶» à¶±
Ġà¶ĭà¶¹ à¶½à¶§
à¶¸ à¶ŀ
Ġà¶± à·Ģà¶½
Ġà¶¸à·Ħ à¶Ł
Ġà·Ħ à¶ºà¶ļà¶§
à¶ķ à¶ļà¶§
Ġà¶ļà¶§ à¶ļà¶Ń
à¶¸ à¶¸à¶±à¶¸
Ġà¶¸à·Ħ à¶¯
Ġà·Ħ à¶Ńà¶»à·Ģ
Ġà¶ľà¶« à¶ļ
à¶¢à¶± à¶ºà¶±
Ġà¶ļà¶© à·Ģ
Ġà·ĥà¶¸ à·ĥà¶¸
Ġ6 1
à¶Ń à¶¶à¶±
Ġà¶ħà¶½ à·Ħà¶´
Ġ198 3
à·Ģà¶» à¶´
à¶ļà¶½ à¶Ń
à·Ģà¶º à¶¸
Ġà·ĥà¶³à·Ħà¶± à¶ļ
à·ĥ à·Ħà¶º
à¶· à¶ºà¶§
Ġà¶º à·Ģà¶¸
Ġ9 00
Ġ à®
à¶Ĭ à·ģ
Ġà¶ļà¶½ à·Ģà¶¸
Ġà¶½ à¶«
Ġ7 3
Ñ Ĥ
à¶»à¶· à¶½
Ġà¶¸ à¶»à¶«à¶ºà¶ļ
Ġà¶´à¶§ à·Ģ
à¶»à¶§ à·Ģà¶½
à¶ĩ à·Ĩ
à¶¸ à¶ļà¶»
à¶ľà¶Ń à¶¯
à¶ļ à·ĥà¶±
Ġà¶´à¶½ à¶ļà¶»à¶±
à¶ĭ à¶´à¶±
à¶¹ à¶º
Ġà¶¶à¶¯ à·Ģ
à¶° à·Ģà¶½à¶§
Ġà¶¯à·Ħ à¶ºà¶ļà¶§
Ñ ģ
à¶´ à·Ħà¶½
Ġà¶»à¶§ à·Ģ
Ġ4 000
à¶»à¶ºà¶§ à¶º
à¶¯à¶± à¶ļ
Ġà¶ļà¶§ à¶Ń
à¶´ à¶½à·Ģ
Ġà¶ļ à¶±à¶§
Ġà¶ħ à¶Ľà¶±
200 6
Ġà·ĥà·ħ à¶ļà¶±
Ġà¶ºà¶± à¶ļà¶¸
à·ħà¶Ł à¶§
à¶± à¶¸à¶§
à¶§à¶´ à¶½
à·Ħ à·Ģà·ĥ
à¶Ńà¶ļ à¶ºà¶±
à·ħà¶¯ à¶´
Ġ14 0
à¶Ĩ à¶±à¶º
à¶ºà¶º à¶Ń
à·Ħ à¶ļà¶ºà¶±
à·ħ à¶ºà¶§
ĠâĢį âĢį
Ġà·Ĩ à¶½
Ġà¶ļ à·Ħà¶§
à¶ł à¶©
à¶ĳ à¶»à¶§
à¶Ķà¶¶ à¶§à¶Ń
Ġà¶¯ à¶©à¶º
à¶ĩ à¶«
à¶º à¶¸à¶ļà¶§
à·ĥ à·Ħà¶±
Ġà¶Ĵà¶ļ à¶¸à¶Ń
à¶¸à¶½ à¶Ń
Ġà¶ļà¶½ à·Ħà¶ļ
Ġà¶± à¶Łà¶±
Ġà¶Ķ à¶¸
6 6
à¶¶ à·Ģà¶±
Ġà¶¸à¶ľ à¶©
à¶¨ à¶Ń
à¶¨ à¶ºà¶±
Ġà¶īà·Ħà·ħ à¶º
Ġà¶ĳà·ħ à·Ģ
Ġà¶ĩà·ĥ à·ħ
Ġà¶ħà·Ħ à·Ģà¶»
Ġà·Ģà·ĥ à¶»à¶ļà¶¸
à·Ģà¶± à¶Ń
Ġà¶¸à·Ħ à¶±à¶ľà¶»
Ð ½
à¶ºà¶§ à·Ģà¶Ń
à¶» à¶¶à¶½à¶º
à·ĳ à¶Ĥ
Ġà¶º à·Ħà¶±
Ġà¶Ĩ à¶Ńà¶»
à¶«à¶º à¶Ń
à¶¸ à¶©à¶ļ
à¶¢ à¶ºà¶Ń
à¶© à·Ģà·ĥà¶¸
Ġà¶ĭà¶¹ à¶½à¶ľ
Ġà¶´à¶¯ à¶ºà¶ļ
à¶¸à¶ļ à¶¸
Ġà¶ł à¶½à¶±
Ġà¶ħà¶¯ à¶¸
Ġà¶ħà¶±à·Ģ à·ĥà¶»à¶º
Ġà¶Ĩ à·Ģà¶»
à¶»à¶¸ à¶½
Ġà¶´à¶¯ à¶¸
Ġà¶ħ à¶ļà¶»
Ġà¶Ĵ à¶»
à·Ħ à¶ļà¶Ń
Ġà¶ĳ à¶±à·Ģà¶¯
Ġà¶±à¶»à¶ļ à¶¯
à¶ĭ à¶½
200 4
à¶ľ à·Ģà¶±
Ġà¶¢ à·ĥ
à¶§ à¶¸à¶º
Ġà¶½à¶ºà¶± à¶½
à¶±à¶ľ à¶»à¶º
à·ı à·Ļ
Ġà¶ ¬
à¶ħ à¶±à·Ģ
Ġà¶ħà¶¸ à¶½
Ġà¶´à¶» à¶½
à¶½à¶ļ à¶ºà¶ļ
Ñ Ģ
à·ĵ âĢį
Ġà¶ļà¶© à·Ģà¶½
à·ĵ à·ĬâĢį
7 5
Ġà¶¢à¶±à¶ľà·Ħ à¶«à¶º
Ġà¶ł à¶¸à¶½
à¶Ĩ à¶ºà¶Ńà¶±à¶º
Ġ01 12
Ġà¶± à·Ħ
à¶ħ à¶³
Ġà¶¸à¶Ł à¶´
à·Ĭ à·ĬâĢį
Ġà¶»à·ĥ à¶ºà¶ļ
à·Ĥà¶ļ à¶Ń
Ġà¶´à¶§ à·Ģà¶±
à¶ļà¶º à¶Ń
à·Ĥ à·Ģà¶Ń
à·Ģ à¶°à¶»
à·Ģ à·Ģà¶Ń
ðŁ ĺ
à¶Ńà¶» à¶¸à¶º
Ġà¶ħà¶»à¶¹ à¶º
Ġà¶´à¶½ à¶ºà¶±
à·Ĩ à¶½
à¶ľ à·ĥà¶¸
à·ĥ à¶§à¶±
Ġà·Ģà¶ľ à·Ģ
à¶· à¶«
Ġà¶ĸà·Ĥ à¶°à¶ºà¶ļ
à¶© à¶´à¶º
Ġà¶»à¶® à¶ºà¶ļà¶§
à¶¸ à¶½à·ĥ
à¶ļ à¶¶
201 9
à¶ħ à¶Ńà¶»
à·ģ à¶ļà¶»
à¶´à¶ºà¶ļ à¶¸
Ġà¶Ī à¶º
à¶ľà¶± à¶ºà¶ļ
Ġà¶´à¶§ à¶ºà¶ļ
Ġà¶ī à¶«
à¶±à·Ģ à¶ľ
Ġà·ĥà¶¸ à¶®
Ġà¶Ĩà¶¯à¶» à¶ºà¶§
à·Ģà·Ħ à¶½à¶ļ
à·Ģ à¶ļà¶»
à¶º à¶¢à¶±à¶ļ
Ġà¶Ī à¶§
à¶» à¶Ł
à¶ľà·Ħ à·Ģ
à¶»à¶¯ à¶ľ
à·ĥà·Ħ à¶ºà¶ļ
à¶½ à·ĥà¶±
à·ĥ à¶§à¶¸
Ġà¶ļà¶© à¶īà¶¸
à¶»à¶Ń à·Ģà¶±
Ġà¶ĳà¶¯ à¶Ń
à¶Ľ à¶±à¶ºà¶ļ
à·ģ à¶«à¶ºà¶ļ
à·Ģà¶» à·Ģ
à·Ħà·ĥ à¶ļ
âĢį à·ı
à¶§ à·ĥà¶Ń
Ġà¶ļà¶» à¶½à¶º
à¶Ĩ à¶Ń
à¶Į à¶§
à·Ħà¶¯ à·Ģà¶Ń
à¶¢ à¶´à¶±
à¶½à¶± à¶ºà¶ļà¶§
Ġà¶īà¶³ à·Ħ
à·ħ à·Ħà¶ļ
à·Ĥ à¶¯
à¶Ŀ à¶ļ
à·ģ à·Ģà¶ºà¶ļ
à·Ĥ à¶¸à·Ģ
à¶³ à¶ľà¶±
Ġà¶¶à·Ħ à¶ļ
Ġ197 1
à¶ļ à¶±à¶º
à·Ħ à¶±à·Ģà¶½
à·Ģà·ĥ à¶»à¶ļà¶§
à¶½à¶ļ à¶«
6 5
Ġà¶ļà¶© à·Ģà¶Ń
à¶ħ à¶¸à¶Ńà¶ļ
Ġ199 9
à¶¸à¶§ à¶ľ
à·ĥ à¶§à¶Ń
Ġà¶¶à¶½ à¶ľ
Ġà¶Ĩà¶ºà¶Ńà¶± à¶ºà¶±
Ġà¶¯à¶¸ à¶±à·Ģ
Ġà¶ħà¶© à¶´à¶«
Ġà¶»à¶® à·Ģà¶½
Ġà·ĥ à¶»à¶±
Ġà·Ħà¶» à·Ģà¶Ń
à¶¸à¶ļ à¶·
à¶ºà·Ģà¶± à¶ļ
à·Ģ à¶°
à·Ģ à¶¸à¶§
à¶»à¶¸ à¶ºà¶±
Ġà¶± à¶ľà¶¸
à¶½ à¶©
à¶Ńà¶» à¶ºà¶ļà¶§
Ġà¶´ à¶¤
Ġà¶¶ à¶§à¶»
à¶ľà¶Ń à·Ħ
à¶´ à¶¸à¶º
Ġà¶ĭ à·ĥà¶¸
Ġ18 9
Ġà·ĥ à¶»à¶«à¶º
Ġ22 5
Ġà¶ĭà¶¯ à·Ħà·ĥ
à·Ģ à·ħà¶ļ
à¶´ à¶½à¶ļ
Ġà¶ľà¶Ń à¶ļ
à¶´à¶Ń à¶±à¶º
ģ £
Ġà¶½ à¶´
à¶® à·ĥ
4 7
Ġ8 1
à¶ľà¶± à¶ļ
Ġà¶ķ à·Ĩ
à¶Ĩ à·ĥà¶±
à·ģà¶± à¶ºà¶±
Ġà¶¢à¶± à·Ħà¶¸
Ġà¶ķ à¶´
à¶ £
à¶¡ à¶±à¶º
à¶ ĸà·Ĥ
à¶´ à¶ºà¶Ń
à·ģ à·Ģà¶Ń
à¶¶ à¶¶
à¶¯ à·Ģà¶½à¶§
Ġà¶· à·Ģà¶º
à¶¶ à¶¸à¶º
Ġ194 8
à¶ļà¶ļ à¶¯
Ġà¶¯à·Ħ à¶¸à¶ļ
à·Ģà¶º à¶¹
à¶±à¶¯ à¶§
Ġà¶ĳà¶Ńà¶± à¶¯
à¶»à¶ļ à¶¯
à¶ļà¶» à·Ģà¶±
à¶ĳà¶¸ à¶Ł
Ġà¶»à¶¢ à¶ļà¶¸
Ġà¶ļà¶» à¶«à¶º
Ġà¶» à¶ľà¶»
à·Ħà¶½ à¶ļà¶§
Ġà¶īà¶¯ à¶ľ
Ġ1 01
à¶ļ à¶©à¶ļ
à·Ĥ à¶°
Ġà¶ł à¶½
à¶¯ à¶ľà¶¸
Ġà¶ķà¶± à¶¯
Ġà·ĥà¶¸ à¶ºà¶ļ
à¶»à·Ģ à¶ºà¶§
Ġ8 2
Ġà¶Ĩà¶ºà¶Ńà¶± à¶ºà¶ļà¶§
à¶»à¶ļà¶® à¶±à¶ºà¶ļ
à¶´ à¶©
Ġà¶ļà¶» à·Ģà¶º
à¶» à¶½à¶º
à¶´ à¶»à¶º
à¶¢ à¶¹
Ġà¶Ńà¶¯ à¶¶à¶½
Ġà¶µ à¶½à¶º
à¶ĭ à¶ľà¶Ń
Ġà¶ĭ à¶º
Ġà¶ī à¶ºà¶±
à¶Ķ à¶§
Ġà¶´à¶§ à¶ļ
à¶ļà¶º à¶º
à¶ºà¶± à¶ºà¶§
Ġà¶± à¶¸à¶º
à¶»à¶ļ à¶½
Ġà¶ĭà¶© à¶¯
Ġà·ĥà¶§à·Ħà¶± à¶§
Ġà·ħ à·Ħ
Ġà¶ľà¶« à¶ºà¶§
à¶Ń à·Ħà¶¸
à¶»à¶Ń à¶º
à¶ļ à¶Ńà¶»à¶ľà¶¸
à·ħ à¶ļà¶§
à¶´à¶Ń à¶½
à¶Ńà¶± à¶ºà¶±
à·ĥà¶½ à¶¸
à·Ģ à¶¢
Ġà¶ħ à¶ºà¶ļà¶»
Ġà¶± à·Ħà¶º
à·ģ à¶±à·Ģà¶½
Ġà¶Ķ à¶´à¶»
2 000
Ġà¶Ĭ à·ħà¶ľ
Ġà·Ģà¶§ à¶½
à·ĬâĢį âĢį
Ġà¶¯à·Ģà·ĥ à¶¸
ï ¿½
Ġà¶© à¶ľ
à¶ļà¶» à¶ºà¶ļ
Ġà¶Ńà¶»à¶Ł à¶ºà¶§
Ġà¶ļ à·Ģà¶±
Ġà·Ģà¶½à¶§ à¶¯
à¶« à¶¸à¶º
à¶ľà¶«à¶ļ à¶ºà¶§
à¶º à¶©
à¶Ńà¶» à¶Ń
à·ģ à·Ģà¶ºà¶§
à¶©à¶ļ à¶ºà¶ļ
Ġà¶ĭà¶ļ à·Ħ
à¶Ĭ à¶¢
Ġà·ħà¶¸ à¶ºà¶§
Ġà·ģ à·Ģ
Ġà¶ĩ à¶«à·Ģ
à¶ľà¶¸ à¶±à¶ºà¶§
à¶ºà¶¸ à¶«
à¶¯ à¶·
Ġà¶ľ à¶¢à¶¶
Ġà¶´à·ĥ à·ħ
Ġ9 3
à¶ł à¶ļà¶ºà¶ļ
à·Ģà¶½ à¶¸à¶ļ
Ġà·Ģà¶´ à·ĥà¶»
Ġà¶ħ à·Ĩ
à¶´ à¶»à¶ļ
Ġà¶Ń à¶«à¶ļ
à¶¢ à¶¢
à¶»à¶º à¶ľ
à¶Ĵ à¶±
à·Ĥà¶« à·Ģ
Ġà¶¢à¶±à¶´à¶¯ à¶ºà¶§
Ġà¶ļ à·Ģà¶»à¶ļ
Ġà¶« à¶ºà¶§
à¶¸à¶º à¶Ń
à¶Ķ à¶Ńà¶±
Ġà¶ħà¶» à¶·à¶º
Ġà·Ħà¶Ńà¶» à¶¯
Ġà¶ħà¶º à¶®
Ġà¶¸à¶ľ à¶¯
ã Ĥ
à¶° à¶¸à¶±à¶º
Ġ199 6
Ġà¶½à¶¶ à¶½
à¶»à·Ģ à¶«à¶º
7 6
Ġà¶± à¶»à¶ļà¶¸
à¶ºà¶± à·Ģà¶½
5 8
Ġ18 8
Ġà¶¢à¶± à¶»à¶¢
à¶º à¶ľà¶½
à¶¶ à¶½à¶ºà¶ļ
Ġà·Ģà¶½à¶§ à¶º
Ġà·Ħà¶¯à·Ģà¶Ń à¶ļ
à¶´à·Ħ à¶ļ
Ġà·Ħà¶» à·Ħà¶§
Ġà¶Ŀ à¶±à¶Ń
7 1
Ġà¶¶ à·ħ
Ġà¶ħà¶´ à¶½
à¶´à¶Ń à¶¸
à¶ĩ à¶´à¶½
à¶º à¶ľà¶±
à¶© à¶ľà·ĥ
à¶« à·Ģà¶½à¶§
Ġà¶½ à¶Ŀ
Ġà¶ľ à¶¢
à¶Ĭ à¶±
Ġà¶¸à¶ľ à¶§
à¶Ĩ à¶½
Ġà¶ħà·ĥ à¶´
0 2
Ġà¶· à·Ģ
à¶´ à¶®
Ġà¶¸à¶Ń à¶°
à¶±à·Ģ à·Ħà¶»
à¶ħ à·Ħà¶½
Ġà¶¶ à¶»à·Ģ
à·ĥà¶¸ à·Ħà¶»à¶ļ
Ġà¶´à¶¯ à·Ģà¶±
Ġà¶´à¶± à·Ħ
à¶ļà¶»à¶« à¶ºà¶±
Ġà¶ĳà·ħ à¶ļ
à¶´à¶Ń à¶ļà¶§
Ġà¶ķ à·Ģà¶§
à¶§ à¶¸à¶Ń
à¶¯ à¶¸à¶ļ
à¶»à·Ħ à¶¸
Ġà·ĥà¶½à¶ļ à¶±à·Ģ
à¶Ń à¶§à¶º
à¶ħà¶© à·Ģ
Ġà¶Ń à¶®
Ġà¶Ķà¶¶ à¶¸
Ġ199 1
Ġà¶´à¶½à¶ļ à¶½
5 9
à¶¯ à·ħ
Ġà¶ĳ à¶ºà¶¸
à¶ī à·Ģ
à¶ļ à¶ºà¶§à¶¸
7 8
à·ĥ à¶±à·Ģ
Ġà·ĥà·Ħ à¶ľà¶Ńà¶º
à¶Ĭà¶§ à¶´à·ĥ
Ġà·Ħà¶¯à¶± à¶ļ
Ġà¶ħà¶¸ à¶»à¶«
à¶· à¶´
à¶Ľ à·Ģ
Ġà¶Ķà·ĥ à·Ģà¶±
Ġà¶ĸà·Ĥ à¶°à¶º
à¶ľà¶« à¶±à¶º
Ġà¶ľ à·Ģà¶ºà¶±
0 5
Ġà¶ħà¶Ńà¶» à¶º
Ġà¶´à¶½ à¶¯
à¶½ à¶¥à¶ºà¶±
à¶» à·Ĩ
Ġà¶± à¶ļ
à·Ģà·ĥ à¶ļà¶§
ã ĥ
à¶¶ à¶ľ
à¶¯à·Ħà·ĥ à¶ļà¶§
à·ĥ à¶¶à¶»à¶ľà¶¸
Ġà¶ħà¶´ à¶¸à¶«
à¶¢à¶º à·ĥ
à¶ĩ à¶´
Ġà·ĥà¶¸ à¶¶à¶»
à·ģ à¶¸à¶Ń
Ġà¶ĭà¶¯ à¶»à¶º
Ġà·Ģ à¶½à¶º
Ġà¶Ī à¶³
Ġà¶ļ à¶¨
à¶Ľ à¶ļà¶ºà¶±
à¶Ńà¶± à¶ľà¶½
à¶¢à¶ļ à·Ģà¶»
Ġà¶¸à·Ħ à·ħ
Ġà¶¸ à¶¬
Ġà¶± à·Ħà¶»
Ġà¶¸à¶§ à¶º
Ġà¶Ńà¶»à¶ľà¶ºà¶ļ à¶¯
à¶¯à¶» à¶ºà¶§
4 2
Ġà¶» à¶¯à¶ľ
à¶ĳ à·ħà¶¹
à¶ļ à¶ºà¶ļà¶§
Ġà¶ļ à¶±à¶Ń
à¶Ł à¶½
à¶»à·Ħ à¶ºà¶§
Ġà·Ģ à¶¯à¶º
à¶¸à¶« à¶§
à¶Ń à¶½à¶ļ
à¶»à¶´à¶§ à·Ģà¶½
à¶» à·ĥà¶ļ
à¶´ à·Ģà¶±
à¶³ à·Ħ
4 9
à¶ļà¶½ à¶ºà¶ļ
Ġà¶ħà¶¸à¶Ń à¶ļà·Ģ
à¶ºà¶ļ à¶§à¶¸
Ġà¶īà¶¯ à¶½à¶¸
Ġà¶© à¶ļ
199 0
à·ĥà¶½ à¶ºà¶ļ
à¶´ à·Ħà·ĥ
à¶ī à¶¶
Ġà¶ĳà¶ļà·Ģà¶» à¶¸
à¶§ à¶´à¶±
à¶¸à¶©à¶ļ à¶½à¶´
à·Ħà¶½ à¶ºà¶ļ
Ġà¶ķ à¶ľ
Ġà¶ĭà¶¯ à¶¸
Ġà·ģà¶Ńà¶ļ à¶ºà¶ļ
Ġà¶Ńà·Ħà¶± à¶¸à¶§
Ġà¶ħ à¶¥
Ġà·Ģà¶ľ à¶º
à·Ģà¶§ à¶±
à¶´à¶Ń à¶±à¶ºà¶ļ
Ġà¶ħà¶º à·Ģà¶½
4 6
à¶© à¶ļà¶¸
Ġà¶ħà¶½ à¶ľ
à·Ģà¶ºà¶ļ à¶¯
Ġà¶Ĩ à·Ģà¶¯
197 0
à¶ħ à¶¹
à¶¯ à¶¢à¶±à¶ļ
Ġà¶Ńà¶» à¶¶
à¶´à·Ħ à·ħ
Ġà·Ģà·Ħ à¶±à¶º
à·Ĥ à¶»à¶Ń
Ġà·Ģà¶½ à¶½
Ġà¶¢ à¶ºà¶½à¶½
Ġà·ĥà¶½ à¶ļà¶¸
Ġà¶± à¶Ńà¶»à·Ģ
Ġà¶ĳ à·Ģà¶»
à¶¸ à¶¢
à¶ļ à·Ģà¶»à¶«
198 0
Ġà·ĥà¶¸ à·Ģ
Ġà¶± à¶ºà¶±
à¶Ń à·Ģà¶»
Ġà¶¯à·Ħ à¶±à¶º
à¶½ à¶»à¶Ń
Ġà¶ħ à¶ļà¶½
à¶½à¶° à¶»à¶º
à¶° à·Ģà¶±
Ġ199 5
Ġà¶ħà¶± à¶°
à·ģ à¶ľà¶Ńà·Ģ
à·Ģà¶ļ à¶ºà¶ļ
Ġà·Ģà¶© à¶±
Ġà¶ĭ à¶ļà·ĥ
Ġà¶´à·Ħ à¶§
Ġà¶ļà¶»à¶½ à¶¸
Ġà¶Ĵ à¶±
Ġà¶ħà¶ľ à¶»à¶¯à¶ľ
à¶ĸà·Ĥ à¶°
à·Ģà¶» à¶ºà¶§
à¶»à¶« à¶ļ
Ġà¶ļà¶» à·Ģà¶¸
Ġà¶ĩ à¶¯à¶±
Ġà¶© à¶©
Ġ10 5
Ġ12 00
Ġà¶Ń à¶«à¶Ń
Ġà¶´à·ĥ à¶§
Ġà¶Ī à¶±
Ġà¶´ à¶½à¶±
Ġà¶¸ à¶¸à¶±à¶¸
à¶´ à¶ļà¶º
à¶Ĩ à·ģ
à¶ĩ à¶»
à¶ĩ à¶¯
à¶» à·Ģà¶ļ
Ġà¶¯ à·Ĥ
Ġ197 2
Ġà·Ħà¶¯ à¶¸
Ġà¶ļà¶» à¶¬
à¶ºà¶½ à¶¸
Ġ11 3
à¶º à¶Ńà¶º
Ġà·ĥà¶» à¶ł
à¶½ à¶ł
à¶ºà¶¸ à¶ºà¶±
Ġà·Ģ à¶¸à¶§
à·Ģà¶´ à·Ħà·ĥ
à¶ĩ à¶§
Ġà·ĥ à·ģ
à¶©à·ĥà¶§à·Ħà¶± à¶ļà¶§
Ġà¶¢à¶± à¶±
à¶±à·Ħ à·Ģà¶ļ
Ġà·Ģ à¶¸à¶Ń
Ġà¶Ńà¶¶ à¶º
à·Ħ à¶¯à·Ģ
Ġà¶´ à¶«à¶Ń
Ġà¶¯ à·Ħà¶±
Ġà¶ĳà¶ļà¶§ à¶º
200 1
à¶¢ à¶ºà¶ļà¶§
0 3
Ġà¶¸à¶¸ à¶¯
197 7
à¶ľà¶½ à¶§
Ġ <
à¶Ŀ à¶±à¶ļ
à¶Ń à¶ļà¶»à¶«à¶º
à¶»à¶¸ à¶±à¶º
Ġà¶¸à·Ħ à¶»à·Ħ
à¶»à¶º à¶¸
à¶¶ à¶½à¶ļ
Ġà¶ļ à¶±à¶ļ
Ġà¶ºà¶±à·Ģ à¶±
Ġ11 5
à¶¯à·Ģ à¶ł
Ġà¶´à¶» à·Ģ
Ġà¶Ĩ à¶»à¶«
Ġà¶ħà·Ħ à¶¸à¶©
Ġà¶ħ à·ĥà¶»à¶«à¶º
Ġà¶¶ à¶ºà¶§
Ġà¶ī à¶¹
à¶¯à¶» à·Ģà¶»
Ġ4 50
Ġà¶Ŀ à¶«
à¶»à¶¯ à·Ģ
Ġà¶¯ à¶¯
Ġ195 6
à·ĥ à¶ł
4 1
Ġà¶´ à·Ģà¶±
à¶´ à¶½à¶§
Ġà¶½à¶Ł à¶¸
à¶ľà¶½ à¶ľ
Ġ6 000
Ġ à·Ĭ
à¶º à·Ģà¶º
Ġà·Ģà¶§ à¶ºà¶ļ
Ġà·ĥà¶´ à¶ºà¶¸
à¶§à·ĥ à¶ļà¶§
à·ĥ à¶Ł
à¶®à¶ļ à¶®à¶±à¶º
Ġà¶ºà¶± à¶ļà¶±
Ġà¶ħà¶¶ à¶½à¶±
Ġ199 7
à¶´ à¶ļà¶»à¶«
Ġà¶ħà¶Ń à·Ħà¶»
Ġà¶ħà¶» à¶ľà¶Ń
Ġà¶Ĵ à¶º
à¶¯ à¶«
Ð¾ Ð
Ġà·ħ à¶ľà¶§
Ġà·ĥ à·ĥà¶½
à¶´à·Ģ à·Ħà¶±
à¶Ńà¶º à¶¯
à¶© à¶»à¶ºà¶ļ
Ġà¶Ńà¶»à¶ľ à¶ļà¶»
Ġà¶ħà¶Ńà¶» à¶¯
à¶Ľ à·ĥ
à·Ħ à¶§à¶Ń
Ġà¶´ à¶ľ
Ġà¶´à¶¸ à¶±à¶º
Ġà¶´à¶» à¶Ńà¶»à¶ºà¶ļ
à¶Ń à¶´à¶Ń
à¶ľ à·Ħà¶½
à¶ļà¶© à·Ģà¶½
à¶¸à·Ħ à¶«
ã Ģ
Ġà¶ħà¶» à¶«
Ġà·Ģ à·Ģà¶±
Ġà¶Ĩ à·Ģà¶»à¶«à¶ºà¶ļ
4 3
à¶Ĵ à¶ľ
à¶½à¶± à¶¸à¶º
Ġà¶¯à¶» à¶±à·Ģ
à¶Ń à¶±à·Ģà¶¯
Ġà¶ļ à¶¸à¶Ń
à¶½à¶º à¶¸
Ġà·Ģà¶° à·Ħ
à·ı à·ı
Ġà¶ħà¶Ń à¶´à¶º
Ġ9 1
à·Ħ à¶ľà¶Ń
à¶§ à¶ľà¶±
à·ģ à¶´à¶Ń
à¶° à¶±à¶ºà¶ļà¶§
à¶Ķ à¶»
Ġà¶ĩ à·Ģà¶»
Ġà¶īà¶©à¶ļ à¶©à¶ļ
à¶Ķ à¶ºà¶Ń
Ġà¶ļ à·Ĥ
Ġà¶ĳà·Ģ à¶±à·Ģ
Ġà·Ģà¶¸ à¶±à¶º
à¶« à¶±à·Ģ
0 7
à¶º à¶®
à¶´ à·Ħà¶±
à·ĥ à¶ºà¶Ń
Ġà·Ħà¶¯ à¶¯
Ġ198 6
à ¸
à¶Ń à¶¥à¶º
à¶½ à¶´à¶»
Ġà¶ĩà¶¯ à¶ľà¶±
Ġà¶» à¶¸à¶«
à·ĥà¶¸ à¶½
Ġà¶ĩà¶³ à¶§
Ġà¶ļà¶»à¶±à·Ģ à¶±
à¶ľà¶º à¶¯
Ġà¶Ńà¶»à¶¸ à¶ļà¶§
à¶® à¶»
Ġà¶µ à¶½à¶ļ
à·ĥ à¶´à¶Ń
Ġà·Ĩ à·Ģ
à¶Ŀ à¶«à¶ļ
à¶»à¶® à¶º
à¶± à¶¶
Ġà¶ĭà¶´à¶¯ à·Ģà¶±
à¶º à¶¶
Ġà¶¢à¶½ à¶ºà¶§
Ġà¶Ĵà¶ļà¶§ à¶Ń
Ġ199 2
Ġà¶Ĭ à¶½
à¶¨ à¶ºà¶§
Ġ7 50
Ġ100 00
Ġà¶± à·Ĥ
à·ħ à·Ģà¶»à¶ļ
Ġà¶Ķà¶º à·Ģà¶ľ
à·ģ à¶ļà¶Ń
Ġà·Ħà¶¬ à¶±
Ġà¶ľ à¶ľà¶±
à·Ĥ à¶±à¶ºà¶§
Ġ19 50
à¶ĭà¶© à¶»à¶§
à¶ķ à¶±à¶¸
à¶Ĩ à¶¶
Ġà¶¶à¶© à¶§
à·Ģ à¶ľà¶±
à·Ħ à¶»à¶º
Ġà¶Ńà¶¸à¶± à¶§
9 6
à¶¯ à·Ħà¶Ń
à¶±à¶§ à·Ģà¶Ń
Ġà¶½à¶¶ à¶Ń
Ġà¶¸à¶Ń à¶¸
à¶Ńà¶¸ à·Ģ
à¶© à¶ļà¶»
Ġà¶ĳà¶ļ à·Ħ
Ġà¶ļà¶§ à·Ģ
à¶±à¶º à¶§à¶Ń
à¶¢ à¶ļà¶»
à¶³ à·Ģà¶º
à¶ĩ à¶©
Ġà¶ļà¶»à¶±à·Ģ à¶±à¶¸
à¶´ à·ħà¶ļ
Ġà¶ħ à¶¢à¶±
à¶Ķ à¶¶à¶½
Ġà¶ħà¶½ à·ĥ
à·ĥà¶³ à·Ħ
à¶½ à·ĥà¶§à·Ħà¶±
à¶ĭ à¶ļ
200 2
Ġà¶ħà¶Ł à·Ģ
Ġà·ĥ à·Ĩ
Ġà¶¸à¶± à¶»à¶¸
à¶¸à·Ħà¶» à¶ľà¶¸
Ġà·ĥà¶¸ à¶Ńà¶½
Ġà¶ºà¶± à¶ļà¶½
à¶Ń à¶©
à¶ºà¶½ à¶§
Ġà¶¸à·Ħ à¶»à¶¢
Ġà¶¸à·ħ à¶ľ
Ġà¶ļ à¶ľ
Ġà¶Ĩà¶´à¶± à·ģ
Ġà¶ĭ à·ĥà¶ļ
à¶»à¶ļ à¶±
Ġà·ĥ à·ĥà¶³à¶±
Ġà¶ļà¶§ à¶´
Ġà¶ķ à¶©à¶»
à·Ħà¶¯ à¶Ń
Ġà¶¯ à·Ħà¶»
à·Ĩ à¶±
Ġ14 5
Ġà¶ĳ à¶¢à¶±
Ġà¶¸à·Ħ à¶ĩà¶¸à¶Ń
à·Ģà¶ļ à¶§à¶¸
ĠâĢ İ
à¶±à¶Ľ à¶ºà¶±
Ġà¶±à·ħ à¶½
Ġà¶ĩ à¶¯à·Ģ
Ġà¶ļà·ħ à¶¹
à¶´à·ħ à¶§
Ġà¶ļà¶§ à·Ģà¶½
8 9
à¶´ à¶§à¶±
Ġà¶¸ à¶¤
à¶© à·Ģà¶±
Ġà¶± à·Ģà¶±
Ġà¶ĭà¶± à·Ħà¶¸
Ġà¶Ķà·ĥ à¶´
à¶ľà¶¸ à¶ºà¶ļ
Ġà¶ħà¶ľ à¶§
Ġà·Ģà·Ħ à¶½à¶º
Ġà¶ĳ à¶§
à¶Ńà¶» à¶¸à¶ļ
à¶½ à·ĥà¶ļ
Ġà·Ħ à¶¢
à¶Ĭà¶½à¶Ł à¶§
Ġà·ĥ à¶ľà¶»
Ġà¶ļà¶½ à¶±
Ġà¶ĩ à¶½à¶±
Ġà¶ħà·Ħ à¶¯
Ġà¶ ĵ
Ġà¶ľ à·Ħà¶§
Ġà¶´à¶» à¶¯à·Ģ
à¶® à¶»à¶º
Ġà¶ļà¶© à·Ģà·ĥà¶¸
Ġà¶Ĩà¶ľà¶¸ à¶±à¶º
Ġà¶´à·ħ à¶ļà¶»à¶¸
Ġà·ĥ à·ĥà¶³
à¶»à¶¸ à¶ºà¶º
Ġà¶´à·Ħ à¶Ńà¶§
Ġà¶ļà¶© à¶Ń
à¶ĳ à¶»
à¶± à¶¸à¶ļà¶§
Ġà¶ĩà¶Ń à¶¸
199 4
Ġà¶ĩ à·ĥà¶ļ
Ġ1 19
à¶ħà¶Ł à·Ħà¶»
Ġà¶Ń à¶½à¶ºà¶ļ
Ġà¶ħà¶ºà¶ļ à¶»à¶±
Ġà¶¸à¶Ń à¶¯
5 7
à·ĥ à¶»à¶¸
Ġà¶ĳ à¶¸à¶§à¶º
Ġ199 3
Ġà¶´à·ħ à¶³
à¶ļà¶½ à¶¸
Ġà¶Ī à¶Ńà¶ļ
0 4
à·ĵ à·Ĵ
à¶´ à¶ļà¶»
à¶ļà¶½ à¶ļà¶§
à¶Ĵ à¶º
à¶ħ à·ĥà¶±
à¶ºà¶± à¶§
à¶»à¶ļà¶® à¶±à¶ºà¶§
Ġà¶¸ à¶»à¶´
à¶© à¶ľà¶±
Ġà¶ĳà¶½ à·Ģà¶½
à·Ħà¶»à¶« à¶ºà¶ļà¶§
Ġà·Ģà¶¯à¶± à¶ļ
Ġà¶¢ à·Ģà¶º
à¶ļà¶» à¶ºà¶±
Ġà¶ķà¶± à¶±
à¶ħ à·Ħà¶±
à¶¢à¶º à¶»à¶Ń
à¶»à¶ºà¶§ à¶Ń
Ġà·Ħà¶¬ à¶§
Ġ198 5
à¶º à¶»à¶º
à¶§ à·Ħà¶»
à¶ħ à·ĥà¶½
Ġà·Ģà·ĥà¶» à·Ģà¶½
Ġà¶±à¶§ à¶¹
à¶´ à¶¤
à¶ĩ à¶¹
Ġà·Ģà¶ł à¶±à¶ºà¶§
Ġà¶ĳà¶Ń à¶±à¶¸
Ġà¶¯à·Ħ à¶©
à¶½ à·Ģà¶½à¶¯
Ġà¶ħ à¶ļà¶§à¶º
Ġà¶ĭ à¶«à¶Ń
à¶ħ à¶ºà·Ħà¶´à¶Ń
Ġà¶ĩà¶ľ à·Ģ
6 7
à·ĥ à¶±à¶Ń
à¶ĳ à¶©
Ġà¶¶à¶½ à¶ĩà¶«
à¶· à·Ģà¶±
à¶Ń à¶¸à¶ļ
200 3
Ġà¶Ķà¶¶ à¶§à¶¸
à¶½ à¶¢
à·Ļ âĢįà·ĬâĢį
à¶ĭ à¶´à¶¯
à¶ĳ à¶¶à¶³
à¶ĭà¶¹ à¶Ń
8 3
Ġ201 00
Ġà¶¸à¶©à¶ļ à·ħà¶´
à·Ģà¶½à¶§ à¶¯
Ġà¶ĳà¶ļ à·Ģà¶Ń
Ġà·ĥà·Ħ à¶»
0 6
à¶ºà¶ļ à¶©
à¶Ĩ à¶°
à¶¶à¶½ à¶Ń
Ġ36 0
à¶³ à·Ģà¶¸
à¶ļà¶§ à·Ģà¶Ń
à¶Ńà¶» à·Ħ
à¶§à¶½ à¶ºà¶§
à¶ºà¶½ à¶ļ
à¶½ à¶¸à¶§
à¶ľ à¶½à¶ļ
Ġà¶ĭ à¶³
Ġà·Ģà¶½ à·Ģà¶½
à¶ī à·Ħà¶½
Ġà¶´à¶¸à¶« à¶§
à·Ħà¶» à¶±à¶ºà¶ļ
à¶¶à¶½ à¶ºà¶§
Ġà¶ħ à¶ļà¶»à¶Ń
Ġà¶ľ à¶ľà·Ħ
Ġà¶į à¶Ń
à¶¯à·Ħ à¶¸à¶§
Ġà¶± à·Ģà¶»à¶Ń
Ġà·ĥà¶¸ à¶§
Ġ198 4
à¶±à·ĥ à¶§
Ġà·Ħà¶Ńà¶» à¶§
Ġ198 2
à·Ģà¶ľ à¶ļ
à·Ħ à¶©à·Ģ
à¶° à¶¸à¶º
Ġà¶ĭ à¶»à¶ľ
Ġà·Ģà¶§ à·Ģ
5 1
Ġà·ĥ à¶ľà·Ģ
Ġ10 6
Ġà¶ħà¶§ à¶ļà¶§
à·ĥ à·Ħà¶Ń
à·Ļ à·Ļ
à¶»à¶¢ à¶ºà¶§
à·ħ à¶ľà¶§
Ġà¶ĭ à¶¯à¶»
Ġà¶´à·Ħà¶» à·Ģà¶½
à·ĥ à·Ģà·ĥ
à¶§ à¶ļà¶¸
Ġà·ĥ à¶ºà¶±
Ġ201 01
Ġ197 9
Ġà¶ºà¶±à·Ģ à¶§
Ġà¶±à¶© à¶º
à·ģ à¶±à·Ģà¶½à¶¯
Ġà·Ģà¶± à¶±
Ġà¶ħà·Ģà¶Ń à¶ļ
Ġà¶īà·Ħ à¶½à¶º
à¶° à·Ģà¶º
Ġà¶ļà¶» à·Ģà¶±à·Ģ
à·Ħà¶½ à¶ºà¶§
Ġà¶¶à¶© à·Ģ
à¶»à¶¶à¶½ à¶Ń
Ġà¶ħà·Ģ à¶¸à¶±
à¶»à¶· à·Ģà¶º
à¶Ńà¶»à¶ºà¶ļ à¶ľ
Ġà¶§ à·Ģà¶»
Ġà¶½ à¶§
à¶¸ à¶¬à¶½
Ġà·Ĩ à·ĥ
à·ħ à¶ºà¶±
à® ¿
Ġà¶ĳà·Ģ à¶´
Ġà¶ĭà¶´ à·ĥà¶¸
Ġà¶¢ à¶©
Ġà¶»à¶¢ à¶ļ
Ġà¶Ŀ à¶§
Ġ198 1
0000 0000
Ġà¶ļà¶½ à¶¸
à¶Ńà¶ºà¶§ à¶Ń
Ġà¶ħà¶¬ à¶±à·Ģ
Ġà¶» à·ĥà¶§
Ġà·Ħà¶Ń à¶ļà¶§
Ġà¶ĳà¶ļà¶ļ à¶¯
Ġà¶ħà·ĥ à·Ħà¶±à¶º
à¶ľà¶¸à¶± à¶ºà¶ļà¶§
à¶±à·Ģ à·Ģ
Ġà·Ĩ à¶ºà¶»
à¶ļ à¶ļà¶»à¶«à¶º
5 2
Ġà¶ľ à·Ħà¶º
Ġà¶»à¶§ à¶ļà¶¸
Ġà¶ķ à¶½à¶±
Ġ11 8
Ġ Ã
à¶½ à¶´à¶º
à¶Ńà¶» à¶ºà¶±
Ġà·Ħ à¶©à¶ļ
Ġà¶ĳà¶ļ à¶ļà¶¸
à¶± à¶»à¶ºà¶ļ
à¶¯à¶» à¶§à¶¸
à¶»à·Ħ à·Ģ
à·ĸ âĢį
à¶ļà¶» à¶±à¶ºà¶§
âĸ ł
Ġà¶¯ à·ħà¶¹
à¶© à·Ħ
à¶ļà¶¸ à¶½
Ġà¶ĭà¶´ à¶¯à·Ģ
Ġ17 0
Ġà¶´à·Ħ à¶º
à¶«à¶º à¶º
à¶ħà¶´ à¶±à¶ºà¶±
à¶Ńà¶¸ à¶±à¶º
à¶ħà¶±à·Ģ à·ģ
à¶© à¶¸à¶±
Ġà¶ĩ à¶±à¶½
Ġà·Ģ à¶ºà¶½
à·Ģà¶»à¶«à¶ºà¶ļ à¶¯
Ġà¶ļà¶´ à¶±à·Ģ
Ð º
Ð »
Ġà¶´à¶½ à·Ģà¶±
Ġà¶¶à¶½ à¶¸à¶«
Ġà¶¸à·ħ à·ĥ
à¶ľ à¶ľà¶Ń
à¶± à¶½à¶º
à¶Ńà¶» à¶Ł
à¶¸à¶Ń à¶ļà¶¯
Ġà¶ĩà¶ľ à¶§
Ġà¶Ĭà¶½à¶Ł à¶§
Ġà·Ģà·Ħ à¶ľà¶±
à¶½ à·Ģà¶¸
Ġà¶Ń à·Ģà¶»
Ġ10 7
à¶¸à·Ħ à¶¢à¶±à¶Ń
à¶»à·ħ à¶º
6 8
à¶ļ à¶´à¶Ń
à¶ļ à¶¸à¶ļà¶§
Ġà¶´à¶½ à¶½
Ġà¶Ĩà·ĥà¶± à¶ºà¶ļ
à¶ħ à¶»à¶ļ
à¶ħà¶± à¶±
à¶»à·ħ à¶¶à¶©
Ġà·Ģà¶© à¶¸
à¶ī à¶©
à¶½ à¶»à¶ºà¶ļ
à¶¯ à·Ģà¶Ń
Ġà¶ĩ à¶ºà¶Ń
Ġà¶Ĵ à·Ħ
Ġà¶ĭ à¶¢
Ġà¶ĭ à¶ºà¶½
à¶ĳà¶ļ à¶´
6 9
à¶® à¶Ń
à¶©à¶± à¶Łà¶±
à¶ĭ à¶¯à¶º
à¶¯ à·ħà¶¯
Ġà¶¶à¶½ à¶ºà¶±
Ġà¶īà¶©à¶ļ à¶©à¶¸
à¶±à·Ħ à·ħ
Ġ194 7
à¶½à¶ļ à¶ľ
Ġà¶ħà·ĥ à·Ħà¶±
Ġà¶· à¶¯
à¶Ľ à¶ºà¶ļ
à·ģà¶±à¶ºà¶ļ à¶§
à¶¸ à·Ģà¶º
à·ĥ à¶¯à¶±
19 60
194 8
Ġà·Ħ à¶ºà¶¯
à¶Ķ à¶ł
Ġà·ĥà¶´ à¶ºà¶±à·Ģ
Ġà¶ħà¶§ à·Ģà¶±
0 8
à·ģ à¶±à·Ģà¶½à¶§
Ġà¶¸à·Ħà¶»à·Ħ à¶Ńà¶±
à¶¸ à·ĥà¶¸
à·ħ à¶´à¶Ń
Ġà¶ļà·Ģà¶» à¶¯
à¶ł à·Ģ
à¶± à¶±à¶º
Ġà¶ī à¶½à¶±
Ġ10 4
à¶±à¶ľà¶Ń à·Ģ
à¶ħ à¶»à¶¸
à¶ºà·ĥà¶± à¶ºà¶ļ
à¶³ à¶Ń
Ġà·ĥà·Ħ à·ĥ
5 3
Ġà¶¯ à¶±à·Ģ
Ġà¶· à¶§à¶´
à·Ħà¶» à¶´
à¶Ńà¶± à¶ļ
à¶½ à¶»à¶ºà¶§
Ġà¶ĩà¶³ à¶´
197 8
à¶± à·ħ
Ġà¶´ à¶½à¶º
Ġà¶ħà¶» à·Ħ
à¶¸ à¶³
Ġà¶ľ à¶±à¶º
à¶»à·ĥ à¶½
à·Ĵ à·Ĭ
Ġà¶Ĵ à·ĥ
Ġà¶ĭ à·Ħ
à¶½à·Ģà¶ļ à·Ģ
Ġà¶ħà¶» à¶¶à¶º
Â ¼
Ġà¶ħà·Ģ à¶¢
à¶ī à¶§
à¶ł à¶»à¶ļ
Ġà¶ĳà¶´ à¶¸à¶«
à¶»à¶¯ à¶º
à¶ĭ à¶¶à¶½
Ġà¶¢à¶±à¶ľ à·Ħà¶±
Ù Ħ
à¶ļà¶¸ à¶¯
Ġà·ĥà¶³ à¶ļ
Ġà¶¯à¶« à·Ħ
à¶»à¶ļà¶Ńà¶± à¶ºà¶ļ
à¶¢ à¶·
à¶±à¶ļ à·Ģà¶Ń
à¶»à·ĥ à·Ģ
Ġà¶»à¶§ à¶§à¶Ń
Ġà·ĥà¶½à¶ļ à¶½
à¶¯ à¶»à¶ļà¶§
Ġ12 8
Ġ36 5
Ġ11 2
Ġà¶¸ à¶ļà¶±
Ġà¶ĳà¶ļ à¶½à·ĥ
à¶ºà¶± à¶ºà¶ļà¶§
Ġà¶Ĵ à·Ĥ
à·ĥà¶¸ à¶ľ
à¶½à·Ģ à¶ºà¶§
à¶½ à¶ľà¶¸
à¶© à¶Ńà¶½
à¶ľ à·ĥà¶±
à¶ľà·Ħ à¶±à·Ģ
à·ģ à·Ģà¶½à¶¯
à·ģ à¶±à·Ģ
à¶ĩ à·Ģà¶±
197 1
à¶´ à¶«à¶ºà¶ļ
à¶´ à·Ħà¶»
Ġà¶ļà¶» à¶¯à¶»à¶º
à¶ºà¶ļ à¶»à¶±
Ġà·Ħ à¶ºà·Ģ
à¶¯ à·Ģà¶¸
à¶ļ à¶·
à·ĥ à·Ģà¶½à¶§
à¶ļà¶» à¶§
à¶ħ à¶ºà¶¯
Ġà¶ħà¶º à¶¸
Ġà¶ļà¶½ à¶»
Ġà¶¸à¶Ń à¶ºà¶±
Ġà¶ħ à·ĥà¶»
Ġ8 000
à·Ģà¶» à¶¯à·Ģ
à¶± à·ģ
Ġ197 6
Ġà¶¯ à¶Łà¶ļ
Ġ00 00
à¶° à·ģ
Ġà¶ļà¶§ à·Ħà¶©
Ġ17 5
6 1
à¶° à¶»à¶º
à¶Ĵ à¶¸
à¶µ à¶½à¶¯
Ġà¶»à¶¢ à·Ģ
Ġà¶ºà¶±à·Ģ à¶±à¶¸
Ġà¶´à·Ħà¶± à¶ļ
Ġà¶Ń à¶º
6 4
Ġà¶° à¶±à·ĥ
Ġà¶µ à¶½à¶ºà¶ļ
198 3
à¶»à¶ļ à¶©
à¶ļà¶ļà¶§ à¶º
Ġ Ø§
à¶ļà¶» à¶ºà¶§
Ġ Ø
Ġà¶ī à¶»à¶ļ
à¶»à¶¢ à¶»à¶§
à¶¶ à¶ļà¶»
Ġà¶¢à¶±à¶¸ à¶Ńà¶º
à¶ľ à¶´à¶±
Ġà¶Ń à¶½à¶ºà¶§
à·Ģà¶± à¶¢
à¶ºà¶¸ à·Ģ
à¶½à¶§ à¶º
Ġà¶º à·Ģà¶´
Ġà¶ķ à·Ģà¶»à¶º
Ġà¶ļ à·Ģà¶»à¶º
Ġà¶ħà¶Ń à¶±
à¶ĭ à¶¯à·Ģ
Ġà¶ħà¶¸à¶Ń à¶ļà¶º
Ġà¶»à¶Ł à¶±
7 9
Ġà¶±à¶§ à¶±à·Ģ
Ġà¶ļà¶»à¶± à¶½à¶¯
à¶ļà·ħ à¶Ń
Ġ10 3
Ġà¶¸à¶» à¶±à·Ģ
Ġà¶¢à¶½ à·ĥà¶¸
à¶ľà·Ħ à¶ľ
à·Ģ à¶³à¶ļ
à¶½ à¶ļà¶¸
à·Ħ à¶Ł
à¶© à·Ģà¶Ń
Ġà¶¸à¶Ł à¶ļ
Ġ10 8
Ġà¶¸ à·ħà·Ģ
à¶ľ à¶¢
Ġà¶ĳà¶±à·Ģ à¶±
Ġà¶º à·Ħà¶½
à¶ºà¶½ à¶ľ
à¶ºà·Ģ à¶©à¶±
à¶± à¶»à¶ļ
à·ĥ à¶ľà¶¸
à¶½ à·Ģà¶§
Ġà¶ħà¶½ à·Ģà¶±
Ġà¶ķ à¶±à¶º
Ġà¶ħà¶ºà¶§ à¶º
à¶¶ à·Ģà¶ļ
à¶»à¶« à¶¯
Ġ11 7
à¶ĳ à¶ºà¶¯
Ġà¶¸à·ħ à¶½
Ġà¶ħà¶¸ à¶»à¶´
à¶¸à¶½ à¶ľ
Ġà¶Ĩà·Ģ à·Ħà¶¸
à·Ģ à·ģà¶º
à¶¯à¶ºà¶ļ à¶¯
à¶±à¶Ń à¶ļ
à¶»à¶§ à¶¯
à·ħà¶³ à¶´à¶½
à¶½à¶ļ à¶½
Ġà¶ļà¶© à¶´
à¶¸ à¶½à·Ģ
Ġ19 30
Ġà¶ľà¶Ń à¶ļà·ħ
à¶¯ à¶±à·Ģà¶½
Ġà¶ĩ à¶±à·Ģ
Ġà·ĥà¶¸ à¶ł
Ġà·ĥà¶¸ à¶»à¶¸
à¶Ńà·Ħ à¶±à¶¸
Ġà¶ĭ à¶¸à¶ľ
à¶¶à¶¯ à·Ģà¶º
Ġà¶ħà¶ľ à¶ºà¶¸
0 9
Ġà¶Ķà¶¶ à¶º
Ġà¶¶à¶½ à·ĥà¶¸
Ġà¶¯à·Ħà·ĥ à¶º
6 2
Ġà¶¸à¶¸ à¶¸
à¶ħà¶¯ à¶§
à¶ł à¶ļà¶ºà¶±
à¶Ĩ à¶´à·ĥ
Ġà¶Ńà¶»à¶Ł à¶ļà¶»
Ġà¶Ĩ à¶Ľ
à¶Ĵ à·Ģà¶§
à¶Ĩ à¶±à¶ºà¶±
à¶»à¶ºà¶ļ à¶¯
à·ħà¶Ł à¶¯
à¶ĭ à¶¶à¶§
à¶Ŀ à·Ģ
Ġà¶ĭ à·Ģà¶Ń
à·ħà¶¹ à·Ģà¶±
à¶¸ à·Ģà¶½à¶§
à¶¸ à¶¤
Ġà¶»à·Ģà¶§ à¶±
Ġà¶īà¶½ à·Ģ
Ġ197 5
Ġ13 5
à¶ľà¶¸à¶± à¶ļ
Ġà¶Ĵ à¶¶
Ġà¶Ń à¶½à¶±
à·Ģà¶» à¶°
à¶»à¶¸ à·ģ
Ġ12 3
à¶§ à¶±à·Ģ
Ġà·Ħà¶» à·Ģà¶½
Ġà¶ĳà·ħ à·Ģà¶±
Ġà¶º à·Ħà¶Ń
à¶°à¶± à¶´à¶Ń
Ġà·Ģ à¶³à·Ģ
Ġ11 1
à¶° à¶ľà¶º
à¶¸ à¶»à¶Ńà¶±
Ġà¶¸à¶§ à¶¯
à·ĥà¶§ à¶¯
à¶¯ à·Ģà¶º
Ġà¶ħ à¶»à¶º
Ġà¶ļà¶½à¶¶ à¶½à¶ļ
5 4
Ġà¶½ à¶ľà¶¸
Ġ10 2
à¶´ à·Ģà¶½à¶§
Ġà¶ĩ à¶©à¶¸
Ġà¶±à·Ģà¶ļ à¶®
198 7
à¶° à¶ļà¶ºà¶±
à¶½à¶± à¶ºà¶±
â ģ£
Ġà¶Ĵà¶ļ à¶´
à·ĥ à¶¸à¶Ń
à¶½à¶º à¶¯
à¶Ńà¶¸ à¶ºà¶±
Ġà¶Ĩ à¶Ŀ
Ġà¶ºà¶±à·Ģ à¶½
Ġà¶į à¶«
à¶ħ à¶»à¶½
9 8
à¶§ à¶ľà¶¸
Ġà·Ħ à·ĥà¶»
à¶ľà¶¸ à¶¯
Ġà·ĥà¶¸à¶ľ à¶¯
à¶Ĩà¶º à¶Ńà¶±
Ġà¶ħà·ĥà¶»à¶« à·Ģ
à¶¹ à¶»
à¶®à¶ļ à¶®
Ġà¶Ńà¶» à¶±
à¶Ľ à¶»
Ġ12 2
Ġà¶ļà¶½à¶¶ à¶½à¶ºà¶ļ
Ġà·Ģ à¶¸à¶±
à¶´ à¶»à·Ģ
Ġà¶ĩà¶§ à¶ºà¶ļ
à¶¸ à¶½à¶§
à·ĥà¶» à¶½à·Ģ
à¶¶ à·Ģà¶§
Ġà¶ħà¶ľ à·Ħà¶»
à¶¸ à¶½à¶ļ
à¶»à¶ļ à¶¸à¶§
à¶¯à¶» à¶ľ
à¶¸ à·Ħà¶¸
198 9
à¶§à¶»à¶§ à·Ģà¶½
Ġà·Ģ à·ħà¶³
à·ĥà¶» à¶§
Ġà¶ľà¶¸à¶± à¶ļà¶§
Ġà¶¸ à¶ļà¶½
à¶Ł à¶ºà¶§
Ġà¶Ńà¶»à¶ľ à·Ģà¶½
â Ĺ
Ġà¶ļ à¶¶à¶©
à¶Ķ à¶ºà¶ľ
Ġà¶ħà·ĥ à·Ħ
à¶° à¶ľ
Ġà·ĥà·Ħ à¶¶
à¶¸à¶ļà¶§ à¶¯
Ġà¶ļ à·Ģà¶º
à·ĺ à¶Ĥ
Ġà¶ĭà¶© à¶¸
Ġà¶»à¶ł à¶ļ
à¶»à¶« à·ģ
Ġ7 000
Ġà¶Ĵ à¶½
à¶ħ à·Ħà¶¸
Ġà¶ĳà¶ļ à¶ľà¶º
à·ĥà¶³ à¶»
7 2
à·Ħ à¶»à¶«à¶ºà¶§
Ġà·Ģ à¶»à¶ļà¶§
à¶º à¶»à¶§
à¶ºà¶± à¶±
à¶ī à¶³à¶½
à¶»à¶¸ à·Ħ
à·ĥà¶º à¶ľ
Ġà¶ĳà¶ļà¶ļà¶§ à¶¸
ðŁĳĮðŁĳĮðŁĳĮðŁĳĮðŁĳĮðŁĳĮðŁĳĮðŁĳĮ ðŁĳĮðŁĳĮðŁĳĮðŁĳĮðŁĳĮðŁĳĮðŁĳĮðŁĳĮ
à¶ľ à·Ħà¶ļ
Ġà¶¶à¶½ à¶Ń
Ġà¶» à·Ĥ
Ġ2 20
à·Ģà¶¸ à¶¯
à¶ĭ à¶´à¶»
à·ģà·Ģ à¶ļà¶»
Ġï ĳ
à·Ĳ à·Ļ
à¶Ŀ à¶§à¶ļ
Ġ03 0
Ġà¶ħà¶¹ à¶»
à·Ĵ à·ĵ
Ġà¶Ń à·Ģà¶ļ
à¶´à¶º à¶»
Ġà¶Ńà¶»à¶ľ à¶ºà¶ļà¶§
à¶ĳ à¶Ńà¶»à¶¸
à¶ħà¶¸ à¶»à¶Ń
à¶± à¶½à·Ģ
199 8
à¶¹ à¶ºà¶ļ
à¶Ĩà¶¯à¶» à¶«
à¶ļà¶»à¶« à¶ºà¶ļà¶§
Ġà·Ģ à¶°à¶ļ
Ġà¶ħà¶· à¶ºà¶ľ
Ġà¶ĩà¶´ à¶ļà¶»
Ġà¶¸à¶»à¶«à¶º à¶Ń
à¶½à·Ģà¶º à·ĥ
à¶»à¶¶à¶½ à¶¸
à·Ģ à¶¸à¶Ń
Ġà¶¶ à¶§à¶±
Ġà¶ļà¶« à¶§
Ġïĳ ¤
à·ĥà¶¸ à¶Ł
à¶ł à¶ºà¶±
à¶´ à¶ļà¶»à¶«à¶º
Ġ20 25
âĢ Ľ
Ġà¶ĳ à¶½à¶ļ
à¶® à¶ļà¶¸
à¶ħ à¶ľà·Ģ
à·ģà¶ļ à·Ģà¶»
à¶ºà¶ļ à¶§à¶Ń
Ġà¶ķ à·Ģà¶½
Ġà¶ķ à¶ļà¶º
Ġà¶Ķ à¶ºà¶§
à¶¸ à·Ģà¶»
à¶« à¶ļà¶»à¶«à¶º
à·ĥà¶ļ à¶ºà¶±
Ġà¶ļà¶© à¶¸
Ġà¶¶ à¶Ńà¶½
Ġà¶ī à·Ģà¶ļ
à¶»à¶¸ à¶«à¶ºà¶ļ
Ġà¶¯à¶¸ à¶±à¶º
à·ħ à·Ģà¶§
Ġà¶¢à¶± à¶ľà¶Ń
à¶ľà¶½ à¶¸
Ġà¶½ à·Ģà¶«
Ġà¶ĭ à¶´à¶Ńà¶ļ
à¶Ķ à·Ĩ
Ġà·ĥà¶¸à¶® à¶ºà¶ļà¶§
à¶¶ à·Ģà¶Ń
à¶Ĵà¶ļà¶§ à¶Ń
à·Ħà¶¬ à¶Ń
Ġà¶¢à¶± à·ĥà¶Ń
Ġà¶ĭ à¶»à¶«
à¶ľà¶± à¶±
Ġà¶ħà¶ľ à¶·
Ġà¶© à¶ºà¶±
Ġà¶Į à¶±à¶Ń
à·Ħ à¶¸à¶º
Ġà·ĥ à¶¯à¶»
à¶ºà¶ļ à¶½
à¶ļà¶½ à¶±à¶º
à¶° à¶ºà¶º
Ġà¶ķ à¶±à·Ģà¶§
7 3
Ġà¶Ĩà¶±à¶ºà¶± à¶ļà¶»
Ġà·Ģ à¶ľà¶Ń
Ġ13 8
à¶¸à·Ħ à¶¶
199 6
à·ĺ à·ĺ
à¶³ à·ĥ
à¶¸à¶Ń à¶ºà¶±
à¶¡ à¶Ń
Ġà·Ģà·Ħ à¶½à¶ļ
à·ĥà¶¸à¶± à¶½
Ġà·Ģ à·Ħà¶»
Ġà¶» à¶ºà¶±
Ġà¶ĳà¶»à¶§ à¶§
à¶¶ à¶»à¶¸
5 00
à¶½à¶ļ à·ĥ
Ġà¶Į à¶Ń
à·ĥà¶»à¶¯ à¶ºà¶ļ
à·ħ à¶¶
à¶±à·Ģ à¶Ńà¶¸
à¶Ńà¶ļ à¶ºà¶ļ
Ġà¶ļ à·ģ
à¶ĭ à¶»
à¶¯à¶ļ à¶ºà¶ļ
à¶¨ à·Ģ
9 4
Ġà¶¯ à¶ľà¶½à¶±
à·Ĥà¶º à¶ºà¶ļ
à¶§à¶» à¶ºà¶§
Ġà¶´ à·Ģà¶ļ
Ġà¶ļà·ħ à·Ģ
Ġà·ĥà¶Ń à¶ºà¶ļ
Ġà¶© à¶±
Ġà¶±à¶»à¶¹ à¶¸
Ġà·Ħ à¶ºà¶§
Ġà·ĥ à¶ļà¶»
à·Ģ à¶«à¶ļ
à·ĥà¶± à¶ºà¶ļ
Ġà¶±à·Ģà¶Ń à¶±
Ġà¶ī à¶º
à¶»à·ħ à¶±
Ġà¶ļà·Ģà¶¯ à¶¯
Ġà¶¯à¶¸ à¶ºà¶±
Ġà¶¢à¶±à·Ģ à¶»à¶¸
à·Ħ à¶±à·Ģà¶½à¶§
Ġà·Ħ à¶Ńà¶º
à¶° à¶ºà¶Ń
Ġà¶ħà·Ģ à·ģà¶º
à¶±à¶ļ à¶¸à¶ļ
à·ĥà¶³ à¶ľà¶±
à¶´ à¶½à¶Ń
à¶±à·Ģ à¶ļà¶Ń
à¶ħ à·Ģà¶§
à·Ģà¶§ à·Ģà¶Ń
à¶ľà¶± à¶ļà¶º
Ġà¶ĭà¶¹ à¶ľ
Ġà¶ľ à·Ħà¶¸
à¶»à¶« à·Ģà¶½à¶§
à¶ºà¶ºà¶± à¶ºà¶±
Ġà·Ģà¶½ à¶§à¶¸
à·ĥ à¶Ńà¶»
à¶ľà¶Ń à¶´
Ġà¶ļà¶½à¶¶à¶½ à¶ºà¶§
à¶ľ à¶¶
à¶¯ à¶»à¶ļà¶¸
à¶ħà¶¸ à¶»à¶¯
à¶´à¶ºà¶ļ à¶§à¶¸
199 9
Ġà¶ħ à¶§à·ĥ
Ġà¶ĩ à¶§à·Ģ
à·ĥ à¶¸à¶»
à¶§ à¶ļà¶Ń
Ġà¶ħ à·ĥà¶º
Ġà¶¶ à¶»à¶§
Ġà¶ħà¶Ń à¶§à¶¸
Ġà¶ķ à¶©
à¶»à·ĥ à¶ºà¶§
à¶Ĩ à¶¸
Ġà¶¸à·Ħ à¶¸à¶ľ
Ġà¶¶à¶½ à¶½à¶¸
à¶¸à¶Ń à¶ļà¶º
à¶¶à¶± à¶±à¶º
Ġà¶»à·ĥ à¶¯
à¶ļà¶© à¶º
à¶§ à¶¶
Ġ6 50
à¶ļ à¶½à¶±
à¶§ à·ĥà¶º
Ġà¶°à¶± à¶´
Ġà¶ļà¶»à¶¯ à¶»à¶ļ
à¯ ģ
à¶Ńà¶¥ à¶Ń
Ġ Î
à·Ħ à¶«à¶º
à·Ĥ à¶·
à¶¢ à·Ģà¶½
à¶Ĭ à·ĥ
à¶Ľ à¶±à¶ľà¶Ń
Ġà·ħà¶¸à¶º à¶ľ
à¶º à¶¹
Ġà¶ļ à¶Ńà¶»
Ġà·Ģà¶» à¶ºà¶ļ
Ġà¶ħà¶© à·ĥ
à¶¢ à·ģ
Ġà¶Ĭ à¶½à¶¸
à¶¯à¶½ à¶¸
Ġà¶ĭà¶© à·Ģà¶½à·Ģ
à·ĥà¶»à¶¯ à¶º
Ġà¶¢à¶±à¶ľ à·Ħà¶±à¶ºà¶ļ
à® ķ
Ġà¶ħà·ĥà¶½ à¶¸
à·Ģ à·Ħà¶Ń
à¶´ à¶®à¶º
à¶° à¶±à¶§
à¶ļ à·Ģà¶½à¶Ń
Ġà¶» à·Ħà¶º
à¶¶à¶» à¶´à¶Ńà¶½
Ø ±
Ġà·ĥ à¶±à·ĥ
à¶ľ à¶»à¶ºà¶ļ
Ġ196 5
à¶¢à¶± à¶ļà¶º
Ġà¶ļà¶« à¶´
à¶¶à¶½ à¶´à¶Ń
195 6
à¶§ à¶ļà¶§
à¶¶ à¶±à¶¸
à¶»à¶¸ à¶ºà¶Ń
Ġà¶½à¶¶ à¶¯
Ġà¶¸à¶ľ à·Ħà¶»
Ġ20 30
à·Ģà¶ºà¶§ à¶Ń
Ġà·Ģà¶± à·ĥà¶±
Ġà¶´à¶½ à¶ļà¶»
Ġà¶ĭà¶© à¶ľ
Ġà¶ħà¶³ à·Ħà·ĥ
à¶½à¶± à¶¥à¶ºà¶ļ
à¶Ľ à¶«à¶º
à¶»à¶´ à¶»
Ġà·Ħ à¶ºà·ĥ
Ġà¶» à¶¶
à·ħà¶³ à¶ľ
Ġà¶¶ à·Ħà¶»
Ġ15 5
à¶Ńà¶» à¶Łà¶º
Ġà¶ī à¶»à¶§
Ġà¶ħà·Ħà¶± à¶ļ
Ġà¶Į à¶»à¶±
Ġà¶´à·Ħà·ħ à·Ģ
à¶§ à¶ľà¶±à¶º
Ġà¶ĭ à¶§
Ġà¶Ĭ à·ħà¶¸
Ġà¶¢ à¶Ń
Ġà¶ħà¶¯ à¶ļ
Ġà¶Ńà¶»à¶ľ à·Ģà¶½à¶¯
Ġà¶ĩà¶³ à¶ļ
à·Ħà¶¸ à¶©
Ġà¶ħà¶Ńà¶»à¶¸ à¶Ł
à·Ģ à¶ł
Ġà¶± à·Ģà¶ļà¶º
à·Ħ à¶¸à¶±
Ġà¶ļ à¶¸à¶º
à¶±à·Ģ à¶ºà¶±
à¶ł à¶½à¶±à¶º
Ġà¶© à¶»
Ġà¶ļà·Ħ à·Ģà¶Ń
à·Ĥ à¶¸à¶±
Ġà¶Ĭ à¶¶
à¶»à¶¸ à¶ľ
Ġà¶Ĭ à¶ºà¶¸
Ġà¶´à¶½ à¶´
Ġà¶ĳà¶ļ à¶¸à¶º
Ġà¶ļà¶½ à¶¶à¶½à¶º
Ġà¶Ĩà¶ľ à¶¸à¶ļà¶§
à¶¶ à·Ģà¶º
à¶°à¶±à¶º à¶Ń
à¶ľ à¶±à·Ģ
à¶±à¶¸ à¶Ń
à¶ļ à¶®à¶±à¶º
Ġà¶ľ à¶Łà¶ļ
Ġà¶ĳ à¶»à¶±
à·Ĥà¶«à¶º à¶Ń
ĠâĢį âĢįâĢį
Ġà¶ļà¶® à¶±à¶º
à¶¯à¶º à¶¯
à¶¢à¶º à·Ģ
à·ĥ à·Ħà¶½
à¶¸à¶Ń à·Ģ
à·Ģ à¶łà¶±à¶ºà¶ļ
Ġà¶ħ à¶¹à¶±
Ġ196 8
Ġà·ĥà¶» à¶½à¶º
Ġà¶ľà·Ħ à¶±à¶º
Ġà¶Ĩ à·Ģà¶±
à¶¸à¶Ń à¶ºà¶ļ
Ġ25 000
Ġà¶ļà¶½ à¶¸à¶«
à¶ºà·Ģà·ĥ à¶§
à¶® à¶ľ
Ġà¶ĭà¶´ à¶ļà¶»à¶±
Ġ19 17
Ġà·Ģà¶»à¶¯ à¶ļà¶§
à·Ħà¶¯ à·ģ
à·Ħ à¶ºà¶ļà¶§
à¶ľ à¶ºà¶¸
Ġà¶ļà¶§ à¶ĭà¶Ń
Ġà¶´à¶Ń à¶§
Ġà¶ħà¶» à¶ľà¶½à¶ºà¶±
à¶ĭà¶¹ à¶½à¶§
ï ¼
à¶º à¶ĩà¶½
à·ĥ à·Ĩ
à·ĥ à¶¥à¶º
Ġà·ĥà¶¸ à¶ºà¶§
à¶Ĵà¶ļ à¶±à¶¸
à ¥
à¶· à¶Ń
à¶Ĵ à·Ħ
Ġà¶ĩà¶³ à¶ľà¶Ń
à¶½à¶ºà¶§ à¶¸
à¶»à¶¶à¶½ à¶Ńà¶¸
à¶ļà¶» à¶±à¶ºà¶ļ
Ġà·ĥà·Ħ à¶±à¶¯
à¶»à¶«à¶º à¶º
à¶»à¶¶à¶½ à¶ºà¶±
Ġà¶¶à¶½ à¶ļà¶»à¶¸
ä ¸
à¶½à¶ļ à¶¯
Ġà·ĥ à·ħà·ĥ
à¶ºà¶Ń à¶§
à¶Ľ à¶ºà¶§
à·Ģà¶± à¶ºà¶ļ
Ġà¶īà¶³ à¶ľà¶±
à¶¯ à¶¬
à¶ºà¶¯ à¶¸à¶§
à¶» à·Ĥà¶»
à¶ļ à·Ĥ
à¶¸à¶± à¶¯
Ġ10 9
Ġ24 0
à·Ħà¶¬ à¶º
Ġà·ģ à¶¸
à¶» à¶±à¶ºà¶§
à¶ľà·Ħ à¶´
Ġà¶¸ à¶¢
à¶»à¶¸ à·Ģà¶½
à¶Ńà¶¸ à¶½
à¶ļà¶¸à¶§ à·Ģà¶Ń
à¶º à¶»à¶ļ
Ġà¶· à·Ģà¶Ń
Ġà¶īà¶³ à¶´
Ġ196 4
Ñ ĥ
Ġà¶¸à¶ľ à·Ħà¶»à·Ģ
Ġà¶¯à·Ħ à¶ºà¶§
199 1
Ġà·ĥ à¶°
Ġ18 00
Ġà·ĥà¶¸à¶± à·ħ
à¶ļà¶½ à¶¶à¶½
Ġà¶ļ à¶łà¶½
Ġà¶´à¶± à·Ħà¶ļà¶§
à·ģ à¶·
Ġà¶¢ à·Ģà¶ºà¶ļ
Ġ11 6
à® ¤
Ġà¶ĩà¶« à·Ħ
Ġà¶ķ à¶ļà¶¸
à·ĥ à·ħà¶ļ
Ġà¶± à¶¢
Ġà¶ĳ à¶¸à¶§
à¶»à·Ģ à¶ľ
Ġà¶ĳà·ħ à¶¯
à¶° à¶»à¶ºà¶±
à·ģà¶º à¶¯
à¶ļà·ĥ à·ħ
Ġà·Ģà¶± à¶¸
à·ĵ à¶Ĥ
Ġà¶¶ à·ĥà¶§
à·ģ à¶§
Ġà·Ģà¶½ à¶¸
à·Ķ à·Ļ
Ġà·ĥà¶¸ à¶ľà¶Ń
à¶ħ à¶ľà¶±
à¶ĩ à¶ļ
à·ħà¶Ł à¶ļ
à¶© à¶©
à¶ĭ à¶ºà¶±
à¶³ à·ĥà¶½
Ġà¶ľà·Ħ à¶¯
Ġà·ĥà¶¸ à¶»à¶Ń
à¶Ńà¶» à·Ģà¶»
Ġà¶ħà·Ģ à¶¥
à¶»à¶«à¶º à¶Ń
à¶Ĭ à·ħà¶ľà¶§
Ġ18 15
à·ĥà·ĥ à¶´
Ġà¶ĩ à¶´à¶ºà¶ļ
Ġà¶´à·Ħ à¶Ńà¶»à¶§
à¶´à¶½ à·Ģà¶½
à·ħà¶¯ à·ĥ
à¶ļ à¶ļà¶»à¶±
Ġà·Ħ à¶Ńà¶»à¶º
à¶¢ à·ĥà¶±
à¶ħ à·ĥà¶»à¶«
à¶ľà¶½ à¶¯
Ġà¶ºà·Ħà¶¸ à¶Ł
à¶½ à¶Ńà¶±
Ġà¶» à¶³à·Ģà¶±
Ġà¶ķ à¶»
à¶ħ à·Ģà¶¯
198 8
à·ĥà¶½ à¶»
à·Ģà¶« à¶§
à·Ģ à¶«à¶º
Ġà¶ºà·Ħà¶´à¶Ń à¶§
Ġà¶ļ à·Ĩ
à¶Ķ à·ħ
à¶Ńà¶± à¶ºà¶ļà¶§
Ġ197 4
Ġ194 5
Ġà¶ļà¶»à¶± à¶±
Ġ12 1
à¶º à¶¢
Ġà¶ħ à¶§à¶¯
Ġà¶ľà¶Ń à¶ļà¶½
à¶ī à¶´à¶¯
à¶ľà¶¸à¶± à¶ºà¶ļ
Ġà·ħà¶ľ à¶¯
7 4
Ġà¶¯ à·ħà¶³
Ġà¶¢ à¶ºà¶»
Ġà¶ħà¶± à¶¸
8 6
Ġà¶ĩ à¶§à¶º
Ġà¶ļà·ħ à¶ľ
à·ģà¶º à¶¸
à¶§ à¶ľà¶»
Ġà¶ļà¶»à¶½ à¶¯
Ġà¶ļà¶© à¶±à·Ģ
Ġà¶Ŀ à¶±à¶ļà¶¸
Ġà¶¯à¶© à¶¶
Ġà¶¸à·Ħ à¶ľà¶¸
Ġà¶ĩà¶± à·Ħ
Ġà¶ĭ à¶·à¶º
Ġà¶»à¶ł à¶ļà¶ºà¶±
Ġà·ĥ à¶µà¶½
à¶¢à¶ļ à·Ģà¶»à¶º
à¶« à·Ħà¶¸
à¶©à¶± à¶ľà¶¸
à¶¯à·Ģ à¶±à·Ģ
Ġ196 9
Ġ á
Ġà·Ħ à¶ºà¶»
Ġà¶ĭ à·Ģ
à¶Ĵ à·Ĥ
à¶ħ à¶ł
9 5
à·Ģà¶Ń à¶ļà¶§
Ġ200 00
à¶Ĭà¶½à¶ľ à¶§
à¶ į
à¶± à¶ľà¶¸
Ġà¶ļ à¶¶à¶»
à·Ģà¶½ à¶ļà¶¸
à·Ģà¶º à·ĥà¶§
à¶ĩ à¶»à¶½
Ġà¶ħà·ĥ à¶¶à¶©
Ġ15 4
à¶½ à¶Ńà¶½
à·Ĥ à¶ļà¶¸
à·Ģà¶½ à¶ľ
Ġà¶Ĩà¶« à¶¸à¶©
à·Ĥà¶«à¶º à¶º
Ġà¶ļà¶® à¶±
Ġà¶ĭ à¶»à¶¯
Ġà¶ĭà¶¹ à¶§à¶Ń
Ġà·ħ à¶¸à¶ºà¶ļ
à¶Ŀ à¶«
Ġà¶ļà¶´ à¶´
à¶ĳ à·Ģà¶ļ
à¶»à¶ļ à¶Ńà¶±à¶ºà¶§
Ġà¶ħà¶Ń à¶´
à¶½ à¶¸à¶±
Ġà¶ļ à·Ģà¶»à¶ºà¶ļ
Ġà¶ħà¶½ à¶½
Ġà¶ħà·Ģà¶½ à·ĥ
Ġ Ä
à¶ľà¶ºà¶ļ à¶¯
à¶´à¶¸à¶« à¶¯
Ġà¶¯ à¶¶à¶»
à¶Ķ à¶´
9 7
à·Ģà¶» à¶·
à¶Ł à¶ļà¶¸
à¶§ à¶ļà¶¯
Ġ15 000
Ġà¶ħà¶¯à·Ħà·ĥ à¶Ń
Ġà¶´à¶« à¶´
à¶ºà¶½ à¶±à¶¸
Ġà¶ħà¶Ń à¶¯
Ġà¶¢à¶± à·ĥ
Ġà¶Ĭ à¶Ńà¶½
à·Ħ à¶Ńà¶»à¶ļ
à·Ĥ à¶»à¶º
Ġà·Ħà¶» à·ĥà¶»
Ġà¶Ķà¶¶ à·Ģà·Ħà¶±
à·Ĥà¶º à¶·
à¶Į à¶»
à¶ļ à·ĥà¶½
Ġà¶ľ à¶¢à¶¸
Ġà·ĥà·Ħ à¶ºà¶§
à¶½ à¶Ŀ
à¶»à¶¯ à¶©
à·Ĥà¶«à¶ºà¶ļ à¶¯
à¶ħ à¶¸à¶»
à¶» à¶¶à¶»
Ġà¶ĩ à¶ºà¶º
à¶Ķ à¶Ń
Ġà¶Ĩ à¶ļà¶»à¶º
Ġà¶ħà¶Ł à·Ģà¶º
Ġà¶¡ à¶º
Ġà¶ħà¶¯ à¶¯
Ġà¶Į à¶±
Ġà¶Ń à¶ļà¶Ń
à¶¸à¶º à¶¯
à¶Ń à¶ľà¶±
Ġà¶ļà¶» à¶ł
Ġà¶Ń à¶½à¶ľ
à¶Ń à·ħ
Ġà¶ļ à¶¸à¶±
à¶ºà¶± à¶ºà¶±
Ġà¶´à·Ħ à¶»à¶§
Ġà¶»à¶§à·Ģà¶½ à¶¯
à¶Ŀ à¶»
Ġà¶ħà¶Ł à·Ģà¶±
Ġ197 3
à·ħ à¶ļà¶±
Ġà¶ħà¶Ń à·ħ
Ġà¶ħà¶¸ à¶»à¶ļ
Ġà¶Ĭ à·Ģ
8 7
à¶ºà¶¸ à¶¯
à¶ĭà¶¹ à¶½à¶ľ
à¶¯à·Ħ à·Ģà¶½
à¶´à¶± à¶ºà¶±
Ġà·Ħà¶¶ à¶»à¶«
Ġà¶Ĵ à¶Ńà¶»à¶¸
Ġà¶ħà¶½ à·Ģà¶Ń
à¶»à·Ħ à¶«à¶ºà¶±
Ġ196 7
Ġà¶ĩ à¶§à·ĥ
à¶¸ à¶¶à¶«
197 2
à¶ľ à¶»à¶Ń
Ġà¶± à¶¸à¶±
à¶ºà¶ļ à¶±
à·Ĥ à·Ģà¶»à¶ºà¶ļ
Ġà¶īà¶¯ à¶´
à¶½à¶±à¶º à¶Ń
à¶½à¶¹ à·Ģ
à¶§ à¶ºà¶§
Ġà¶ĩ à¶»à¶´
Ġà¶ĭà¶© à¶´à¶±
à·Ĭ à¶Ĥ
à¶Ľ à¶¸
Ġà¶ļà¶»à¶±à·Ģ à¶½
à¶¯ à¶§à¶Ń
à¶´ à·Ģà¶»à¶ļ
à¶±à·Ģ à¶»
à·Ģà¶ļà¶§ à¶¯
à·Ģà¶½à¶§ à¶º
à¶»à¶ľ à¶¸à¶±
Ġ35 00
Ġà·Ħ à¶ºà·Ģà¶±
Ġà¶ī à¶ºà¶»
à¶»à¶ļà¶§ à·Ģ
à¶»à¶¶à¶½ à·Ģ
à¶º à¶´à¶½
à¶¶ à¶»à¶ļ
Ġà·Ģ à¶»à¶¸à¶ļ
à¶ľ à¶¸à¶Ń
à¶ī à·Ģà¶Ń
à¶ĭ à¶´à¶ļ
à¶ħ à·Ģà¶±
Ù Ĩ
à¶ºà¶º à¶¯
à¶Ľ à¶±à¶ºà¶§
Ġ194 0
9 2
Ġà¶¶ à¶»à¶º
à¶´à¶Ń à¶¸à¶º
à¶Ĵ à·Ģà¶º
Ġà¶± à¶¸à¶ļà¶§
à¶© à¶±à¶ºà¶ļà¶§
à·Ģà¶ļ à¶ł
Ġà¶±à¶»à¶ļ à¶ļ
à¶Ń à¶ļà¶»à¶«
âĢį à·Ļà·Ĭ
Ġà¶Ńà¶» à·Ģà¶§
Ġà¶¯à·Ģà·ĥ à¶º
à¶ºà¶± à¶¯
Ġà¶Ŀ à¶»
Ġà¶Ńà¶¶ à¶±à·Ģ
Ġà¶ħà¶¯ à¶¸à¶º
Ġà·ĥà¶Ń à¶ļ
à¶ļà·ħ à¶¸à¶±
199 7
Ġà¶¯ à¶Ńà¶ļ
à¶¢à¶± à¶ľ
à¶Ľ à¶±à·Ģà¶½
Ù ħ
à¶Ń à¶ļà¶»à¶º
Ġà¶± à¶ļà¶½
à¶¢ à¶¯
à·ĥà¶ļ à¶Ń
Ġà¶ļà¶» à¶«à¶ļ
Ġà¶Ĩ à¶»à¶±
à¶· à·Ģà¶Ń
Ġà¶ķà¶± à¶±à¶¸
à¶» à¶©à¶ļ
Ġà·Ħ à·ħ
à·ħ à¶´à¶±
19 50
Ġà·ĥà¶¸à¶¶ à¶»à¶Ń
Ġà¶ħà¶Ńà¶»à¶¸à¶ľ à¶¯
à¶º à¶Ĩà¶»à¶ł
Ġà¶¯ à¶©à¶¸
Ġà¶ħà¶Ń à¶¸
à¶ī à·Ħ
Ġà¶ļà¶³ à¶±
6 3
à¶ħ à·Ģà¶Ń
à¶´à¶Ń à¶º
Ġ500 00
à¶¯ à·ģ
Ġà¶ļà¶« à·ĥ
à¶»à¶¸à¶« à·ģ
Ġà¶¶ à¶¢
Ġà¶¢à¶± à·ģ
Ġà¶±à·Ģ à¶ľà¶Ń
Ġà·Ħà¶³ à¶ľà¶¸
Ġà¶± à·ĥà¶±
à¶Ŀ à¶¸
Ġà¶ľà¶½ à·Ħ
à¶ºà¶± à¶´à¶Ń
Ġà¶ł à¶¸à¶»
Ġà¶ĳà·Ģà¶» à·ĥ
Ġà¶ĳà·Ħ à¶¸
Ġà¶ħà·Ħ à¶º
Ġà¶¶à·ĥ à¶ºà¶ļ
Ġà¶¸ à·Ģà¶Ń
à¶§ à¶ľà¶½
Ġà·ĥ à¶ºà¶±à¶º
Ġà·Ħ à¶¶à¶»
Ġà¶¸à·Ģà¶ļ à¶ľ
Ġà¶¶ à¶¢à¶§
Ġà¶ĳ à¶±à·Ģà¶½
Ġà¶» à·Ħà¶§
à¶¯à¶½ à¶Ń
Ġ11 4
à¶© à¶ºà¶½
Ġà¶° à¶±à¶ºà¶ļ
à¶Ķà¶¶ à·Ģ
Ġà¶ħà¶ľà¶± à¶ľà¶»à¶º
Ġà¶§ à¶¸
Ġà¶Ĩ à·Ģà¶»à¶±à¶º
à¶½ à¶·à¶º
Ġà¶¥ à¶Ń
à¶§ à¶ľà·ĥ
à¶· à¶ļà¶»
à¶»à¶º à·Ģ
Ġà¶´à¶»à¶« à¶ľà¶¸
Ġà¶ĳà¶ļ à·ħ
Ġà¶±à¶¸ à¶¯
à¶Ńà¶½ à¶Ń
Ġà¶ºà¶§ à¶ľ
à¶¸ à¶»à¶¯
à¶»à·Ģ à¶±à·Ģ
à·Ģà¶»à¶« à·Ģà¶½à¶¯
1 50
à·Ŀ âĢį
à¶«à¶º à¶¯
à·Ĥà¶º à¶»
à¶½à¶Ł à¶¯
à¶½ à¶¶à·Ģ
à¶¹ à¶ľ
à·ĥà¶»à·Ħ à¶§à¶Ń
à¶¯ à¶±à¶¸
à¶»à¶¯ à¶ļ
Ġà¶· à·Ģà¶±
Ġà¶ħà¶½ à·Ģà¶½
Ġà¶»à¶¢ à¶ºà¶ļà¶§
à¶´à¶§ à¶ºà¶ļ
Ġà¶± à¶§à¶´
Ġà·ĥà¶¸ à¶»à¶º
Ġà¶ħà·Ģ à¶¸à¶º
à¶ĳà¶¯ à¶Ń
à® °
Ġà¶¢à¶±à·Ģ à¶»à¶¸à¶ļ
à¶ĳ à·Ģà¶»
à¶¸à¶½ à¶»à¶Ńà¶±
à·Ģ à¶¯à¶±
à¶Ń à¶¹
à¶´ à¶»à¶Ń
Ġà¶¶ à·Ĥ
à¶ħ à¶»à¶±
à¶ĳ à¶ļà¶º
à¶»à¶« à¶ļà¶¸
Ġà¶ħà¶ľ à¶¯
Ġà¶ľà¶¸ à¶±à¶º
à¶©à¶¸ à·Ģ
Ġà¶ħà·Ħ à¶ľà¶Ń
8 2
Ġà¶ħà¶ľ à¶ºà¶§
Ġ196 2
à¶ľà¶Ń à¶ļ
à¶ł à¶»à¶¯
Ġà¶µ à¶½à¶ļà¶º
à¶ī à¶½à¶ļ
Ġà¶ºà¶§ à·Ħà¶Ń
Ġà¶ľà·Ħ à¶ľà¶Ń
Ġà¶Ĵ à¶´
Ġà¶ħà¶» à·ĥ
Ġà¶ħà¶§ à¶§
à¶¸ à·ģ
Ġà¶¶ à¶ľ
à¶ĭ à¶´à·ĥ
à¶¶à¶½ à¶¯
à¶łà¶» à¶§à¶¸
à·ħ à¶Ķ
Ġà¶» à·ĥà¶½
à·Ģà¶Ń à¶±
à¶¸à·Ħ à¶¢à¶±à¶º
Ġà¶Ī à·Ģ
à¶ħ à¶»à¶ľ
à¶· à·Ħ
Ġà·Ħà¶³ à¶§
Ġà¶ħ à¶łà¶½
à¶° à·Ģà¶Ń
à¶ī à¶ºà¶±
Ġà¶ľà¶» à·Ħà¶±
à¶´ à¶»à·ĥ
Ġà¶ĭ à¶½à¶¸
Ġà¶Ńà¶»à¶ľ à·Ģà¶½à¶§
Ġ195 3
à¶»à·ĥ à¶ºà¶ļ
Ġ5 50
Ġà¶± à¶§à¶½
à·Ĥ à¶ºà¶¸
à¶Ĵ à·Ģà¶Ń
Ġà¶¸à¶© à·Ģà¶½
à¶¸ à¶½à¶°à¶»
Ġà·ĥ à¶Ńà¶±
Ġà·ĥà¶¸ à¶¶à¶»à·Ģ
Ġà¶´à¶§ à¶¶
à·Ģ à¶¯à¶º
à¶´ à¶»à¶ºà¶§
à¶³ à·Ģà¶½
Ġà¶ľà¶½ à¶´à¶½
à¶ħ à¶§à¶¸
Ġà¶´à·ĥ à¶±
à¶½à¶ºà¶§ à¶Ń
Ġ13 2
Ġà·ĥà¶¯à·Ħ à¶¸
Ġà¶ļà·Ħ à¶´
â ĺ
à¶½ à¶´à¶±
Ġà¶½à¶¯ à·Ħ
Ġà¶ľà·Ħà¶± à¶ļ
Ġà¶ħà·ĥà¶¸ à·ĥà¶¸
à¶ħ à¶ľà¶º
à¶»à·ĥ à¶·
à·Ģà¶ºà¶§ à¶¸
à¶ķ à¶ľ
à¶»à¶¢à¶± à¶±
à¶± à¶´à·Ħ
Ġà¶º à·Ģà¶º
à¶¢ à¶»à¶Ń
à¶¢ à¶±à·Ģà¶½à¶§
à¶¶à¶± à¶±
Ġà¶¸ à·ħà¶ļ
Ġà¶ħà¶º à·Ģà¶Ń
à¶´à·Ħ à¶»à¶¯
à·ĥ à·ĥà¶»
Ġà¶¶ à¶ļà¶¸
Ġà¶Ńà·Ģà¶Ń à·Ģà¶Ń
Ġà·Ģà¶§ à¶ļ
âĢįâĢįâĢįâĢį âĢįâĢįâĢįâĢį
Ġ16 00
à¶´ à¶»à¶±
Ġà¶º à·ĥà¶±
Ġà¶ĩ à¶»à¶±
à¶ºà¶§ à¶±à¶¸
Ġ23 0
Ġà¶ħà¶±à·Ģ à¶¶
à¶» à¶ľà¶»
Ġà¶ħà¶´à¶±à¶ºà¶± à¶ļà¶»
à¶ĩ à¶ºà·Ģ
Ġà¶ħà¶ºà¶§ à¶¯
Ġ à·Ĵ
Ġà·ģ à¶½à¶±
Ġà¶´à¶¯ à¶¸à¶§
199 5
à·Ĥ à¶½à¶Ń
à¶¸à¶Ń à¶ºà¶§
Ġà¶ħà¶Ł à¶½à¶ļ
à¶° à¶·
à·Ĥà¶º à¶¯
à¶»à¶ºà¶ļ à¶¸
Ġà·ĥà¶± à·ĥà¶±
Ġ37 0
à¶Ľ à¶ļà¶ºà¶ļ
à¶ºà¶° à¶»à¶«
Ġà·Ģà¶± à¶ľà¶Ń
à¶»à¶· à·Ģ
8 5
9 1
à¶´ à·ĥà¶º
Ġà·Ħ à¶Ńà¶»à¶¸
Ġà¶¶ à·ĥà¶ļ
Ġà¶ļà¶» à¶ļà·Ģ
Ġà¶ĭ à¶ľà·ĥ
Ġà¶¶à¶½ à·Ħ
à¶ĩ à·ħ
Ġà¶»à¶§à·Ģà¶½ à¶Ń
à¶ķ à¶½
Ġà¶¸ à·Ģà¶ļà¶§
à¶« à¶§à¶¸
Ġà¶Ĩ à·Ģà¶½
Ġ12 4
à® ¾
Ġà¶§ à¶ł
à·ĥà¶ļ à·ĥ
à¶ĩ à¶»à¶Ń
à·ħà¶³ à¶´à·ħ
âĹ ı
Ġ3 20
à¶¸à·Ħ à¶´
Ġà·ĥà¶¸à¶± à¶½à¶º
Ġ14 00
à¶¸ à·Ģà¶ľ
à¶´ à·Ģà¶»
à¶´ à¶ºà¶¸
Ġà¶Ńà¶» à·Ħà¶º
Ġà¶īà¶³ à¶ľà¶Ń
Ġà¶¶ à¶»à¶«
à¶¢ à¶ļà¶Ń
à·Ħ à·Ĩ
à¶ĳ à·ħà·Ģ
Ġà¶° à¶¢
Ġà¶ľà·Ħ à¶«à¶º
à¶»à¶Ł à¶´
Ġà¶ļ à·Ģà¶¸à¶¯
Ġà·ĥà¶´ à¶®
à¶¸à¶± à¶Ń
à¶¯à·Ģà·ĥ à¶ļà¶§
Ġà·Ħ à¶ľ
à¶ºà¶ļ à¶ºà¶§
à¶¢ à¶±à·Ģà¶½
à¶ļà¶»à¶« à·Ģà¶½
à¶»à¶®à¶¸ à·Ģà¶»à¶§
à¶ļ à¶ļà¶¸
à¶ħ à¶ļà¶¸
à¶»à¶Ń à¶¸
Ġà¶īà¶© à¶¸à¶§
Ġà¶ĭà·ħ à¶½
à·ļ à¶Ĥ
à·Ħ à¶ºà¶Ń
Ġà¶ĩà¶¯ à¶´
Ġà·ĥà¶½ à¶ļà¶º
Ġà¶¸à¶Ł à¶§
Ġ13 3
Ġà¶īà·Ģà·ĥ à¶ľ
Ġà¶´ à¶¢
à¶° à¶¶
à¶ºà¶¸ à¶¸
à¶§à¶¸ à¶»
199 3
Ġà¶ħà¶»à¶¹ à¶¸
Ġà¶ĭ à¶«à¶ļ
Ġà¶¶à¶© à¶īà¶»
à·ĥà¶± à¶¯
à¶» à¶Ńà¶»
à·ĥ à¶ľà¶±
Ġà¶´ à¶®à¶ºà¶ļ
Ġà¶¯ à¶ľ
Ġà¶Ķà¶¶ à¶¯
à¶ļà¶½ à·ĥ
à¶ºà¶ļà¶§ à¶º
à·Ģ à·Ħà·ĥà¶ļ
Ġà¶ħ à¶§à¶´
à¶´ à·ĥà¶¸
à¶ºà¶½ à¶ºà¶§
Ġà¶¸ à¶±à¶Ń
à¶»à¶ļ à¶§à¶º
à¶¶à¶½ à¶´à¶±
Ġ13 7
Ġ195 2
Ñ ı
Ġà¶ļà·ħ à¶¶à¶½
Ġà·Ģà·ħ à·Ģà¶½
à¶³ à¶ļà¶§
Ġ12 7
Ġâ ģ£
à¶ļ à·ģ
Ġà¶© à¶ºà¶»
à¶ºà¶ºà¶± à¶ºà¶§
à·ĥ à¶«
Ġà¶ļ à¶¸à¶ļà¶§
Ù Ī
Ġà·Ħ à¶½à¶±
à¶±à¶ºà¶§ à¶º
à¶Ńà¶ºà¶§ à¶¸
Ġà¶Ĭà·ħ à¶ľà¶§
à·Ģà¶ļ à¶§à¶Ń
à¶¸à¶± à¶ºà¶ļ
à·ĥà¶» à·Ħà¶¸
Ġ195 8
Ġà¶ľ à¶ºà¶¸
à¶ºà¶ļ à¶ļà¶¸
à·Ĥ à¶±à¶»
Ġà¶´à·Ħ à¶¸
Ġà¶Ī à¶¯
Ġà¶ļà¶» à¶´à¶½
à¶Ĵ à·ĥ
à¶Ĭ à·ħà¶ľ
à¶ħà¶¸ à¶»à·ĥ
Ġ07 7
Ġ12 9
Ġà¶» à·ĥà¶¸
à¶¸à¶º à¶¢à¶±à¶ļ
Ġà¶ħà¶° à¶»
à¶ľà¶½ à·Ģ
Ġ12 6
Ġà¶»à¶§à¶ļ à¶¢
à¶ľà¶« à¶ºà¶§
à¶¸ à·Ħà·ĥ
Ġà¶ī à·Ĩ
à·Ħà¶» à¶±à¶º
à¶ħà¶¸ à¶Ńà¶»
Ġà¶Ĭà¶½à¶ľ à¶§
à·ĵ à·Ĭ
Ġà¶¸ à¶¯à¶º
à¶© à¶ľà¶Ń
Ġà¶ħà¶´ à¶¸à¶«à¶º
Ģ ¼
à¶ľ à¶»à¶ºà¶§
à¶® à·Ģà¶½
à¶Ńà¶ļ à¶«
à·ĥ à·Ħà¶ļ
Ġà¶» à¶łà¶±à¶ºà¶ļ
à¶® à¶¯
à¶ħà¶´ à·Ģà¶Ń
Ġà¶Ńà¶½ à¶ºà¶ļà¶§
Ġà¶½ à¶³
4 00
¸ ı
à¶± à¶ļà¶»
à¶¸à¶ļ à·Ģà¶±
à¶ĭ à·Ĥ
à¶¶à¶¯ à·Ģà¶¯
Ġ13 00
à¶» à·Ħà¶±à¶ºà¶ļ
à¶¸ à¶»à¶«à¶ºà¶§
à¶¶ à¶ºà¶±
Ġà¶Ĩà¶¯ à¶¸
Ġà¶¶à¶½à¶´ à·Ģà¶Ń
Ġà¶ħà¶© à¶¸
à¶´ à¶¸à¶±
à·Ģà¶ļ à·Ģ
Ġà·Ħà¶Ł à·Ģà¶±
Ġà¶ļà¶» à¶ľà¶¸
Ġà¶ĳà¶±à·Ģ à¶§
à¶ħ à¶»à·Ģ
Ġà·Ģà¶¯ à·Ħ
à¶¯ à¶½à¶º
à·Ģà¶» à¶¯à¶ļ
Ġà¶¸à¶§ à¶±
Ġà¶¶ à¶ľà·Ģà¶±
Ġà¶ļà¶» à¶«à·Ģ
Ġà¶ļà¶» à¶ļà·Ģà¶½
à¶§à¶» à¶ºà¶ļà¶§
Ġà¶Ńà¶» à¶ľà¶¸
Ġ11 00
8 1
Ġà¶īà·Ģà·ĥ à¶½
Ġà¶ļà¶§à·Ħà¶¬ à¶ļ
Ġà·Ģ à·ĥà¶ļ
Ġà·ĥ à¶ľ
Ġà¶¯ à¶´
Ġà¶ĭ à¶·à¶Ń
à¶· à¶ºà¶±
à¶ļà¶½ à·Ħ
Ġà·ħ à¶ļ
à¶»à¶´à¶§ à¶ºà¶ļà¶§
à¶¸ à¶·
Ġà·ĥà·Ħ à¶ºà¶ļà¶º
Ġà·Ħà¶» à¶¹
Ġà·Ĩ à¶§
Ġà·ĥà¶Ł à·Ģà¶±
Ġà·ĥ à¶»à¶¸à¶ļ
Ġà¶ĳ à¶¬
Ġà¶ľà¶« à¶±à¶§
Ġà¶ħà¶ľ à¶¶
Ġà·Ħà·ĥ à¶»à¶ļ
à¶ļà¶º à¶¯
à·ĥà¶» à·ĥ
à¶»à·ĥ à¶§
Ġà¶¸à¶§ à·Ģà¶Ń
Ġà¶±à·Ģà¶ļ à¶ºà¶±
Ġ196 3
à¶ĳà·ħà·Ģ à·ħ
9 3
à¶ħ à¶¬
à¶¯à¶ļ à·Ģà¶»à¶º
Ġà·Ħà¶³ à·Ħà¶±
Ġà·Ħ à¶Ńà¶§
Ġà¶ľ à¶¸à¶ļà¶§
à¶© à¶´à¶Ń
Ġà¶Ķ à¶Ńà¶½
Ġà·ħ à¶³
à¶¶à¶½ à¶½
à¶¶à¶© à¶ľ
198 2
Ġ195 9
à¶¸à·ĥ à¶ļà¶§
à¶´à¶º à¶¯
à¶¡ à¶º
à·ħà¶³ à¶ľà¶Ń
à¶½ à¶¶à¶º
à¶ľ à¶ļà¶»
Ġà¶ľ à·ĥà¶º
Ġà¶¶ à¶ļà¶§
Ġà¶»à¶¢ à¶ºà¶Ń
Ġà¶ļà·Ģà¶¯ à·Ħà¶»
à¶» à¶ľà¶¸à¶±à¶º
Ġà¶ħà¶© à¶±à·Ģ
Ġà¶ĭà¶© à·Ģà¶Ń
Ġà¶ľ à¶¸à¶»
à·Ģà¶» à¶ĳà¶½
Ġà¶Ĵ à¶¯
Ġà¶· à¶ľà·Ģ
Ġà¶¯à·Ħ à¶ħà¶§
Ġà¶´à·Ħà¶½ à·Ģ
Ħ ¢
à¶»à·Ħ à¶ļ
Ù ĩ
à·Ģ à¶Ł
à¶¸ à¶ļà¶»à¶«à¶º
Ġà¶Ķ à·ĥà¶»
Ġà¶´à¶¸à¶« à¶¯
Ġà·ħ à¶º
à¶łà¶± à¶ºà¶±
à¶ºà¶§ à¶±
Ġà¶Ĵà¶ļ à¶¸à¶º
Ġà¶ħà·ĥà¶¸ à¶ľ
à¶® à¶ºà¶º
Ġà¶¯à·ĥ à¶¯à·Ħà·ĥ
à¶¯ à¶Ĩà¶»à¶ł
à¶ĳà¶Ń à¶±à¶§
à¶īà¶³ à·Ħ
à¶ļ à¶±à·Ģ
à¶½ à¶·à·Ģ
à¶´ à¶½à·ĥ
Ġà¶ļà¶§ à·Ħ
Ġà·ħà¶Ł à¶§à¶¸
à¶ľà¶¸à¶± à¶§
Ġà¶´à¶½à¶ļ à·ħ
à¶¯ à¶ł
Ġà·Ħ à¶¯à¶º
Ġà¶ļà¶» à¶½à¶±
à¶ħ à·ĥà¶¸
Ġà¶Ĭà¶§ à¶´à·ĥ
199 2
à¶º à·ĥà¶¸
à¶» à¶±à¶¸
Ġà¶´à¶¸à¶« à¶ļà¶§
à·Ģà¶ºà¶ļ à¶º
à¶»à¶´ à¶¯à¶º
Ġà¶ļ à¶¬
Ġà·ĥà¶¸ à¶¶à¶±
à¶¹ à·Ģ
Ġà¶ļà¶± à¶´
Ġà¶´à¶¯à¶± à¶¸à¶§
à¶±à¶Ń à¶±
à¶®à¶ļ à¶®à¶±
à·Ģà¶¯ à¶Ń
à¶±à¶º à¶§à¶¸
à¶±à·ĥ à¶Ń
Ġà¶Ķà¶Ń à¶±à¶§
Ñ ĭ
Ġà¶Ĩ à·Ģà¶±à¶¸
Ġà¶ħà¶» à¶´
Ġà¶ĩà¶» à¶¶
à·ħ à¶ļà¶»
Ġ15 3
à¶»à¶ľ à·ĥ
Ġ26 00
Ġà¶ħà·Ħ à·Ģà¶»à¶º
à¶ĳà¶ļ à¶±
Ġ194 9
Ġà¶Ń à·Ģà¶½à¶¸
Ġ16 5
Ġà¶īà¶»à¶« à¶¸à¶ļ
à¶¸à¶§ à¶±
à¶· à¶ºà¶Ń
Ġà¶īà·Ģà¶» à¶±
à·Ģ à·Ģà¶±
à·Ģà¶ļ à¶Ń
Ġ13 6
Ġà·ĥà¶»à¶¯ à¶¸
Ġà¶ĳà¶´à¶¸à¶« à¶ļ
à¶¸à¶» à¶ºà¶ļà¶§
Ġà¶¶à¶§ à¶ºà¶ļ
à·ĥ à¶¥à¶ºà¶±
à¶´ à¶«à¶ºà¶§
à¶ł à¶Ńà¶¸
à¶ºà·ĥ à¶¯
Ġ21 0
197 9
à¶´à¶±à¶º à¶Ń
à¶»à¶· à·Ģà¶ºà¶ļ
Ġ196 1
à¶» à¶ļà¶»à¶ľ
à¶ºà¶ļ à¶»à¶«
Ġà¶»à¶® à·Ģà¶½à¶§
âĢ İ
Ġà¶ĩ à¶¯à¶ľà¶Ń
Ġà¶¢ à¶ºà¶§à¶¸
à¶ºà·Ģ à¶±à¶º
Ġ16 8
Ġ14 4
Ġà·ĥà¶¸à¶» à¶±à·Ģ
Ġà¶ī à¶ł
à¶½à¶±à¶º à¶º
ï Ģ¼
Ġà¶¶à¶½ à¶ºà¶Ń
à¶ļà·ħ à¶º
Ġà·ĥà¶½ à·ĥà¶¸
à·ħ à·Ģà¶±
à·Ģà¶» à¶ľ
à¶Ł à¶¸à¶±
Ġà¶¢ à¶ºà¶½
à¶· à¶ºà¶ľ
Ġà¶ħà¶» à·Ħà¶Ń
à¶ļà¶Ń à¶§
Ġà¶±à¶ľ à¶»à·ĥà¶·
Ġà¶¯à·Ħ à¶±à·Ģ
à·Ģà¶ļ à·Ģà¶Ń
Ġà¶ħà·ĥà·Ħà¶± à¶ļ
Ġà¶ĭ à¶Ķ
Ġà¶ħà·Ģ à¶¸à¶ľ
à¶¶à¶¯ à·Ģà¶Ń
à¶¸à¶½ à¶»à¶Ń
Ġà¶ĭ à·ĥà¶º
Ġà¶´à·ĥ à¶¸
Ġà·ĥà¶» à·ĥà¶±
Ġà·ĥ à¶Ńà¶»à¶ļ
à·Ħà¶» à·Ħ
Ġà¶ķ à¶±à·Ģ
à¶©à¶ļ à¶½
Ġà¶ĭà¶¯ à¶ºà¶±
Ġà·ħà¶Ł à¶º
Ġà¶¢ à¶½à·Ģ
Ġà¶¶à¶½ à·Ħà¶±
Ġà¶īà¶ľà¶± à¶ľà¶±
à¶© à¶ºà¶ļà¶§
Ġà·ĥà·Ħ à¶łà¶»à¶º
198 1
à¶¯ à¶ļà¶»
Ġà¶ľ à·ĥà¶§
à¶© à¶¶à·ĥ
Ġà¶ħà¶ºà·Ģ à·ħ
Ġà¶¸à·ĥ à¶ļà¶¸
à¶® à¶·
Ġà·ĥà¶¸à¶Ł à¶¯
Ġà¶Ńà¶« à¶¸à¶½
Ð° Ð
à·ģà¶ºà¶ļ à¶¸
Ġà¶ĩà¶Ł à·ħ
Ġà¶¯à¶¹ à¶»
à¶ķ à¶¸
Ġà¶ĩà¶§ à¶ļà¶§
ï ¸ı
Ġà¶´ à¶§à·ĥ
Ġà·Ģà¶± à¶½
à¶±à¶¸ à¶©
Ġà¶¸à¶Ń à¶ļà¶Ń
Ġà·Ģà¶» à¶§à¶º
à¶ºà·Ģ à¶ľà¶±
à¶§à¶ļ à¶ºà¶ļ
à¶ľà·Ħ à·Ģà¶Ń
à¶ħà·Ħ à·Ģà¶½
Ġà¶¯ à¶»à¶Ń
à¶´à¶Ń à¶¸à¶ºà¶±
à¶ļà¶© à¶ºà¶ļ
Ġà¶¢à¶º à·ģ
Ġà¶ħà¶« à·ĥà¶ļ
à® ©
198 5
Ù Ĭ
Ġà¶ĳà¶ļ à¶ľà·Ģ
à·ģà·Ģà¶º à¶¸
Ġà¶¶à¶½ à¶ļà¶»
Ġà¶ķ à¶ļà¶±
à¶©à¶ļ à·ħ
Ġ19 20
à¶¤ à·Ģ
Ġà¶ļà¶»à¶ļ à·Ģà¶±
à·ĥà¶± à¶ºà¶±
194 7
à·Ģà¶» à¶±à¶ºà¶ļ
Ġà¶ħà·Ģà¶¸ à¶Ł
Ġà¶ ³
Ġà·Ģ à·Ħà·ĥ
Ġà¶¯ à·Ģà¶§
à¶ħ à¶Ńà¶§
Ġà¶¯à·ģà¶ļ à¶ºà¶ļ
1 000
Ġà¶ħà¶´ à¶§à¶¸
à¶¸à¶Ń à¶ļà¶±
à¶¸à¶» à·Ģà¶½
à¶»à¶ł à¶ļ
à¶§à¶»à¶§ à¶ļ
Ġ38 0
Ġà¶ĩ à¶ºà¶¯
Ġà¶ĭà¶¯ à¶ºà¶ļ
Ġà·ĥà¶¸ à·Ħ
Ġà·Ģà¶± à·ĥà¶Ń
à·ĥà¶½à¶ļ à¶±
Ġà¶¯à·ģà¶ļ à¶ºà¶ļà¶§
Ġà¶ľà¶½ à¶´à¶±
à¶¯à¶ºà¶§ à¶Ń
à¶ļà¶© à¶ľà¶½
à·Ħ à¶ºà¶º
à·Ħ à·Ģà·ĥà¶§
Ġà¶Ĵ à¶ļà¶½
à¶¸à¶º à¶¸
à¶ħà¶± à¶ľ
Ġ15 2
à¶¸à¶ľ à¶§
Ġà¶Ĵà¶ļà¶ļ à¶ºà¶±
à¶ľ à¶³
à·Ģà¶ļ à¶§à¶º
à¶»à¶ºà¶§ à¶¯
à¶¶à¶½à¶ļ à¶©
à¶ļ à¶³à·Ģ
à¶Ĵ à¶ļà¶¸
à¶¥ à¶Ń
Ġ26 0
Ġà¶ħà¶ľà¶½ à·Ģà¶Ń
à·Ĵ à·ı
à¶º à¶ºà¶¸
Ġà¶ļà¶» à¶ļà¶»
Ġà¶ĩ à¶«à¶ºà¶ļ
à·Ĥ à·ĥ
Ġà¶¢à¶± à¶°
Ġà·Ħ à·Ĩ
à¶ł à¶§
à¶ĳà¶Ńà¶ļ à¶±
Ġà¶ĩà¶´ à¶ºà¶§
Ġ27 0
à¶» à¶ļà¶»à¶±
à¶¸ à·ĥà¶º
à·ĵ à·ĵ
Ġà¶½ à¶½à¶±
Ġà¶ļà¶© à¶ī
Ġ13 1
Ġà¶´ à¶®à¶ºà¶§
à¶¶ à·Ģà¶¸
Ġà·Ģà¶» à¶½à¶Ń
à¶´à¶Ń à·ħ
à¶»à·Ħà¶«à¶º à¶Ń
à¶Ńà¶ļà¶§ à·Ģà¶Ń
à·Ģà¶»à¶« à¶ºà¶±
à¶´à·ħ à·Ģà¶½
Ġà¶ħà¶Ńà·Ģà¶» à¶ºà¶§
à¶ļ à¶´à¶§
à¶ī à¶©à¶ļ
à¶µ à·Ģà¶±
Ġ14 1
à¶»à¶¯ à¶¸
Ġà·ĥà¶» à·ħà·Ģ
Ġà¶ħ à¶®à¶Ń
à¶® à¶»à¶ºà¶ļ
à¶ĭà¶¹ à¶§à¶Ń
à·Ģ à¶¸à¶ļà¶§
Ġà·Ħà¶» à¶ºà¶ļ
à¶ī à¶¯à¶½
Ġà¶Ĵà¶ļ à¶±à¶¸
8 4
à¶¸ à·ģà¶ļ
à¶« à¶°à¶»
à¶° à¶»à¶±
à¶»à¶« à·Ģà¶½
Ġ3 30
Ġà¶ĩà¶Ń à¶º
à¶ºà·ĥà¶± à¶ºà¶±
à¶¸ à·ĥà¶ļ
Ġà¶Ĩ à¶ºà¶¸
Ġà¶Ńà¶½ à·Ģà¶Ń
à·Ģ à·Ģà¶½
à¶Ń à¶´à¶±
Ġà¶´ à¶®
Ġ14 2
à¶¯ à¶±à·Ģà¶½à¶§
Ġà¶º à·Ĥ
à·ħ à¶¯à¶»
Ġà¶Ĩ à¶¢à¶±
à·Ģà¶ļ à¶±
à·Ħà¶± à¶ºà¶ļà¶§
à¶Ńà¶» à·Ģà¶½à¶§
ĠðŁĺ Ľ
à¶» à¶½à¶ºà¶ļ
Ġà·ĥà·Ħ à·ģ
à¶«à¶»à¶Ń à¶±
Ġ195 1
à·Ģ à¶¢à¶±
Ġà·Ģ à¶±à¶ºà¶§
Ġà·ĥ à¶½à¶¸
à¶· à¶ļà¶º
Ġà¶· à·Ĥ
à·ħà¶¹ à¶ľ
Ġà¶ħà·ħ à¶½
à® ®
Ġà¶ħà¶¬ à¶½
à¶» à¶ļà¶»à¶«à¶º
à¶¶ à·ĥà¶ļ
Ġà¶¶ à¶§à¶º
Ġà¶° à·Ģ
Ġà¶© à¶¸
Ġà¶ħà¶´à¶§ à¶¯
Ġà¶ĭà¶´ à·ģ
Ġ19 00
à·Ħà¶§ à¶¯
Ġà¶¶ à¶ł
à¶½à¶ļ à·Ģà¶»
âĸ º
à¶½ à·Ģà¶»à¶ļ
Ġà¶¸ à¶»à¶¸
à¶ľà¶± à¶ºà¶±
Ġà¶ĭà¶¯ à¶ļ
à¶¨ à·Ģà¶½
Ġà¶ľà¶ľà¶± à¶ľ
à¶»à·Ħ à¶ļà¶º
Ġà¶´à¶§ à¶½à¶º
Ġà¶łà¶½à¶± à¶ºà¶±
3 00
à¶ļ à¶«à¶ľ
à·ħ à¶½à¶ļ
à¶ł à¶¯
Ġ8 50
à·ģà¶ºà¶§ à¶Ń
Ġà¶±à¶§ à·Ģà¶±
à¶±à¶º à¶ľà¶»
Ġà¶ĭà¶¯à·Ħà·ĥ à¶§
à¶´ à¶Ńà¶»
à¶´ à¶¯à¶º
Ġà¶ħà¶¯ à¶»
Ġà¶¸à·ĥ à¶¯
Ġà¶ľ à¶¸à¶º
Ġà¶ħà¶´ à·ĥ
Ġà·Ģà¶§ à¶½à¶±
Ġà·Ģà¶º à·ĥà¶º
à¶½ à·Ģà¶»à¶«
Ġà¶» à¶½
à¶ºà¶± à¶ļà¶¸
Ġà¶Ń à·ħ
à·Ģà¶± à¶ºà¶±
Ġà¶Ķ à¶¯
à¶§à¶Ń à¶¯
Ġà¶ĳà¶º à¶¸à¶º
Ġà¶ħà¶© à¶´à¶±
Ġ195 7
à¶± à¶·
à¶ºà¶§ à¶»
Ġà¶»à¶§ à¶º
à·Ĩ à¶»à¶½
à¶¶à¶½à¶± à¶ļ
à¶¶ à¶½à¶°
à¶¸à¶ļ à·Ģà¶»
âĢįâĢį âĢį
ä º
à¶¶ à¶ºà¶§
Ġ13 4
Ġ14 7
Ġ28 0
Ġ196 6
à·ģà¶ºà¶ļ à¶¯
à¶´ à¶ļà¶»à¶±
à¶ł à¶ºà¶§
Ġà·Ģà¶» à¶«à¶º
Ġà¶ħ à·ĥà¶»à¶±
à·Ģà·ĥ à¶º
Ġà¶° à¶¸à¶±
Ġà¶¸à¶¯ à¶ļà¶§
à¶º à¶ľà¶º
à¶« à¶·
Ġ15 7
à·Ĥ à¶ľà¶Ń
à¶ħ à¶¸à¶±
Ġà·ĥà¶³ à¶ļà¶©
Ġà¶ľà¶± à¶±à¶ļà¶§
à¶©à¶½ à·Ģà¶½
Ġà¶ļà¶³ à¶ļ
à·Ħà¶» à¶¹à¶ºà¶ļ
Ġà¶¸à¶½ à¶ľ
à·ħ à·Ģà¶º
à¶´à·Ħ à¶ļà¶§
à·Ħà¶ļ à¶ļà¶¸
Ġ14 3
à·Ħ à¶Ńà¶ļ
Ġà¶Ń à¶¯à·Ģ
Ġà·Ħ à¶ł
Ġà¶±à¶¸ à¶ºà¶ļ
à¶Ŀ à¶Ńà¶¸
Ġà¶µ à¶ļ
à¶»à·Ģ à¶´
à¶»à¶¢ à¶±à¶ļ
à·ģà·Ģ à¶ºà¶ļà¶§
Ġà¶»à¶ł à¶ļà¶ºà¶ļ
Ġ97 8
à¶» à·Ģà¶½à¶¯
Ġà¶ľ à¶´
à·Ħ à¶¯à¶±
Ġà¶ħ à¶½à¶ļà¶½
Ġà¶Ĩ à¶±à¶Ń
à·ĥà¶» à¶ºà¶±
Ġà¶ħà·ĥ à·ħà¶¯
à·Ĥà¶ºà¶§ à¶Ń
Ġà¶ħà·Ģà¶½ à¶¸
Ġà¶¯ à¶ľà¶½
à¶ħà·Ģ à¶°
à¶ħ à¶¯à¶º
à¶¶à¶½ à·Ħà¶Ń
à¶»à¶· à·Ģà¶ºà¶±
Ġà¶ĭà¶´à·ĥ à¶·
à® Ł
à·Ħà¶» à¶ºà¶ļ
Ġà¶ĳà¶±à·Ģ à¶±à¶¸
Ġ17 6
Ġà¶ļ à¶¶à¶»à¶º
à¶»à¶« à¶ļà¶»
Ġà¶´à·ħ à¶¯
Ġà¶¯à¶» à¶´
Ġ07 1
à¶ļ à¶¢
Ġà¶» à¶¯à¶½
à·ĸ à¶Ĥ
Ġà¶ħà·Ħ à¶ļà¶§
Ġà¶ĩ à¶½à¶§
Ġà¶ĭ à¶»à¶±
à¶ħ à¶«
Ġà¶ħà¶Ń à¶Ń
à¶»à¶« à¶§
à¶Ĩ à¶Ńà¶½
à¶ºà·Ģà¶» à¶§
Ġ ì
à·ħ à·Ħà¶§
à¶ºà¶± à·Ģà¶º
à¶Ńà¶º à·Ģ
à¶»à¶´à¶§ à¶ºà¶º
Ġà¶īà¶»à¶« à¶¸à¶§
Ġà¶ļ à¶¯à¶¸
Ġà¶ľ à¶±à¶ºà¶§
Ġà¶´à·ĥ à¶½
Ġà¶ļà¶§ à¶¸
à¶»à¶¢ à¶ºà¶ļ
Ġ8 88
à·ģà¶±à¶ºà¶ļ à¶¯
à¶¸ à¶¸à¶±
à¶±à¶ºà¶ļ à¶¸
Ġ7 20
Ġà¶ħà¶¸à¶Ń à¶º
à¶±à¶ľ à¶ļ
Ñ Į
Ø ¯
à·Ħ à¶Ńà¶»à·Ģ
à·Ģà¶± à·ĥ
Ġà¶§ à¶¢
Ġà·Ĥ à¶¸
à¶ļà¶ºà¶§ à¶Ń
Ġà¶´à¶§ à·Ģà¶½
Ġ18 18
à¶±à¶Ń à¶ļà¶§
à·Ģà¶» à¶±à¶ºà¶§
Ġà¶Ĭ à¶©
Ġà·ĥà¶½ à·ĥà¶º
Ġ16 2
à·ĬâĢį à·Ļ
Ġ17 7
Ġà¶±à¶» à¶¶à¶±
Ġà¶ħà¶° à¶¸
Ġà·Ģà¶§ à¶ļà¶»
Ġà¶»à·ĥ à¶ºà¶§
Ġ16 6
Ġà·Ģà¶ł à¶±à·Ģà¶½à¶§
à·Ģà¶± à¶±
Ġà¶ħà¶¯ à¶±
Ġà¶¶à¶»à¶´à¶Ń à¶½à¶º
à·ĥà·Ħ à¶·
Ġ29 9
Ġà¶¶ à·Ģà¶±à¶¸
Ġà¶´à¶¯ à¶ºà¶§
Ġà¶ħà¶»à¶ľà¶½ à¶ºà¶ļà¶§
Ġà¶ľ à¶¸à¶¸
à¶°à¶±à¶º à·Ģ
à¶ºà·Ģà·ĥ à¶ļ
à¶³à·Ģ à¶±à·Ģ
à¶ļà¶© à·Ģà¶Ń
198 4
Ġ195 4
à¶Ń à·Ģà¶»à¶º
Ġà·ħà¶¸à¶º à·Ģ
à¶± à·Ħà¶½
à¶ļ à¶Ńà¶ļ
à¶¯ à·Ģà·ĥà¶§
Ġà·Ģà¶» à·Ħà¶±
à¶©à¶± à¶ºà¶±
à¶¢à¶±à¶ľ à·Ħà¶±à¶º
à¶ľ à¶©à¶¸
à¶»à¶¸ à¶«à¶ºà¶§
à¶ľà¶½ à¶ºà¶§
à¶¯à·Ħà·ĥ à¶Ń
à¶Ńà¶½ à¶ľ
à¶©à¶´ à·Ģà¶Ń
Ġà·ĥà¶¶à¶³ à¶ļà¶¸
Ġà¶´ à¶¹à¶º
à¶ĳ à¶±à¶º
Ġà¶´à¶Ń à¶º
à¶¯à¶» à¶§à¶Ń
Ġà¶´à·ħ à¶ļà¶½
18 15
à¶º à¶¶à¶½
à·ģ à¶«à¶ºà¶§
à¶»à¶½ à¶½
Ġà¶ľà¶½ à¶±à·Ģ
Ġà¶¢à¶± à¶ļà¶Ń
Ġà¶ħà¶© à¶ļà¶§
à¶¶à¶½ à¶ľ
à¶º à¶»à¶ºà¶ļ
à¶´ à¶¬
Ġà¶¶ à·Ħà¶½
Ġà¶Ķ à¶ºà¶º
à¶¯à¶± à¶ºà¶ļà¶§
Ġà¶¸à¶Ł à·Ħà¶»à·Ģ
à¶½à¶ľ à¶¯
Ġà·ĥà¶» à¶¹
ĠðŁĺ ī
âĢį âĢįà·ĬâĢį
à¶® à¶±à¶ºà¶ļ
Ġà·ĥà·Ħ à¶łà¶»
à¶ĳ à¶§
Ġà·Ģà·ĥà¶» à·Ģà¶½à¶¯
à¶Ĭ à¶ºà¶§
Ġà¶±à¶© à¶»
à¶ľà¶« à¶±à¶ºà¶ļ
à¶¶à·Ħ à¶ļà¶§
Ġà¶· à·Ģà¶ºà¶ļ
à¶¸à¶¸ à¶¯
Ġ195 5
Ġà¶ĩ à¶§à¶¸
à¶¢à¶± à¶±à¶º
à¶¶à¶½ à·Ģ
Ġ13 9
à¶ļà·Ģà¶¯ à¶Ń
à¶§ à·Ģà¶»
19 30
à¶Ń à¶ľà¶¸
à¶§ à·Ħà¶±
Ġà·ĥà¶³ à¶¸
Ġ9 000
à·Ŀ à·Ĭ
à¶½à¶° à¶»à¶ºà¶±
à·Ģà¶ļà¶§ à·Ģà¶Ń
Ġà·Ģ à¶«
Ġà¶ļà·ħ à¶´
à¶Ķ à¶¸
Ġ15 1
Ġ15 8
à·ĥà¶»à¶º à¶Ń
Ñģ ÑĤ
Ġà¶¸ à¶¸à¶±
à¶»à¶ļ à¶ľ
Ġà¶ł à·Ģ
à¶¸à¶½ à¶ºà¶§
Ġà¶Ĩà·ĥ à¶±à¶ºà¶§
Ġà¶¶à¶»à¶´à¶Ń à¶½à¶¸
à® ²
Ġ34 0
Ġà¶ħà¶´ à·Ħà¶»à¶«à¶º
Ġà¶ļà·ħ à·Ħà¶ļ
Ġà¶ħà¶· à¶ºà¶·
Ġà¶ĩà¶» à¶ľà¶±
à¶»à·Ģà¶» à¶ºà¶ļ
Ġà¶ĭà¶¶à¶½ à¶ľ
Ġ à·Ĥà¶±
à¶½ à¶±à¶¸
à¶ľ à¶«à¶ºà¶ļ
Ġà¶Ń à¶¯à¶§
à¶© à¶´à¶Ńà¶ļ
à¶±à·Ģ à¶§à¶¯
Ġà¶´à¶» à¶«à¶º
Ġà¶« à¶ºà¶ľ
à¶ľà¶¸à¶± à¶ºà¶±
à·Ģà¶Ń à¶ºà¶ļ
Ġà¶ħà¶´ à¶Ńà¶º
à¶Ĩ à¶Ńà¶»
à¶ºà·ĥ à¶±à¶ļ
à¶¯à¶ļ à·Ģà¶»
Ġà¶´à¶½ à¶ļà¶»à¶¸
Ġà¶ħà¶´ à¶»à¶¯
Ġà¶ķ à¶§
à·ĥà¶» à¶«à¶ļ
à·Ħà¶Ńà¶» à·Ģà¶±
Ðµ Ð
à·Ķ à·ĳ
à¶±à¶ļ à¶ľ
à¶ļà·ĥ à·Ħ
Ġà¶Ńà¶»à·Ħ à·Ģ
à¶¢ à¶ºà¶º
Ġà¶ļà¶½ à¶ļà¶¯
à·Ģà¶»à¶«à¶º à¶Ń
Ġà¶¸à¶» à¶±à¶º
à¶¶ à¶ļà¶»à¶±
à·ģ à·Ĥ
Ġà·Ģà¶± à¶ł
à¶±à¶ļ à¶Ń
à¶° à¶±à·Ģà¶Ń
à¶¢ à¶«
à¶±à¶ļ à¶ļ
Ġà¶ħà·ĥ à·Ģà¶½
à¶©à·ĥà¶§à·Ħà¶± à¶ļà¶¯
à·ĥ à¶´à¶º
à¶½ à¶´à¶¯
à¶¸à¶Ń à¶½
Ġà¶Ĵ à¶¸à¶º
à·Ħà¶½ à¶ļà¶¸
à¶Ńà¶» à¶«à¶º
à¶¶à¶½ à·Ģà¶Ń
Ġà¶´à¶« à·Ħà¶ļ
Ġà·Ģà¶º à·ĥà¶Ń
Ġà¶Ńà·Ħà¶± à¶¸à¶ļà¶§
à¶»à¶¢à¶± à¶±à¶º
à¶¢ à¶¸à·Ħ
ï ģ
Ġà¶ħ à·Ħà¶»
à¶±à¶ºà¶§ à¶¯
Ġà¶Ĩà¶¯à¶»à¶º à¶º
Ġà¶´à·Ħà·ħ à¶¸
Ġà·Ħ à¶ºà¶º
à¶° à¶¸à¶Ń
à·ĥ à·Ģà¶Ń
à¶ľ à¶µà¶½
Ġ14 8
à·ĥ à·Ģà¶ľ
Ġà¶± à¶»à¶ļà¶§
Ġà¶¢ à¶ľ
à¶½à¶ļ à·Ģà¶»à¶º
Ġà¶ĭà¶¯ à¶½
à¶»à·Ħ à¶Ń
Ġà¶ĩà¶¸ à·ĥà¶±
Ġà¶ħà·Ģà¶± à¶©
197 6
à¶Ń à¶ºà¶½
à¶¸ à¶¶
Ġà¶¢à¶± à¶¢
à¶»à¶½ à¶ľ
Ġà¶ħà¶« à¶´à¶±à¶Ń
à¶Ń à¶¥à¶ºà¶±
à¶ľà¶½ à¶Ń
à¶¨ à·ģ
à¶ļà·ħ à¶¯
Ġ16 3
197 5
Ġà¶´ à¶ºà¶§
Ġà¶´ à¶¶à·ħ
Ġà¶Ķ à¶ºà¶½
à¶½à¶§ à¶¯
Ġ14 6
à¶ľà¶ºà¶§ à¶Ń
à¶½ à¶łà¶±
Ġà·Ħ à¶¶à¶½
Ġà¶Ĵ à·Ģà¶±
à¶»à¶ł à¶±à¶º
Ġà¶īà¶» à¶±à¶¸
à¶ĭà¶¹ à·Ģ
à¶¯ à¶ºà¶¸
Ġà¶ĳ à¶ŀ
à·ħ à¶ľà·ĥ
à·Ĥ à¶´à¶Ń
Ġà·ĥà·Ħ à·ĥà¶¸
à¶¨ à¶´
à¶Ńà¶½ à¶ºà¶§
à¶µ à¶§
Ġà¶¸ à¶»à¶ļ
à¶½à¶ľ à¶§
à·ģà¶±à¶º à¶º
Ġà·Ģà·ĥà¶»à¶ļ à¶¯
Û Į
Ġà¶º à¶¸à¶±
à¶Ńà¶» à·Ģà¶»à¶º
à¶°à¶±à¶º à¶º
à¶ī à¶´
Ġà·Ģà·ĥ à¶¸à¶§
Ġà¶ļà¶» à¶±à¶º
Ġà¶¢à¶± à¶ļà¶º
à¶ļà¶½ à¶¯
Ġà¶»à¶¯ à·ħ
à·Ħ à¶ļà¶ºà¶ļ
Ġà¶± à·ĥà¶»
Ġà¶Ĩà¶ºà¶Ńà¶±à¶º à¶º
à·ľâĢį à·Ĭ
à·Ģà¶¶ à¶½à¶°
à¶º à¶¶à¶«
Ġà·Ģ à·ĥà¶½
Ġà¶ķ à¶¸à¶½
à¶ħà·Ģ à¶¶
Ġà¶¯ à¶¸à¶Ń
Ġà¶Ń à¶¢
Ġà¶» à¶«à¶ļ
Ġà¶ĭà¶´ à¶´
à¶Ńà¶ļ à¶±
à¶¸à¶ľ à¶¯
Ġà¶¯à¶©à¶º à¶¸à¶§
à¶§ à·Ģà¶ļ
Ġà¶ļà¶Ń à¶ļ
à·Ħà¶½ à¶Ń
Ġà¶¯à·ĥ à¶½à¶ļ
Ġà·ĥà¶»à¶¯ à¶¸à¶ļ
Ġ à·Ķ
Ġà¶ļà¶½ à¶ľ
à¶©à¶ļ à·Ģ
Ġà¶»à¶® à¶ľ
Ġà¶Ķà¶¶à¶§ à¶¯
Ġà·Ģà·Ħ à¶±à·Ģ
198 6
à·Ħà¶½à¶ļ à¶¯
Ġà·ĥà¶¸ à¶¸
Ġà¶ķà¶± à¶Ńà¶»à¶¸
à¶ļà¶»à¶«à¶º à¶º
Ġà¶Ī à·ĥ
Ġà¶±à¶» à¶¹à¶½
Ġà·Ģà·ħ à¶ľà¶¸
Ġà¶±à¶Ł à¶¸
Ġà¶ħà·Ģà¶º à·Ģà¶ºà¶ļ
Ġà¶´ à¶«à¶ļ
à¶ĳ à·ħà¶ļ
à¶»à¶ļ à·Ģà¶»à¶º
Ġ19 31
à¶§à¶½ à¶ºà¶ļà¶§
Ġà¶ħà¶ľ à·Ħ
à¶± à¶»à¶Ńà¶±
à¶ļ à¶¸à¶±
Ġà¶´à¶» à¶ľ
à¶©à¶ļ à¶¸à¶ļ
Ġà¶īà¶³ à¶½à¶Ń
Ġà¶´ à¶¹
à¶»à·Ģ à¶¯à¶±
à¶Ńà¶ļ à·Ģà¶Ń
à¶»à¶´à¶§ à·Ģà¶½à¶§
Ġà¶ĭà¶¶ à¶½à¶§
Ġà¶¯à¶Ł à¶½à¶±à·Ģ
à¶¸ à¶ļà¶»à¶±
Ġà¶¯ à¶»à¶¯
Ġà¶¯ à·ĥà¶ļ
Ġà¶ļà¶§ à·Ģà·Ħ
à¶ºà¶ļà¶§ à·Ģà¶Ń
à¶´à·ħ à·Ģà¶½à¶§
à¶½à¶Ł à¶§
197 3
Ġà¶¸ à·Ģà¶¸
Ġà¶ļà¶» à¶©
Ġà¶ħà·ĥ à·ħà¶§
à¶½à¶ľ à·ĥ
Ġà¶ħ à¶ļà·Ģ
à¶© à¶½à¶¸
Ġà¶º à·ĥà·ĥ
à·ĥà¶º à·Ģ
à·Ĥà¶± à¶ºà¶±
Ġ15 6
Ġà¶ħ à¶ºà¶±à¶¸
à¶¸à¶ļ à¶½
Ġà¶ħà¶Ńà¶» à¶¸à¶±
à¶ī à·Ģà·ĥà¶±
à¶ºà·ĥ à¶±à¶ºà¶§
à¶ķ à¶´
à·Ģ à·ħà¶§
à¶» à¶©à¶ļà¶º
Ġà¶ĩà¶³ à¶ľà¶±
à¶º à¶´à¶±à¶º
Ġ19 39
Ġà¶ĳà¶ļà¶ļà¶§ à·Ģà¶Ń
ðŁĳ į
Ġà·ĥà¶¸à¶Ł à¶Ń
Ġà¶¸ à·Ģà¶½
Ġà·Ħ à¶½à¶½
Ġà¶Ńà¶» à¶½
Ġ300 00
à¶º à¶Ł
à¶ļ à¶Ńà¶»
Ġà·Ģ à¶¯à·Ģ
à¶ľ à·Ģà¶½à¶¯
Ġà¶¶ à·ħà¶°
à¶¢ à¶ļà¶ºà¶ļ
Ġà¶ħà¶´ à·Ħà¶§
Ġà¶ħà¶¸ à¶¯
Ġà¶±à·Ģ à¶ºà¶ļà¶§
à¶ºà·Ģà·ĥ à¶ļà¶§
Ġà·ĥà¶½à¶ļ à¶Ń
Ġ14 9
à·ĥà·Ģ à·ģ
Ġà¶ ¨
Ġà¶ħ à¶½à¶º
à¶ĭ à·ħ
Ġà·Ģà·ĥ à¶Ł
à¶»à·Ħà·ĥ à¶±
à¶± à¶ľà¶½
à¶ħ à¶Ńà¶»à¶¸
Ġà·Ģà¶½ à¶´à¶±
à¶»à¶® à·Ģ
Ġ16 4
Ġà¶½à¶Ł à¶º
Ð¸ Ð
à¶© à·ĥà¶§
à¶© à¶ļà¶»à¶´
à·Ĩ à¶ºà¶»
à·ĥà¶ļ à¶¯
Ġà¶Ķà·ĥ à·Ģà¶¸
Ġ15 9
Ġà¶ĩà¶½ à¶¢
à·ľ à·Ļ
Ġà¶»à¶§ à¶ļà¶¯
Ġà¶ĩ à¶ľà¶½
Ġà¶ħà¶º à·Ħ
Ġà¶ħà·Ħ à¶´à¶±
à¶ļ à¶½à¶±à¶ºà¶ļ
Ġà¶Ĵ à¶¸à¶Ń
Ġà·Ģà¶§ à¶ļà¶»à¶ľ
ĠØ§ ÙĦ
à¶ł à¶»à¶ļà¶½
à¶ī à·Ĥ
à¶± à¶¢
à·Ģ à¶´à·ħ
à·Ģà¶º à·ĥà¶ļ
Ġà¶ħà¶Ń à¶ĩà¶»à¶½
à¶¶à¶» à¶ºà¶§
à·ĴâĢį à·Ļ
Ġà¶ļà·ħ à¶«
à¶¸à¶ļ à·ħ
Ġà¶ħ à¶½à¶ļ
Ġà¶Ń à¶´à·ĥ
Ġà¶ĩ à¶¸à¶º
à¶¢à¶± à¶»
à¶¯à¶±à¶º à¶º
à¶© à¶¸à·ħ
à¶ī à·Ģà¶»
Ġà·ĥà¶»à¶« à¶ļ
à·Ģà¶± à¶ľà¶½
à¶¸ à¶»à¶ļ
à¶§ à¶ļà¶»à¶±
Ġà¶¸ à¶¯à¶±
Ġà¶¯ à¶»à¶¯à¶¬
Ġà¶īà¶© à¶Ń
196 5
à·Ħ à·Ħ
à·Ģà·ĥ à¶§à¶¸
à¶»à·Ģ à¶±à¶º
à¶Ĩ à¶ľà¶¸à¶±
Ġà¶Ĩà¶¯à¶»à¶º à¶Ń
à¶ºà·Ģà¶½ à¶¸
Ġ22 2
à¶± à¶Ĵ
à¶ł à¶½à¶ºà¶§
à¶»à¶§ à¶º
à¶¯ à¶¸à·Ħà¶Ń
à¶° à¶»à¶ļ
à¶»à·Ģ à¶ľà¶±
Ġà¶Ĭ à¶ľ
à¶±à·ĥ à¶ļà¶§à¶Ń
Ġà¶¶à·ĥ à¶ºà¶§
Ġà·ĥà¶ļ à·ĥà¶¸
Ġà¶ľ à¶³à¶ļ
à·ħ à·Ģà¶½à¶§
Ġà¶ķ à¶¸à¶±
Ġà¶ħà¶· à¶ºà¶Ń
Ġà¶īà·Ħ à·Ģà·Ħ
à¶± à¶¶à·Ģ
à¶« à¶±à¶ļ
à¶ĩ à¶ºà¶Ń
Ġà¶ľà¶«à¶±à¶ļ à¶ľ
Ġà¶ĭà¶´à¶ļà¶»à¶« à·Ģà¶½
Ġ à¤
à¶´ à¶ļà¶§
à¶Ńà¶± à¶±
Ġà¶¯à·Ģà·ĥ à¶Ń
Ġà¶¸à¶» à¶±à¶ºà¶§
Ġà¶Ńà¶½ à·Ģà¶ļ
à¶¶ à¶ºà¶ļà¶§
Ġà¶¶ à¶ºà¶Ń
à¶»à¶½ à¶Ń
à·ĥà¶¯ à·Ħ
Ġà·Ģ à¶´à¶»
Ġà¶¶ à·ħà¶±
à¶ºà¶ļ à¶»à·Ģà¶±
Ġà¶¶à·ħ à¶ĩà¶«
à¶º à¶µ
Ġà¶Ĩà¶¯à¶» à¶±
Ġ21 5
Ġà¶´à·Ģà¶» à¶½
à¶» à¶ºà¶½
Ġà¶¯à¶± à¶±
Ġ20 5
à¶»à¶« à¶ľ
à¶ºà¶ļà¶§ à¶¯
à¶ĭà¶¹ à¶ľ
à¶Į à¶Ń
æ ľ
à¶Ń à¶®
à·ĵ à·Ļ
à·Ģà¶½ à¶±
Ġà¶¶à¶½ à¶ºà¶½à¶Ń
Ġà¶ľ à·Ģà¶»
Ġà¶¶à¶½ à¶ľà¶±
à¶µ à·Ģ
Ġà¶¯à¶Ł à¶»
Ġà·Ģ à¶°à¶º
Ġà¶ĳ à¶»à·Ħ
Ġà¶ī à¶¸à¶¯
à¶»à·ĥ à·Ģà¶Ń
Ġà¶īà·Ģà¶Ń à¶½à¶±
à¶»à¶® à¶ºà¶ļ
ï¼ Į
à¶ºà¶ļ à¶»à¶«à¶ºà¶§
Ġà¶¶à¶½ à¶ļà¶»à¶±
Ġà¶¢à¶± à¶¶à¶½à¶º
à¶±à¶± à¶ľ
Ġà¶ħà¶¶ à¶¸à¶½
à¶¯ à·Ģà¶»
Ġà¶ħà¶ľ à¶ļ
à¶Ńà¶§ à¶¯
Ġà¶ħà¶¹ à¶ľà¶¸
à·Ĥà¶ļ à·Ģà¶»à¶ºà¶ļ
à¶»à¶½ à¶¸
Ġà¶±à¶ľà¶»à¶º à¶º
à¶½ à¶¸à¶Ń
à¶ł à¶´
à¶· à¶ºà·Ģ
Ġà¶ħà¶Ń à·Ģ
Ġà¶Ńà¶½ à¶½
à·Ģ à¶¥à¶ºà¶±
Ġà¶ĳ à¶¸à¶±
Ġà¶¸à·Ħ à¶´à¶§
à¶· à¶§
Ġà¶ħà¶¯à·Ħà·ĥ à¶ļà¶§
Ġ16 1
Ġ17 8
Ġà¶ħà·Ħà¶½ à¶¸
Ġà·Ħà·ĥ à¶½à¶ļ
à¶¢à¶±à¶¸ à¶Ń
ðŁĳĮðŁĳĮðŁĳĮðŁĳĮðŁĳĮðŁĳĮðŁĳĮðŁĳĮðŁĳĮðŁĳĮðŁĳĮðŁĳĮðŁĳĮðŁĳĮðŁĳĮðŁĳĮ ðŁĳĮðŁĳĮðŁĳĮðŁĳĮðŁĳĮðŁĳĮðŁĳĮðŁĳĮðŁĳĮðŁĳĮðŁĳĮðŁĳĮðŁĳĮðŁĳĮðŁĳĮðŁĳĮ
à¶« à¶±à¶º
à¶« à¶ľà¶±
à·Ģà¶§ à¶±à¶ºà¶ļ
Ġà·Ģà¶© à·Ģà¶©
Ġà¶ĳà¶ļà¶§ à¶¯
Ġà¶¸à¶Ńà¶ļ à¶±
Ġ18 5
à·ĥ à·Ģà¶ļ
Ġà¶´ à¶»à¶Ń
à¶»à¶ļ à¶ºà¶§
à¶¯à¶½ à¶¯
à¶ļà¶»à¶« à¶¸à¶º
Ġà¶ĩà¶¯ à¶§
Ġ17 3
à·Ģà¶Ń à¶ľà¶¸
Ġà¶¸à·Ħ à¶¸à¶Ł
à¶¯à¶» à¶«
Ġà¶ĳà¶¸ à¶»
Ġà¶±à·Ģ à¶ľà¶¸
à¶ļà¶ļà¶§ à¶Ń
196 4
Ġà¶Ĵ à¶¢
Ġà¶ľà¶½ à¶¶
Ġà¶ħà¶´à¶» à¶·
à·ĥà¶»à¶½ à·Ģà¶¸
Ġà¶ħà¶§à¶¸ à·ĥ
à¶± à¶»à¶ļà¶¯
à·ĥ à·ħ
à·ĥ à¶¥
Ġà¶ļ à·Ģà¶½à¶¸
Ġà¶¶ à¶«à¶ļ
Ġà¶ĳ à·Ģà¶º
à¶»à¶«à¶ºà¶ļ à¶¯
Ġà¶ļà¶´ à¶¸
Ġ21 2
à·Ħà¶¬ à·Ģà¶¸
Ġà¶¶à¶§ à¶½à¶±
88 8
à·Ģà·ĥ à¶±à¶º
à¶»à¶¯ à¶ºà¶±
à·Ħ à¶¸à¶¯
Ġà·Ģ à¶ºà¶±
à¶½à¶± à¶ļ
à¶ĩ à¶¶
à¶Ĩ à¶ľà¶±
Ġà¶ļà¶« à¶©
à¶« à¶Ŀ
à¶© à¶´à¶½
à·Ģà¶½ à·ĥ
à¶ĩ à¶¯à·Ħ
à¶¯à¶½ à¶ºà¶ļ
Ġà·ħ à¶ľà¶¸
Ġà¶ħà·Ħ à¶½à¶ļ
à¶½à·Ģ à¶´
à¶Ĭ à¶Ĭ
Ġ19 29
Ġà¶ļà¶© à¶ºà¶§
à¶»à¶´ à¶¯
à·Ģà·Ħà¶± à¶ļ
Ġà¶±à·Ģà¶ļ à·Ģà¶¯à¶º
Ġà·ĥà¶»à¶½ à·Ģà¶¸
à¶» à¶¬
à¶§ à¶¶à¶½
Ġà·ĥà¶¸ à¶¢
Ġà¶ķ à¶ļà¶Ń
Ġà¶ľà·Ħ à¶ļà¶§
Ġà¶ļ à·Ģà¶½
à¶ħà¶´ à¶¯
Ġà¶ĭà¶© à¶Ł
Ġà·ĥà¶§à·Ħà¶± à¶ļà¶§
à¶µ à¶½à¶ºà¶§
Ġ45 00
Ġà¶ħà¶»à¶ľà¶½ à·Ģà¶½
Ġà·ĥà¶¸ à¶ºà¶±
à¶ħà¶´ à·Ģ
à¶ĳà¶ļ à¶ļà¶§
Ġà¶Ĩà·ĥ à·Ģ
Ġà¶Ī à¶´
à¶´à·Ħ à¶»à¶ļ
19 17
à·Ģà·ħ à¶½
à¶´ à¶ľà¶±
Ġà¶ĩ à·ĥà¶½
Ġà¶Ĩ à·ĥà¶ļ
à¶»à¶¸ à·Ģà¶½à¶§
Ġà¶ħà¶¯ à·Ģà¶±
à¶°à¶ºà¶ļ à¶¯
Ġ16 9
à·Ģ à¶Łà¶±
Ġà¶ĳà¶ļ à¶¸à¶Ń
Ġà·Ģà¶½ à¶±
Ġà¶´à·ħ à¶³à¶±
à¶¬ à·Ģ
à·Ģà·ħ à¶ľ
Ġ194 2
Ġà¶ĵ à¶±
à¶½ à·Ħà¶§
à·Ģà¶½ à¶ľà·ĥ
à·Ģà¶º à¶»
Ġà¶ĭà¶´ à¶½
à¶¶à¶» à¶´à¶Ńà·ħ
Ġà¶´à¶½ à¶³
Ġ20 21
Ġà¶¸à¶Ł à·Ħà¶»
Ġà¶ħà¶±à·Ģ à¶»à¶Ń
à¶Ŀà¶± à¶ļà¶º
à¶© à¶ļà¶»à¶±à·Ģ
Ġà¶±à¶¸ à¶ľ
Ġà¶Į à¶«à¶Ń
à¶Ń à·Ģà¶ļ
à¶¸ à·Ģà¶ļ
Ġà¶Ń à¶½à·Ģ
à¶Ńà¶» à¶´à¶§
Ġà¶¶à¶½ à¶±à·Ģà¶¯
à¶½à¶ļ à·ħ
à¶Ń à·Ħà·ĥ
à¶ĭ à¶ľà¶±
Ġ19 38
Ġà¶½à·ĥ à·ĥà¶´
Ġà·Ħà¶¬ à¶´à¶§
à¶ľ à¶°
Ġà·Ģà¶± à¶ħà¶½
Ġà¶ł à¶½à¶±à¶ºà¶ļ
à¶¡ à·Ģ
à·Ģà¶»à¶« à·Ģà¶½à¶§
à¶½ à·Ħà¶ļ
à¶´ à¶»à¶´
Ġà¶ļà¶§ à¶§à¶¸
Ġà¶ħà¶» à¶½à¶ľ
à¶»à·Ħ à¶»à¶ļ
Ġà¶»à·ĥ à¶¶à¶»
Ġà·Ħà¶¬ à·Ģà¶½
Ġà¶¢à¶±à¶»à¶¢ à¶ºà¶ļ
à¶» à¶¶à¶Ń
Ġà¶¯à·Ģà·ĥ à¶ļà¶¸
à·Ģà¶» à·ĥà¶±
Ġà¶ķ à¶±à¶Ń
Ġ19 14
Ġà·Ĥ à¶©
à¶¯à¶¹ à¶¯
à¶ľ à¶ľà¶±
à¶´ à·Ħà¶§
à¶° à¶ł
à¶ł à¶ºà¶ļà¶»
Ġà¶´à¶» à¶¯à·Ģà¶±
à¶¯ à¶¸à¶Ń
Ġà·Ģ à·Ģà¶½
à¶´ à¶®à¶ºà¶ļ
à¶ļà¶º à·Ģ
Ġà·ĥà¶¯ à·Ħà¶§
à¶¸à¶½ à¶»
Ġà·ĥà¶¯à·Ħà¶± à¶ļ
Ġà·Ħà¶¬ à¶¸
196 8
à¶¶ à¶ºà·Ģ
à·Ģà¶» à¶ļà¶§
Ġà¶ħà¶° à¶º
à¶Ĩ à¶Ĩ
Ġ5 12
Ġà¶ĭà¶¹ à¶º
Ġà¶ĳà¶¯ à·Ģà·ĥ
196 7
â Ļ
Ġà¶ľ à¶§
à¶¶ à¶»à¶±
à¶ļà¶» à¶ļ
à¶Ńà¶½ à·Ģà¶Ń
Ġà¶¯à·Ħ à·Ģ
à® ª
Ġà¶Ńà¶¯à¶¶à¶¯ à¶ºà¶§
à¶» à¶½à¶ļ
Ġà¶ĩ à·ħà¶§
à¶ļà¶» à·Ģà¶½
Ġà¶Ĭ à¶ºà¶ļ
Ġ194 6
ðŁĺ Ģ
Ġà¶½ à¶´à¶º
à·ģ à·Ħ
à·Ĥ à·Ģà¶º
Ġà·Ģà¶½ à·Ħ
Ġà¶ľà·Ħ à¶«
à¶Ńà¶» à¶ºà¶º
à¶ħ à¶ºà¶»
Ġà¶ļà¶½ à·Ħà¶¸
Ġà·Ģà·Ħà¶± à¶ºà¶ļ
Ġà¶Ĩà¶ł à¶»à¶«à¶º
Ġ17 4
à¶»à·Ģà¶½ à¶´
à¶Ńà¶±à·Ģ à¶§
à¶¸ à¶½à¶±
Ġà¶¸ à¶½à¶§
à¶ľ à·Ħà¶§
Ġà¶¯ à·ĥà¶Ń
Ġà¶¢ à¶ºà¶¯
à¶ļà¶½ à·Ģ
Ġà·Ħà¶³ à¶´
Ġà¶Ī à·Ĥ
Ġ à·Ĥà¶º
à·ĥ à¶ºà¶¸
Ġà¶Ĩ à¶©
Ġà¶ĭ à¶¶à·Ģ
Ġà¶ļà¶§ à¶ºà¶Ń
à¶»à¶ł à¶ļà¶º
à¶±à¶ļà¶§ à¶¸
à¶± à¶Ńà¶»
Ġà¶Ńà·Ħ à·ħ
à¶Ńà¶±à·Ģ à¶½à¶§
Ø ¨
Ġ Å
à·ĥ à¶¶à¶Ń
à¶»à¶¸ à¶«à¶ºà¶±
Ġà·Ģà¶± à¶´
à¶±à¶¸ à¶¯
Ġ10 80
Ġ16 7
Ġà¶»à¶Ł à¶¯
Ġà¶ħà¶Ł à·Ģà¶¸
Ġà¶ħ à¶§à¶º
à¶¸à¶º à¶ľ
à¶§à¶´ à¶§
Ġà¶ľ à¶»à¶±
Ġà¶Ĵà¶ļ à¶¯
à¶¯à¶±à¶º à¶Ń
Ġ23 9
Ġà¶¶ à¶§à¶ľ
à¶¢ à¶½à¶±à¶º
à¶Ľ à¶½
à¶ļà¶»à¶«à¶º à¶Ń
197 4
å ¤
Ġà·ĥà·Ħ à¶ºà¶¯
Ġà·ĥà¶½ à¶»
Ġ25 6
194 5
à¶¯ à¶§à¶º
à¶© à¶ºà¶º
à¶ľà¶Ń à¶¸
à¶Ńà¶½ à·Ģ
à¶ºà¶· à¶§
à¶Ń à¶¢
Ġà¶Ń à¶ľ
Ġà¶ľ à·ħà¶´
Ġà¶ļà¶» à¶¶
à¶Ńà¶» à¶ºà¶Ń
à¶ł à¶ŀ
à¶Ł à¶¯
Ġà¶¸à¶¸ à·Ģà¶Ń
Ġà¶¸à·Ģ à¶±à·Ģ
à¶ļà¶© à¶¯
Ġà·ĥ à¶ļà¶ł
à¶´ à¶ļà¶¸
Ġà¶¶ à¶Ńà¶ļ
Ġà¶¢à¶± à·ĥà¶¸
Ġà¶ĳà¶½ à¶¶
Ġà¶Ĩà¶¯ à¶ºà¶¸
Ġ22 4
à¶®à¶ļà¶® à¶±à¶ºà¶ļ
à·Ģ à·ģà¶ļ
à¶« à·ĥà¶½
à¶¢ à¶ºà¶§à¶¸
à¶· à¶ºà¶º
à¶«à¶º à·Ģ
à¶¶à¶³ à·Ģà¶¸
à·ĥà¶³ à¶»à¶ļ
à·Ĥà¶¥ à¶ºà¶ļ
Ġ à·ı
Ġà¶ ĸ
à·Ħ à·Ģà¶±
Ġà¶¸ à¶©à¶¸
à¶« à¶§à¶Ń
Ġà¶ĳà·ħ à¶¶
Ġà·ĥà¶§à¶± à¶ļà¶§
Ġà·ĥà¶»à¶½ à¶¸
Ġà¶Ń à¶ļà¶±
à¶»à¶ļ à·Ģà¶»
Ġà¶ºà¶¸ à¶´
19 40
Ġà·Ħà¶¬ à¶Ń
Ġà¶Ĩà¶· à¶»à¶«à¶ºà¶ļ
ãģ ®
à¶Ł à¶Ń
à¶½à·Ģ à¶Ĩà¶»à¶ł
à·ģà¶ļ à¶ºà¶§
à¶½à¶´ à¶§
Ġà¶ħà·Ģà¶º à·Ģà¶º
Ġà·Ģ à¶§à¶»
à¶´ à·ħà¶Ń
Ġà¶ļà¶» à¶½à¶ļ
à·Ģà¶± à¶´
Ġ12 000
Ġà¶´à·Ħà¶½ à¶¸
Ġà¶¸à¶½à¶ļ à¶©
à¶´ à¶ºà¶§à¶Ń
Ġà¶¶ à¶»à·ĥ
à¶»à¶¢ à¶¸
Ġà¶ĩà¶Ł à¶´à¶Ń
à¶ĳ à¶ºà¶º
à¶©à¶½à¶º à¶Ń
à¶º à¶°à¶¸
à¶¯ à¶ļà¶»à¶±
à¶¯ à¶¸à¶½
à¶° à¶Ŀ
à¶Ńà¶ļ à¶ºà¶§
Ġà·ħ à¶´à¶§
à¶¶à¶½ à·ģà¶ļ
à¶Ńà·Ģà¶Ń à¶ļ
Ġà¶¸à·ħ à¶¸
à¶ºà¶ļà¶» à¶±à¶º
195 3
à·ħ à¶±à¶º
Ġà¶¢ à¶§
Ġà¶ĭà¶¹ à¶¸
Ġà¶¯à·Ħ à¶ħ
Ġ27 5
à¶½ à·Ģà·ĥ
à¶½ à¶³à¶ľ
Ġà¶Ń à·ĥ
à¶ħ à·ĥà¶Ń
à¶¸à¶ļ à¶Ń
Ġà·Ģà¶» à¶½
Ġà¶¸à¶½ à¶½à·ĥ
à¶Ńà¶±à¶º à¶Ń
Ġà¶Ńà¶ļ à·Ħà¶±
Ġà¶¸à¶³ à¶¶à·Ģ
à¶» à¶±à¶ļ
Ġà¶Ĩ à·Ģà¶º
à¶¯à¶± à¶±
à¶ĭ à¶´à·Ģ
Ġà·Ģà¶§ à·Ģà¶½
à¶Ĭ à¶¸
à·ħà¶Ń à¶¯
Ġà·Ħ à¶½à¶ļ
Ġà¶ĳ à¶ºà¶§à¶¸
Ġà¶¢à¶± à·ĥà¶±
ĠÐ ¿
à¶º à¶«à¶º
à¶§à¶º à¶»
Ġ400 00
à¶ħ à¶»à¶«
à¶ħ à¶Ľà¶«
Ġà·ĥà·ĥ à¶¢
à¶ļ à·Ģà¶º
Ġà¶ļà¶½ à¶«
à¶ħà¶´ à·Ħ
Ġ19 3
Ġà¶ºà¶±à·Ģ à¶º
à¶±à¶½ à¶¯
à¶»à¶´à¶§ à¶ºà¶Ń
à¶µà¶½ à·Ģà¶½
195 2
à¶½ à¶ļà¶»à¶±
Ġà·Ħ à¶§à¶±
à¶ºà·Ģ à·ģà¶º
Ġà¶´à·Ģà·ĥ à¶¯
Ġà¶»à¶¢ à¶ļà¶¸à¶§
à¶´ à¶±à·ĥ
Ġà¶± à¶½à¶½
Ġà¶ĳ à¶´à¶º
Ġà¶¢ à¶ºà¶´
à¶»à·Ħ à¶ºà¶ļà¶§
Ġ19 15
Ġà¶ĳà¶Ń à¶±à¶Ń
Ġà¶ħà·Ħà·ĥ à¶ļ
Ġà¶¯ à·ĥà¶¯
à·ħ à·Ģà¶Ń
Ġà¶´ à¶ºà¶ļ
Ġà·Ħ à¶©à¶±
à¶« à¶±à¶¸
à·Ģà¶Ń à¶¸
à¶µ à¶½à¶Ń
Ġà¶ħ à¶¶à¶½
Ġà¶ļà¶» à·Ħà¶¸
à¶»à¶¸ à¶ºà¶¸
Ġà¶ħà¶º à¶³
à·ĴâĢį âĢį
Ġà¶ļà¶¸à¶§ à·Ħà¶±
à¶¸ à¶±à¶ºà¶§
Ġà·Ģ à¶¯à¶ļ
à¶´ à¶±à¶¸
Ġà¶ļà·ħ à¶½à¶º
à¶»à¶ļ à·Ģ
à¶ħà¶´ à¶§à¶Ń
à¶Ĩ à¶§
à¶´à¶¯ à·Ģà¶º
à·ģà¶ºà¶§ à¶º
à¶ķ à·Ģà¶§
Ġà¶±à¶ľà¶» à·Ģà¶½à¶§
196 9
à¶± à·Ħà·ĥ
Ġà·Ħ à·ĥà¶½
à¶ľà¶Ń à·Ģà¶±
à·Ħà¶½ à¶¯
Ġà·Ģà·Ħ à¶´
Ġ48 0
Ġ Â©
à¶§ à¶¸à¶±
à¶ľ à·Ħà¶Ń
à¶Ĥ âĢį
Ġà¶Ĩ à¶¢
Ġà¶ħà¶± à¶¯
Ġà·ģ à¶º
Ġ17 00
Ġà¶¶à¶»à¶´à¶Ńà¶½ à¶ļà¶¸
Ġà¶´à¶»à¶¯ à·Ģà¶¸
196 2
à¶ł à·ĥà¶¸
à¶ħ à·Ģà¶ļ
Ġà¶ħà¶¸ à¶±à¶º
à¶łà¶» à¶±à¶¸
à¶ķ à¶ļà¶±
à·ģà·Ģà¶ºà¶§ à¶¸
ãĢ Ĥ
2 50
Ġà¶ļ à·Ħà¶±
à¶© à¶ºà¶¸
Ġà¶ľà¶¸à¶± à¶Ń
à¶¢à¶ºà¶§ à¶Ń
Ġà¶Ĩ à¶³
à¶ĳ à·Ģà¶ľ
Ġà¶ħà¶ľ à¶½à¶ļ
Ġà¶ĭà¶« à·Ģà¶§
Ġà¶ĭà¶ºà¶± à¶ļ
ãĢ ģ
Ġà·ĥà¶¸ à¶ºà¶º
à·ĥà¶º à¶¯
Ġ201 10
à·Ģà¶»à¶«à¶º à·Ģ
à¶ºà¶ºà¶§ à¶Ń
à¶» à¶¥à¶º
à¶µà¶½ à·Ģà¶½à¶§
Ġ75 00
à¶§ à¶ŀ
Ġà·ĥ à·Ģà¶»
Ġà¶ļà¶½ à¶¹
à¶¯à¶½ à¶ľ
å ı
Ġà¶¸ à·Ģà¶º
Ġà¶» à·Ĩ
à¶»à¶¸ à¶»
Ġà¶»à¶¢ à¶ľ
à¶½à¶ºà¶§ à¶º
Ġà¶¢à¶±à¶¸ à¶Ńà·Ģ
à¶¶ à·Ģà¶½
à¶¶ à¶¹à¶»
Ġà¶ļà¶»à¶± à¶ļà¶¸
Ġà¶´à¶Ń à¶´
à·Ĥà¶« à¶Ń
à·ĥà¶½ à¶ļà¶¸
Ġà·Ģà¶§ à¶¯
Ġ19 36
à·Ĥà¶ºà¶ļ à¶¸
Ġà¶´à·Ħ à¶¯à¶±
à¶¯à·Ħà·ĥ à¶º
Ġà¶ļà¶»à¶±à·Ģ à¶º
à¶½ à·Ħà¶ļà¶§
à¶±à·Ģ à·Ħ
Ġà¶ħà¶´ à¶½à¶º
Ġà¶¶à¶½à¶´ à¶½
à¶¸à·Ħà¶» à¶¢
à¶§ à¶§à¶Ń
Ġà¶¢ à¶¶
Ġà¶Ńà¶» à·Ħà¶§
à¶Ŀà¶« à¶ļà¶º
Ġà¶ľ à·ħà·Ģ
Ġà¶¶ à¶©à¶ļ
à·ģ à·Ģà¶±
à¶° à¶«
Ġà¶¢ à¶½à¶±
Ġà¶¢ à¶½à¶ľ
Ġà¶Ĵ à¶¸à¶ļ
à¶ļà¶» à¶¯à¶»
à¶ľà¶Ń à¶ºà¶ļà¶§
à·ħà¶¯ à¶´à¶½
à·Ģ à¶łà¶»
à¶» à¶©à¶ļà¶ºà¶±
Ġà¶´à·Ħ à¶«
Ġ19 2
à¶´à¶» à¶ºà¶ļà¶§
Ġ20 3
à·Ģ à¶ŀ
à·Ħ à¶¢
à¶´ à¶±à¶ºà¶ļà¶§
Ġà¶¯ à¶½à¶º
à·Ģà¶Ń à¶ľ
Ġà¶ķ à·Ĥà¶°
Ġà¶ļà¶©à¶ī à¶¸à¶ļ
à¶ļ à¶¹
Ġà¶¯ à·Ģà¶±
Ġ19 1
Ġ Ï
à¶ļà¶»à¶« à·Ģ
å ľ
Ġà¶¸ à¶¢à¶»
Ġ19 33
Ġà¶ļ à·Ģà¶§
à¶»à¶¸ à¶±à¶ļ
Ġà¶ħà¶© à¶´
Ġà¶´à¶§ à·Ģà¶¸
Ġà·Ħà¶§ à¶¯
Ġ17 2
Ġ23 3
Ġà¶īà¶ľà¶± à¶ľà¶Ń
à¶¯ à¶ľà¶½
Ġà·Ģ à¶¯à¶ºà¶§
Ġà¶º à¶ľ
à¶Ĵ à¶©
à¶Ķ à¶ºà·Ģà¶ľ
Ġà·Ģà¶» à¶«
Ġà¶ĩà¶Ł à¶¸
à¶º à¶ºà¶±à·Ģ
à¶ļ à·Ģà¶»à¶«à¶ºà¶ļ
Ġà¶Ĩ à¶Ńà¶»à¶º
à·Ģà¶§ à¶´
à¶Ľ à¶±à·Ģà¶½à¶§
Ġà¶±à¶ľ à¶±à·Ģ
à¶Ŀ à¶Ń
Ġà·ĥà¶¸à¶Ń à¶ºà¶ļà¶§
Ġà¶īà¶»à¶« à¶¸à¶©
195 8
Ġà¶¶à¶½ à¶ºà¶¯
à¶§à¶½à¶ºà¶ļ à¶¯
à·ħ à·Ħà¶ļà¶§
à¶° à¶±à·Ģà¶½à¶§
à¶ł à¶¸à¶Ń
à¶»à¶§ à¶´
Ġ20 50
Ġà·Ħà¶¬ à¶º
Ġ194 4
à¶± à¶ľà¶Ńà¶º
à¶¯ à¶Ł
Ġà¶ĭ à¶¶à¶Ń
à¶ĳ à¶±à·Ģ
Ġà¶ķ à·Ģà¶º
à¶ºà¶Ń à¶±à¶ºà¶§
Ġà¶Į à¶ľ
Ġ25 5
à¶© à¶¸à¶º
à¶»à¶§ à¶ļà¶§
à¶ºà¶ľ à¶«à¶±à¶ļ
à¶¸à·ĥ à¶±à·Ģ
Ġà¶ľà¶½à·Ģ à¶±à·Ģ
Ġà¶¯à·ģà¶ļ à·Ģà¶½
Ġà¶¯à¶Ł à¶´à¶±
å ¹
Ġà¶Ĩ à¶±à¶¸à¶©
Ġà¶Ĭ à¶§à¶¸
à¶»à¶ľ à¶«
Ġà·ĥà¶½à¶ļ à¶´
Ġà¶ľà·Ħ à¶´à¶±
à¶ľ à¶¶à¶©
à¶ł à¶ļà¶ºà¶§
Ġà·ĥ à¶¤
à·ħ à¶§à¶¸
à¶ºà¶± à¶ļà¶±
Ġà¶±à¶¸ à¶¸
à·ĥà¶ļ à¶½
Ġà¶´à·Ģà¶» à¶¸
Ġ888 888
à¶½ à¶±à¶§
Ġà·ĥ à¶½à¶±
Ġà¶Ń à¶¸à¶Ń
Ġà¶½ à¶»
à¶¢ à¶ºà¶½
å ħ
à¶» à¶ŀ
à¶Ń à¶ľà¶Ń
Ġà¶´à¶Ń à¶½à¶ļ
Ġ29 0
à·Ħ à·Ģà¶Ń
Ġà¶ħ à¶«à¶§
à¶© à¶ļà¶»à¶½
Ġà·ĥà¶¸ à¶ļà¶º
à·Ģà¶½ à¶ļà¶§
à·Ĩ à¶§
Ġà¶ľ à·ĥà¶Ń
à¶© à¶·
Ġà·Ħà¶³ à¶º
à¶ļà¶© à¶ºà¶±
Ġ18 3
Ġà¶¸à¶»à¶« à·Ģ
Ġà¶ļà¶¹ à¶ºà¶ļ
à¶ļ à·Ģà¶±
à¶® à¶»à¶ºà¶±
Ġà·ĥà¶³ à¶½
Ġà¶Ńà¶» à¶½à¶º
Ġà·Ħà¶¯ à¶±à·Ģà¶¯
Ġà¶ħà¶ľ à¶ºà¶ļà¶§
Ġà·Ģà·Ħ à·ħ
à¶ħà¶Ł à¶½
Ġà¶¢ à¶ļà¶»
Ġà¶ļà¶»à¶± à¶Ń
Ġà¶¸à·Ħ à¶Ķà¶º
à¶Ĵ à¶©à¶¶
Ġà¶į à·Ĥ
Ġà¶´à¶´ à¶©à¶¸
à¶±à¶Ĵ à¶¸à¶§
à¶¸ à¶ºà¶§à¶Ń
Ġà¶º à¶§à¶¸
à¶¢ à¶ºà¶½à¶½
à¶±à¶º à·Ģ
Ġà¶ĭ à·Ħà¶±
Ġà¶ħà¶¯ à¶±à¶¸
Ġà¶¸à¶ľ à¶ļà¶§
à¶ĩ à·ĥà¶§
à¶± à¶´à¶±
à·Ģ à¶³à¶º
à·Ļ à·Ķ
à¶© à¶¸à¶§
à¶ł à¶¸à¶ļ
Ġà¶¶à¶½ à¶½à¶Ń
à·Ĩ à¶»à¶±
à¶»à¶« à·ĥ
Ġ19 11
Ġà¶µ à¶½à¶ºà¶§
à® ¯
Ġà¶ľà¶¸à¶§ à¶¸
Ġà¶¶ à¶»à¶´
Ġà¶ļà¶» à·Ħ
Ġà¶¸à·Ħ à¶ł
à¶¹ à·ĥ
Ġ18 2
à·Ħà¶» à¶¹à¶º
à¶Ńà¶ļ à·Ģ
Ġà¶ĭà¶© à·Ģ
Ġà¶¯à·Ħ à¶ºà¶º
Ġà¶Ĵà¶ļà¶§ à¶¸
195 9
ĠÄ ģ
à¶Ń à¶ļà¶»à¶«à¶ºà¶ļ
à·ħ à·ĥà¶±
Ġà·ĥà¶¸ à·Ħà¶±
à¶® à¶½
à¶ī à¶Ł
Ġà¶© à¶½
Ġ19 18
Ġ20 2
Ġà·ĥà·Ħà¶łà¶» à¶ºà¶±
à¶§ à¶±à¶ºà¶ļ
à¶Ķ à¶»à¶½
Ġà¶© à¶ŀ
à¶Ĭ à¶»
Ġà¶ĭà¶© à·Ħ
Ġà¶¢à¶±à¶¸ à¶Ńà¶ºà¶ļ
ĠâĢ ı
Ġâ Ī
à¶¶ à¶¢
Ġà¶¢ à·Ħ
Ġà·Ģà¶± à¶łà¶»
à¶»à·Ģ à¶ºà¶±
Ġà·Ĥ à·Ģà¶»
à¶ĳà¶´ à¶¸à¶±à¶ļ
Ø ª
Ġà¶¸ à¶½à·Ģ
à¶´ à¶½à¶ľ
Ġà¶¶ à¶»à¶Ń
à·Ģà¶½ à¶»
Ġà¶´à·Ħ à¶»à¶ļà¶§
Ġà¶»à·ĥ à¶¥à¶Ń
Ġ23 1
Ġà¶ļà·ħà¶¹ à¶ļ
à¶ħà¶´à¶±à¶ºà¶± à¶º
à¶¸ à·ĥà¶½
Ġà¶Ń à¶½à¶´
Ġà¶ĩ à¶±à¶ļ
Ġà¶Ńà¶» à¶´
à¶»à¶¢ à·Ģà¶»
Ġà¶ħà¶»à¶ľà¶½ à·Ģà¶½à¶§
Ġà¶ħà¶± à¶Ńà¶»
à¶Ńà·Ģ à·ģà¶º
Ġà¶ĳà¶´ à¶»
Ġà¶´à¶½ à¶ºà¶½
à¶§à·Ģ à¶´
Ġà·Ģà·ħà¶³ à¶±
ðŁĳį ðŁĳį
à ª
à¶± à¶¹
à·Ģ à¶³à¶§
Ġà¶ļ à¶±à·Ģà¶¯
Ġà¶ļà¶» à·Ħà¶±
Ġà¶Ĵ à·Ģà¶§à¶Ń
Ġà·Ģà¶© à·Ģà¶±
Ġ20 8
Ġà¶¶à¶© à¶½
Ġà¶¯à·ĥ à¶¯à·Ħà·ĥà¶ļ
12 5
à¶ºà¶ļ à·Ģà¶±
à·Ĥ à¶¸à¶º
à¶±à·Ģ à¶ļà¶º
Ġà·Ģà¶½ à¶´à¶½
Ġà¶¶à¶»à¶´à¶Ń à·ħà¶¸
ðŁ ĻĤ
Ġà¶ĸà·Ĥà¶° à·Ģà¶½
à¶½à¶ļà¶§ à¶¸
à¶®à¶ļà¶Ń à¶±à¶º
Ġà¶¸ à¶»à·Ħ
Ġà¶ħà¶» à¶§
Ġà¶ķà¶± à¶½
Ġà¶ľà·ĥ à¶ļà¶§
à·ĥà¶¯ à¶ľà¶±
Ġà¶ĳà¶ºà¶§ à¶Ń
à¶ļ à¶®à¶±
à¶¶ à·ħà¶ļ
à¶© à¶´à¶ºà¶ļ
Ġà¶½ à¶ľà¶§à¶¸
à¶ł à¶ľ
à¶¸à¶Ń à¶§
à¶½à¶±à¶º à¶¯
Ġ18 7
Ġà¶¯à¶©à¶º à¶¸à¶ļ
à¶± à¶Łà¶ļ
à¶± à¶Ĵà¶¸
Ġà¶ķ à¶´à¶´
à·ĥà¶» à¶±à¶¸
à·ĥà¶½ à¶°à¶¸
Ġà¶ĳà¶½ à·Ģà·ħ
à¶¬ à¶»
Ġ32 5
Ġà·Ģà·Ħ à¶ľà¶Ń
à¶ļ à¶¬
à·ĥ à·Ģà¶½à¶¯
Ġà·ĥ à¶¯à¶±
à¶ľ à·Ħà¶¸
Ġà¶ĩ à·Ģà¶Ń
Ġà¶ļà·ħ à¶½
à¶Ńà¶±à¶º à¶º
à¶´à·ħ à¶ľ
Î ±
à¶½ à·Ģà¶»à¶«à¶ºà¶§
à·Ģà¶º à·Ģ
à¶ħà·Ģà·ĥ à¶»
Ġà¶ħà·ĥà¶»à¶« à¶ºà¶±
0000 00
à¶§ à¶±à¶ºà¶§
Ġà¶ļ à¶µ
Ġà¶¯à¶» à¶½
Ġà¶īà¶© à·Ħ
Ġ21 1
Ġà¶»à¶ł à¶±à¶ºà¶§
196 3
à·ĥ à¶¶à¶º
à¶§ à¶»à¶§à¶§
Ġà·Ħ à¶«
Ġà¶Ķ à¶ľà·ĥ
Ġà¶¶à·Ģ à¶½à¶Ń
à¶¸à·Ħ à·ħ
Ġà¶ħà·Ħà¶½ à·Ģà¶Ń
à¶Ńà¶· à¶¯
à·ĥ à¶´à¶±
âĢį à·Ļà·ı
à¶© à·Ģà¶¸
Ġà¶ļà¶»à¶± à¶¸
Ġà¶ħà¶± à¶·
à¶¹ à¶³
à·Ģà¶»à¶« à·Ģà¶½
Ġà·ĥà¶» à·Ģà¶±à¶¸
Ġà¶ĩà¶½ à¶´
194 9
à¶» à¶±à¶Ń
à¶¶ à·ĥà¶º
à¶ļà¶ºà¶± à¶§
Ġà¶ĳà¶ļà¶ļà¶§ à¶Ń
à¤ ¾
Ġà¶īà¶¯ à¶ľà¶±
à·ĥà¶½ à·Ģ
à¶ºà·Ģà¶» à·Ģà¶½
à¶¯ à¶°
à¶© à¶ºà¶Ń
à¶¢ à·Ħ
Ġà·ģ à¶´
Ġà¶§ à¶±
à¶»à·ĥ à¶ļà¶º
à¶´à¶½ à·Ģà¶½à¶§
Ġà¶ħ à¶«à¶Ń
Ġà¶± à¶§à¶¸
Ġà¶±à·Ģ à·Ģ
Ġ4 20
Ġà¶ĸà·Ĥ à¶°à·Ģ
ðŁ Ĵ
Ġà¶¯à¶« à¶ľ
Ġà¶ĭà¶¸ à¶Ł
Ġà¶Ĩ à¶¸à¶»
Ġà¶¸à¶± à·Ħà¶»
Ġà¶´à·ħ à¶Ł
Ġà¶´à¶« à¶ľ
Ġ18 4
5 000
à·ħ à·Ħà¶»
Ġà¶ī à·ħ
Ġà¶ĭ à¶ºà¶±à·Ģ
à¶ļà¶§ à¶ļ
à¶¢à¶º à¶´
à¶ĭ à¶Ķ
à¶ĭ à·Ģà¶¸à¶±
Ġ19 37
Ġà¶ħà·Ħà¶½ à¶Ń
à¯ Ī
à¶º à·ĥà¶§
Ġà·Ħ à¶ŀ
à¶« à·Ģà¶±
Ġà¶ĩ à·ħà¶ļ
à¶»à¶§ à¶§à¶¸
Ġ24 8
à¶¶à·ħ à¶½
Ġà¶¢à¶ºà¶¸ à·Ħ
Ġà¶ħ à¶«à·ĥ
à·ģ à¶¶à¶±
Ġà¶ĭ à¶½à·Ģ
à·ĥà¶» à¶ľ
à·ĥà¶¸ à¶¶
à¶ļà¶»à¶« à·Ģà¶½à¶§
Ġà¶ĭà¶© à¶º
Ġà¶»à¶« à·Ģà¶±
à·Ħ à·Ģà¶½
à·Ħ à¶ºà·Ģ
à¶ľ à·ĥà¶ļ
Ġà¶ł à¶´
à¶»à·Ģ à·ģ
Ġ19 19
Ġà¶¯à¶¸ à¶´
Ġà¶½à¶Ł à¶§à¶¸
Ø ©
â ľ
à¶´ à¶¢
à·ħ à¶³à·Ģ
Ġà¶¸à¶Ń à¶Ń
Ġà¶ĩà¶ºà¶§ à¶Ń
Î ¿
à¶« à¶¸à¶ļ
à¶±à·Ģ à¶¸à¶º
à¶»à·Ħ à¶±à¶ºà¶§
Ġà¶½à¶Ł à¶ļà¶¯
Ġ à·ĬâĢį
Ġà¶¯ à¶»à·Ģ
à¶ľà¶¸ à¶«
Ġà¶Ńà¶» à¶ļà¶»
à¶ħà¶¯ à¶¸
à¶´à¶±à¶º à¶º
Ġà¶ħà¶ľà¶º à¶ºà¶±
Ġà¶ħà·Ħà¶¸ à¶ŀ
Ġà¶¶ à¶¶à¶½
à·ģ à¶ļà¶»à¶±
Ġà¶ĩ à¶½à·ĥ
à¶»à¶¸ à¶ºà¶¯
Ġà·Ħà¶» à¶´
à¶¯à¶» à¶½
Ġà¶¸à¶± à¶±
Ġ24 00
Ġ22 1
Ġà¶»à¶¸ à¶«à¶º
Ð¾Ð ²
å ®
à·ĥ à¶¸à¶ļà¶§
Ġà¶ļ à·ĥà¶±
Ġà¶ļ à¶´à¶º
Ġà¶ľ à¶¢à¶±
Ġà¶» à¶±à·Ģ
à¶ħ à¶ºà¶±
Ġà¶ľà¶Ń à¶§
Ġ21 6
Ġà¶ħà·Ģà¶ļ à¶½à¶±à¶º
Ġà¶ħà¶ºà·Ħ à¶´à¶Ńà¶ļ
à¶½ à¶¯à¶»
à¶Ķ à¶ºà¶§
Ġà¶ļà¶© à¶ļà¶»à¶±
à¶¯à·Ģ à¶´
à·ĥà·Ģ à·Ģà¶½à¶§
Ġà¶¯à·Ħà·ĥ à¶ºà¶ļ
Ġà¶Ĩà¶ļà¶» à¶ºà¶§
Ġà¶ħà¶«à·ĥ à¶ļà¶§
Ġà¶½ à¶ľà¶º
Ġà¶º à¶§à¶º
Ġà¶ļà·ħ à¶¸
à¶Ķ à¶©
à¶Ī à¶±
à¶« à¶ºà¶§à¶Ń
Ġà¶ĳà¶ļ à·Ģà¶ľ
Ġà·ĥà·Ħ à¶¢à¶º
Ġà¶§ à·ĥ
à¶Ńà¶ļ à¶Ń
Ġà¶¸à¶» à¶ľ
Ġà¶ºà¶§ à¶ļ
Ġ194 3
à¶¶ à¶ł
Ġà·ĥà¶¸ à¶»à¶´
Ġà¶ļà¶« à¶ļ
à¶ħà¶¯ à¶±à¶¸
Ġà¶¸à¶Ł à¶¯
Ġà¶Į à·Ĥ
Ġà¶ Ł
à¶» à¶°à¶±
Ġà¶´ à·Ģà¶§
Ġà¶Ķ à¶ľ
à¶ł à¶¸à¶½
Ġà¶ķ à¶´à¶¯
Ġà¶¸à¶½ à¶¶
Ġ22 6
Ù İ
âĢ ¡
Ġà¶ľ à¶¸à¶Ń
Ġà¶ľ à¶³à¶º
Ġà¶ĳ à¶¶à¶¯
à¶ºà¶§ à¶¸à¶º
à·Ģà¶½ à¶§à¶¸
Ġà¶Ĭ à¶´
Ġà¶»à¶¢ à¶ºà¶§à¶Ń
æ ĸ
Ġà¶¸ à¶»à¶º
à¶Ĩ à¶©à¶¸
à¶¸à¶½ à¶½
à¶´à¶½ à¶¯
Ġà¶īà·Ģà¶» à¶¯
Ġ21 8
Ġ31 0
Ġà·Ģà¶ł à¶±à¶Ń
Ġà¶¯à·ģ à¶½à¶ļ
ðŁĺ Ĥ
à·ĥ à·Ģà¶§
à¶¯ à¶ľà¶½à¶º
Ġ5 40
Ġà¶ħà¶· à·Ģ
Ġà¶ºà¶§ à¶¯
Ġ28 5
Ġà¶īà¶»à¶« à¶¸à¶ļà¶§
1 10
à¶± à¶½à¶ºà¶ļ
Ġà·Ħ à·Ħ
Ġà·Ħà¶Ńà¶» à·Ħà¶¸
à·ģà·Ģà¶½ à¶Ń
à¶»à¶ºà¶ļà¶§ à¶º
196 1
à¶´à·ĥà¶§ à·Ħà¶±
à ¹
Ġà¶¸ à·Ģà¶¯
à·Ģà¶§ à¶ļ
Ġ19 22
Ġà¶±à¶ľ à¶»à¶ºà¶±
Ġà¶ĭà¶© à¶´
Ġ20 22
Ġ18 1
Ġà¶ĳ à·Ģà¶¸
Ġà¶½ à¶¸à¶ºà¶§
à·ģ à¶ļà¶½
à¶¶à¶³ à¶Ń
Ġà¶īà·Ħà·ħ à¶§à¶¸
Ġ9 50
à·ĥà¶³ à¶½
201 00
19 20
Ġ18 48
Ð ²
à¶± à¶ľà¶¸à¶ľ
à¶© à¶»à¶ºà¶§
Ġà¶§ à¶ļà¶»
Ġà·Ħà¶» à¶ºà¶±
Ġà¶īà¶¯ à¶»
Ġà¶´à¶½ à·Ħ
à¶½à¶¯ à¶´
à¶§à·Ģ à¶±à·Ģ
à¶ł à¶«
à¶ľà¶¸ à·Ħ
201 01
à¶Ńà¶ºà¶§ à¶º
Ġ18 6
Ġà¶ħà·ĥà¶¸ à¶¢
Ġà¶¸à¶³ à¶ļà¶§
à¶ł à¶½à¶¸
Ġà¶ħà¶½ à¶ºà¶ļ
à¶»à·Ħ à¶»à¶§
Ġà·ĥà¶§ à¶ļà¶´à¶§
Ġà¶±à¶¸à¶ļ à¶ľ
à¶¸ à·ĥà¶»
Ġà·Ģ à·ħà¶¯
à¶±à·Ģ à¶½à¶Ń
à¶Ł à¶±à¶º
à¶ļà¶§ à¶»
Ġà¶ĳà¶ļà¶ļ à·Ģà¶Ń
Ġà¶¸à¶ļ à¶¶
ĠðŁĺ ¦
à¶ħà¶±à·Ģ à·ĥà¶»
Ġà¶´ à¶®à¶ºà¶±
Ġà¶ħ à¶«à¶ļ
Ġà¶Ń à¶»à¶ļ
Ġà·Ħ à¶¶à¶ļ
Ġà¶ĩ à¶¯à¶ļ
Ġà¶§ à¶§
Ġà¶° à¶¢à¶ºà¶ļ
à¶Ńà¶½ à¶¯
à¶ĳà¶ļ à·Ģà¶»
Ġ22 3
Ñ ĩ
à¶´ à·Ģà·ĥà¶±
Ġà¶¯ à¶ºà¶½
Ġà¶ļà¶½ à¶½
à¶¸à¶¯ à¶ļ
Ġà·Ĥ à·Ħ
à¶¯à¶»à¶Ń à¶±
11 1
à¶± à¶ł
Ġà¶¸ à¶¯à¶»
à¶´ à¶»à¶¸à¶ļ
à¶° à·Ģà¶¯
Ġà¶ļà¶» à¶ĩà¶Ń
Ġà¶ħà¶Ń à·Ģà¶»à¶ºà¶ļ
Ġ2 19
Ġà¶ł à¶§
Ġà¶īà¶¯ à·Ħ
Ġà¶Ńà¶»à¶Ł à¶ºà¶ļà¶§
Ġà¶ļà·Ģà¶» à·Ħ
à¶½à¶ºà¶± à¶½
à¶§ à·ĥà¶¸
Ġà¶¶ à·ħà¶´
Ġà¶ĩ à¶½à¶ļ
à·Ĥ à¶¨
à¶ļà¶» à¶±à¶ļ
Ġà¶Ŀ à¶±à¶º
Ġ17 1
Ġâ Ħ¢
ĉ ĉ
Ġà¶½ à¶´à¶§
Ġà¶ĩ à¶±à¶ľ
à¶ħ à¶¢à¶±
à¶´à·ĥ à¶Ń
Ġà·Ħà¶¯ à¶ľ
Ġà¶ºà¶¸ à·Ħà¶½
Ġà¶»à¶¢ à¶ºà¶º
à¶ĭà¶© à·Ģà¶½à·Ģ
à·Ļ à·ĺ
à¶« à¶ľà¶¸
à¶¸à¶± à¶ºà¶±
à¶ĩ à¶Ńà¶¸
à¶ĭ à¶´à·Ħ
Ġ6 40
à¶Ĩà¶¯à¶» à¶ºà¶§
196 6
à¶º à¶Ńà¶±à¶ºà¶ļ
à¶· à¶ľ
à¶ļà¶§ à¶§
à·ĥà¶» à·Ħà¶¯
à·Ĥà¶« à¶¯
Ġà·ħ à¶¯
Ġà¶Ĩà·ĥ à¶¯
Ġà¶´à¶§ à¶ºà¶§
Ġ23 5
Ġà¶ī à¶»à¶±
Ġà¶¶à·Ģ à·Ģà¶Ń
Ġà¶±à¶¸ à·Ģà¶Ń
Ġà¶ķ à·Ģà¶ľ
Ġà¶¸à·Ģ à¶´
à¶®à¶ļ à¶Ńà¶±
Ġà¶ľà·ĥ à¶±à·Ģ
à¶½à¶¹ à¶§
Ġà¶¯à·ģ à¶¸à¶ºà¶ļ
Ñģ Ðº
Ġà¶ļà·Ħà¶§ à¶ľà·ĥ
à¶° à¶¸à¶±
Ġà¶Ĵ à·Ģà¶½
à¶· à·Ģà¶±à¶º
Ġà¶ļà¶© à¶ºà¶ļà¶§
Ġà¶¸à¶½ à¶Ń
Ġà·ħà¶¸à¶º à¶Ń
ï ĥ
Ġà¶¸ à·ĥà¶§
Ġà¶ī à¶¸à¶ļ
Ġà¶ħà¶½ à·Ħà¶ļ
Ġà¶ļà¶© à·Ģà¶½à¶§
Ġà¶ļà¶»à¶ľà¶Ń à·Ħ
à¶Ń à¶±à·Ģà¶½
à¶« à¶Ńà¶ļ
Ġà¶ĩ à·Ĥ
à·Ĥ à¶ļà¶»
Ġà¶ºà¶± à¶ľà¶¸à¶±
Ġà¶¸à¶Ń à¶ºà¶ļà¶§
à·ĥà¶» à¶ºà¶ļà¶§
â Ī
Ġà¶ħ à¶¤
Ġà¶¶à¶½ à¶ºà¶º
à¶¹ à¶¯
à¶ľà¶¸ à¶±à·Ģà¶½à¶§
Ġà¶ĳà¶ļà¶§ à·Ģà¶Ń
Ġ20 6
à¶§à¶ļ à¶ºà¶§
à·ĥà¶Ł à¶»
Ø ³
à¶§ à¶§à¶¸
Ġà¶Ń à¶§à¶¸
à¶Ńà¶» à¶¢
à¶Ĵ à¶ļà¶ļ
Ġà¶ħà¶¯ à¶§à¶¯
à¶°à¶º à¶¯
Ġà¶Ķà¶´ à·Ģà¶Ń
195 7
à¶ļ à¶´à¶½
Ġà¶´ à¶¨à·Ģ
à¶ł à¶»à¶«à¶º
à¶ļà¶½ à¶ľ
à¶»à¶± à¶ºà¶±
Ġà¶ĭà¶© à¶§à¶¸
Ġà¶ľ à¶½à¶º
Ġà¶ĩ à¶´à¶ļ
Ġà¶ĭ à·ģ
à¶´à¶Ń à¶±à·Ģ
Ġà¶ħà·ĥ à·Ħà¶±à¶ºà¶§
à¶¯à¶ļ à¶¸à¶§
Ġ190 5
1 01
à¶¯ à¶©à¶º
Ġà·Ħ à¶´à¶½
à¶ľà¶± à¶ľ
à¶»à·Ħ à¶³
à¶½à¶§ à¶¸à¶Ń
Ġ7 37
à¶ľà·Ħ à¶ľà¶±
ä »
Ġà¶ĩ à¶¶à¶§
à¶ºà¶½ à¶¸à¶º
à¶±à¶¸ à¶±à·Ģ
Ġà¶Ķà·Ģ à¶¯à¶±
Ġà¶ħà·ĥ à·Ħà¶±à¶ºà¶ļ
Ġà¶ĳà¶½ à·Ģà¶±à·Ģ
à¶©à¶½à¶º à¶¯
19 31
Ð½ Ð¸
à¶º à·Ħà¶½
à¶ļ à¶ļà¶º
à¶® à¶ļà¶¯
à¶¸à¶ľ à¶ļ
Ġà¶ļà¶»à·Ģ à¶´
Ġà¶ħà·ĥà¶»à¶« à¶ļà¶¸
à¶´ à¶³
à¶· à¶»à¶«à¶º
Ġà·Ģà¶½ à¶ļà¶±
Ġà¶´à·Ħ à¶¯à¶½
Ġà¶Ńà·Ħ à·Ģà¶»
à·ģà¶±à¶º à¶Ń
Ġà¶¸à¶»à¶« à¶ºà¶ļà¶§
à·ħ à·Ģà¶»à¶§
Ġà¶½ à¶©
Ġà¶ĩ à¶ŀ
Ġà¶ħà·ĥ à¶¯
à¶¨ à¶ļà¶®
Ġà¶»à¶¢ à¶¸
Ġà¶¶à¶© à·Ģà¶½
Ġ24 5
Ġ194 1
Ġà¶» à¶¶à¶±
à¶±à¶§ à¶±
Ġ5 20
à¶ĳà¶ļ à·ħ
Ġ20 4
Ġà¶¸à·ħ à¶ľà¶¸
Ġ37 5
1 30
à·ĥ à·Ģà¶»
Ġà¶ļ à·Ħà¶Ń
à¶° à¶ļà¶¸à¶ļ
Ġà¶¢ à¶ºà¶§
à¶ľà¶± à¶ļà¶ºà¶ļ
à·Ģà¶»à¶º à¶º
Ġà¶¸à¶½ à¶ºà¶§
Ġ6 0000
Ġà·Ģà¶»à¶¯ à·Ģà¶½
à® µ
à¶°à¶ºà¶± à¶§
Ġà·Ģ à·ħà·Ģ
à¶´ à¶«à¶ºà¶±
Ġà¶Ķà¶¶ à¶§à¶º
à¶±à¶ºà¶ļ à¶º
Ġà¶ĳà¶½ à¶¸
Ġà¶ĭà¶© à¶ľà¶¸
à¶±à¶ļà¶§ à¶Ń
Ġ23 6
Ġà¶»à¶Ńà¶± à·ĥ
à¶« à¶ļà¶º
à¶ħ à¶´à¶Ń
Ġà¶ħà¶© à¶ļà¶§à¶Ń
à¶Ľ à¶»à¶º
Ġà¶ħà¶¢ à¶§
6 00
à·Ģ à¶±à·Ģà¶¯
Ġà¶¶ à¶§à¶´
Ġ19 12
Ġà¶ĭà¶½ à¶´à¶±
Ġà¶¸à·Ħà¶ľà¶¸ à·ĥ
à¶º à¶¤
à¶¸ à¶©à¶½
à·Ħ à·Ĥ
à·Ħ à¶¯à¶½
à¶© à¶¸à¶½
à¶ħ à¶¸à¶½
Ġà¶§ à¶ļà¶»à¶±
Ġà¶¢à¶± à¶Ŀ
à·Ĥà¶« à¶ļ
Ġà¶±à¶ľ à¶»à·Ģ
à¶ļà¶± à¶ľ
à¶ľ à¶ł
à¶° à¶±à·Ģà¶½
à·Ħà¶§ à¶±à¶¸
à¶¯à¶© à¶ºà¶¸
â Ħ¢
à¶¯ à·Ģà¶»à¶º
Ġà¶¢ à·Ģà·ĥà¶¸
à¶ł à·ģ
à¶Ĵ à¶¯
à¶Ľ à¶ºà¶±
Ġà¶Ĩà·ĥ à¶±à·Ģà¶½
Ġà¶±à¶© à¶ºà¶ļ
Ġà¶ĩà¶¯ à¶¶
Ġà¶ºà·Ħ à¶ľ
Ġà¶¢à¶½ à¶·
à¶µà¶½ à¶ºà¶±
Ġà¶´à¶»à¶« à¶¸
à¶§à¶ľ à·Ħà¶½
Ġà¶¸ à¶¬à¶½
à¶ºà¶± à¶ļà¶½
à·Ģà¶»à¶«à¶º à¶º
à·Ģà¶³ à·Ģà¶Ń
à¶¸à¶©à¶ļ à·ħà¶´
à·Ĭ à·Ĵ
à·ı à·Ĵ
à¶º à¶¸à¶±à¶§
à¶° à·Ģà¶ľ
à¶ħ à·ĥà¶·
à·ĥà¶º à¶´
à¶ĭ à¶ł
Ġà¶īà¶© à¶±
à¶ħà¶» à¶ľà¶½à¶º
Ġà¶»à¶« à·ģ
Ġà¶¥ à¶±à·ĥ
à¶»à¶ľà¶¸ à¶±à¶ºà¶§
à¶Ń à¶¶à·Ģ
Ġà¶ľ à¶ľà¶§
à¶· à¶ļà¶Ń
19 39
à¶Ńà¶ºà¶§ à¶¯
Ġà¶Į à¶±à¶±à¶º
à¶Ń à·Ĩ
Ġà·Ģà¶© à·Ģ
Ġ17 9
Ġà¶ħà¶± à¶½
Ġà¶ħà¶Ń à¶®
à¶±à¶§ à¶±à¶¸
à¶Ĩ à¶ľà¶¸à¶ļ
Ġà¶īà¶³ à¶´à¶±
à·Ģà¶ºà¶§ à¶¯
Ġà¶Ĩà¶ºà¶Ńà¶±à¶º à¶Ń
à¶ľà¶¸à¶º à¶º
Ġà¶¢à¶±à¶ľà·Ħ à¶±à¶ºà¶§
à·Ħ à¶ºà¶¯
Ġà·ĥ à¶«à·ĥ
Ġà·ĥà¶¸ à¶»à¶«
à¶¸à¶Ń à¶·
Ġà¶ľà¶± à¶±à¶º
Ġà¶Ĩà·Ģ à¶©à¶±
Ġà¶ħà¶ºà¶§ à¶±à¶¸
Ġà¶ľà·Ħ à¶±à·Ģà¶¯
Ġ23 2
ĠâĢİ âĢ¡
à¶± à¶±à¶ļ
Ġà¶ħ à¶§à¶½
à¶´ à¶»à¶¯
à¶´ à¶½à¶±
à¶© à¶¶à¶½
Ġà¶ļà¶» à¶«à¶ºà¶§
Ġà·ĥà¶¸ à¶»à¶¢
à¶ħ à¶¯à·Ħà·ĥà¶ļ
Ġà·Ģà·ĥ à·Ģ
Ġà¶¸à·ħ à¶´à·Ħ
18 18
Ġà¶ħà¶¬ à·Ħ
Ġà¶Ĩà¶ļà¶» à¶ºà¶ļ
Ġà¶»à·ĥà¶ļ à¶Ń
Ġà¶ļà¶Ńà¶» à¶ľà¶¸à¶§
à¶ļ à¶´à¶±
Ġà¶ĳ à¶½à¶±
Ġà¶º à¶¸à¶ļà¶§
à¶Ĵ à¶´
Ġà·Ģà¶» à¶±
à¶¸à¶« à¶§à¶¸
à¶Ĩ à¶ľ
Ġ201 12
à¶Ĭ à¶ľ
Ġà¶ħà¶ľ à¶»
Ġ23 4
Ġà¶ħà¶»à¶¹ à¶±à·Ģ
à ¦
à·Ħ à¶·
à¶¶ à·Ģà¶¯
à·Ĥ à¶¸à¶§
Ġà¶Ķ à·Ĥ
Ġà¶ķ à¶±à¶ļà¶¸à¶ļ
à·Ĥà¶« à·ģ
Ġ3 01
Ġà¶ļà¶© à¶ļà¶»à¶¸
à·Ĥà¶«à¶º à¶¯
Ġ6 25
44 44
à¶´ à·ĥà¶±
Ġà¶º à·ĥà¶§
à·Ħà¶½ à¶¶
à·ĥà¶» à·ħ
à¶´à¶ļ à¶ºà¶±
à¶»à¶«à¶º à¶¸
à¶°à¶ļ à·Ģà¶½
Ġ01 17
à¶´ à·ĥà¶ļ
Ġà¶ĳ à¶¶à·Ģ
à¶¢ à¶ļà¶»à¶«à¶º
à·ģà¶º à·Ģ
à¶»à·Ģà¶» à¶ºà¶±
Ġà¶¢à¶±à¶´à¶¯ à¶ºà¶ļ
à¶Ńà¶ľ à¶»à·ĥ
à¶ĩà·ĥ à·ħ
à¶ļ à¶±à¶§
Ġà·Ģ à·ħà¶§
à¶ľ à¶µà¶½à¶º
à¶® à¶´
Ġà·Ģà¶± à¶ºà¶ļ
à¶ļà¶½ à·Ģà¶Ń
à¶ľà¶«à¶ļ à¶ºà¶ļà¶§
Ġà·ĥà¶ļà¶½ à·Ģ
à¥ į
Ġà¶ļà¶¶à¶» à¶ľ
Ġà¶±à·Ģ à¶ºà¶§
Ġà¶ħà·Ģà¶± à¶Ńà·Ģ
Ġà¶ħà¶¯à·Ħ à¶ľà¶±
à¶± à¶«
à·Ĥ à¶¯à¶º
Ġà¶Ĵ à¶§
à·Ħà¶½ à¶§à¶Ń
Ġà¶ķ à¶¶
à¶ħà¶´ à·Ħà·ĥ
Ġà¶Ī à·Ħ
Ġà¶¢à¶±à¶ľà·Ħ à¶«à¶ºà¶ļ
Ñĥ Ð
Ġà¶´ à¶¯à¶»
Ġà¶ħà¶´ à¶ľà¶¸à¶±à¶º
Ġ19 25
à¶ķ à·ĥà¶º
à·ħà¶³ à·ĥà¶½
à·ĻâĢį à·Ļ
195 1
195 5
à¶§ à¶ļà¶»
à¶ľ à·Ģà¶º
à·ħ à¶«à¶º
Ġà¶» à¶´
à¶½à¶ļ à¶ºà¶§
à¶¯à¶± à¶ľ
à·Ģà¶¯ à¶ļ
à¶½à·Ģ à¶ºà¶±
Ġ19 27
à¶łà¶» à·Ģà¶Ń
Ġ20 9
Ġà¶¶à¶¶ à·ħà¶±
à¶» à·ħà¶ļ
Ġà¶ĳà¶ļà¶ļ à¶Ń
à¶»à¶® à·Ģà¶½
Ġà·ĥà¶´ à¶ºà¶½
à¶¸ à·Ģà¶§
Ġà¶¸à·Ħ à¶»à¶¢à¶Ń
à·Ħà·ĥ à¶»
à·ĥà¶» à¶±à·Ģ
à¶Ĩ à¶ļà¶»
Ġ20 7
à·ĥà·Ħ à¶ľà¶Ńà·Ģ
Ġà¶ħà¶ľà¶º à¶º
Ġ21 7
à¶±à¶Ł à¶§
Ġà® ¤
Ġà¶¸à·Ħà¶»à·Ħ à¶Ń
Ġ à·ĵ
à¶½ à¶¶à·ĥ
Ġà¶± à¶§à¶º
Ġà¶ĳ à¶±à·ĥ
Ġà¶Ĩ à·Ģà·ĥ
à¶ħ à·Ĥ
Ġà¶´à¶Ń à¶±à¶º
Ġ19 24
Ġà·Ģà·ĥ à¶»à¶º
Ġ27 8
à¶§à¶´à¶Ń à¶§
ĠÐ ¸
à·ħ à¶¶à¶³
Ġà¶» à¶©
Ġà¶ħà¶Ń à¶º
à¶ķ à¶±à¶º
Ġà¶¢à¶±à·Ģ à¶»à¶¸à¶§
à·ħà¶³à¶´ à¶½à¶§
Ġà¶¶à¶§à¶± à¶½
Ġà¶½ à¶Ńà·Ģ
à·Ħà·ĥ à¶§
Ġà¶īà¶¯ à¶ľà¶Ń
à·ħà¶³ à¶ľà¶±
à¶ļ à¶¡
à¶¢ à¶»à¶º
à¶¨ à¶±
Ġà¶Ńà¶»à¶ľà¶º à¶Ń
Ġà¶»à¶Ł à¶¯à¶ļ
Ġà¶´à·Ģà¶» à¶±à·Ģ
à·ĥ à¶ºà¶§à¶Ń
à¶´ à¶±à·Ģ
Ġà¶± à¶½à¶ºà¶ļ
Ġà·Ħ à¶¸à¶ļ
Ġà¶ľ à¶¢à¶°
à·Ģà¶§ à¶±à¶¸
à¶¸à·Ħà¶± à¶§
Ġ99 9
ç Ķ
à¶ļ à¶±à¶ºà¶ļ
à¶¯ à¶¶à¶»
à¶ľ à·ħ
Ġà¶¯ à·ĥà·Ģ
à¶´à¶Ń à¶Ń
à¶«à¶º à¶¸
Ġà¶¶à¶½ à·Ģà¶±
Ġà¶¢à¶± à¶½
à¶ĭ à¶±à¶±
à¶ķ à¶º
Ġà¶±à¶ľà¶» à¶¶à¶¯
Ġ22 00
à·ıâĢį âĢį
à¶ºà¶ļ à·ħ
à¶Ńà¶» à¶¸à¶¯
à¶¹ à¶Ń
Ġà¶ļà¶§ à¶ľ
Ġà·Ħà¶» à¶¶à¶»
à¶ĭ à¶±à¶Ń
Ġà¶ļà¶© à·ĥ
Ġà¶īà·Ģà¶Ń à¶½
Ġà¶ĭà¶¹ à¶½à¶Ń
à¶± à¶ĳà¶±
à·ĥ à¶¯à¶»
à·Ģà¶½ à·Ģà¶½
Ġà¶±à¶¸ à¶½
à¶±à¶ºà¶ļ à¶§à¶¸
à¶¸à¶» à¶ľ
Ġà·Ħà¶¯ à¶§
à¶¥ à·Ģà¶»à¶ºà¶ļ
Ġà¶ĳà¶ļà¶§ à¶±à¶¸
à¶´à¶¯ à¶±à¶¸
Ġà·Ģà·ĥ à¶Łà¶ºà¶§
Ġà¶« à¶ºà¶º
194 2
à¶»à·ĥà¶ļ à¶ºà¶ļ
à¶ħà¶¬ à¶±
æ Ĺ
à¶¸ à·Ģà¶¸
Ġà¶± à¶ľà¶º
à¶°à¶±à¶º à¶§à¶Ń
Ġà¶Ľ à¶½
Ġà¶¯à¶© à¶¸à·ĥ
Ġà·Ħà¶»à·Ģ à¶¸
à¶± à·ĥà¶º
à¶Ń à¶¸à¶Ń
Ġà¶¶ à¶ºà¶¯
à¶ł à¶½à¶Ń
à·ĥà¶± à¶½
Ġà¶ħà·Ħ à¶¸à¶¯
Ġ19 35
à¶Ŀ à¶§
à¶«à¶ºà¶ļ à¶§à¶Ń
Ġà¶´à¶§ à¶½à¶ºà¶ļ
Ġà·Ģà·Ħ à¶»à¶ļ
Ġà¶Į à¶«
Ġà¶¶à¶»à¶´à¶Ń à·ħà¶º
Ġà·Ħà¶¬ à¶ľ
Ġà·Ģà·ħ à¶ļà¶±
à¶½ à¶ļà¶»à¶«à¶º
Ġà¶± à·Ħà¶ºà¶§
Ġà·Ħ à¶©à¶§
Ġà¶ĩ à¶¢
à·Ĥ à¶ļà¶§
à¶ħ à·Ħà¶ļ
à¶Ķ à·ĥà¶´
à¶½à¶ļ à¶Ń
à¶ī à¶º
Ġà¶Ĵà¶ļ à·Ģà¶Ń
Ġà¶¶à¶½à¶° à¶»à¶º
Ġ23 00
195 4
Ġà¶±à¶»à¶¹ à¶±à·Ģ
Ġà¶± à¶ºà¶ļ
à¶« à·Ħà¶½
Ġà¶ĳ à¶Ńà¶±à¶º
à¶Ľ à¶«à¶ºà¶ļ
Ġà¶Ĭ à¶ľà¶½
Ġà¶© à¶ºà¶¸à¶±
Ġà¶¸à¶½ à¶´à·Ħ
à¶ľà¶» à¶´à¶Ńà¶±
15 00
à¶»à¶¶ à¶½à¶ºà¶ļ
à¶± à¶±à¶§
Ġà¶¸ à¶ľà¶Ń
Ġà·ĥà¶¸ à¶»à¶¯
à¶· à·Ģà¶ºà¶§
Ġà¶° à¶±à¶ºà¶§
Ġà¶¸à¶½ à¶¯
Ġà¶ħà¶¸à¶Ń à¶ļà¶¸
à¶°à¶ļ à·Ģà¶½à¶§
à® ³
à¶© à·Ģà·ĥà¶±
à¶Ł à¶¸à¶º
Ġà¶ħà¶¯ à·Ģà¶Ń
à·Ħà·ĥ à¶±
Ġà¶Ńà¶¸ à¶ľ
Ġà¶ļà¶»à¶½ à·Ģà¶Ń
Ġà·ħ à¶¶
à¶»à¶® à¶¸à·Ģ
à® ļ
Ġ150 5
Ġà·Ģ à¶¶
à¶ļà¶» à¶ºà¶ļà¶§
à¶ĳ à¶ľ
Ġà¶· à·Ģà¶ºà¶±
Ġà¶ħà·ĥ à¶±à·Ģ
Ġà¶īà·Ħ à¶§à¶Ń
à¶ºà·Ģà¶½ à¶Ń
Ġâ ī
Ġà¶ī à¶»à¶½
à¶ħ à·Ħà¶´
Ġà¶¸à·Ħ à¶ļà¶±
à¶ľà¶Ń à¶ļà¶»
à·Ģà¶»à¶º à¶Ń
à¶±à¶± à¶±
à¶¸à·Ħ à¶¯
Ġà¶´à¶±à·Ģ à¶¸
Ðµ ÑĢ
Ġà¶ĭà¶¸à¶ľ à¶ļ
Ñ ħ
Ø ¹
à·Ħ à¶±à¶¸
Ġà¶ľ à¶ºà¶Ń
à¶© à¶ºà·ĥ
Ġà¶¸à¶Ń à¶¶
à¶¥ à¶´
Ġ19 10
à¶¸à·Ħ à¶ľà¶¸
Ġà¶´à¶« à·ĥ
Ġà¶´à¶« à·Ħ
à¶ĳà¶Ń à¶±à¶Ń
à·ħà¶Ł à¶¸
à¶» à·Ģà·ĥ
Ġà¶ļ à·ĥà¶ļà·ĥ
Ġà¶´ à¶±à·Ģà¶½
Ġà¶ľ à¶½à¶¸
à¶»à¶Ń à·Ģà¶±à·Ģ
Ġà¶´à¶¯ à·Ģà¶½
Ġà¶´à¶± à¶½
à¶Ńà¶±à·Ģ à¶±à¶¸
1 20
Ġ Ñģ
à¶º à¶¸à¶§à¶Ń
à¶¸ à¶´à¶¯
à¶§ à¶ļà¶±
à¶¯ à¶¸à¶»
Ġà¶¸ à·ħà¶¯
Ġà¶± à¶½à¶º
Ġà¶¸à·Ħ à¶½à¶§
à¶»à¶ļ à¶³à·Ģ
à¶Ľ à¶´
à·Ģà¶¸ à¶©
Ġ19 28
Ġà¶ħà¶¬ à¶´
Ġ32 1
à¶¸à¶ł à¶ļ
à¶»à¶ľà·Ħ à·Ħ
< <
Ġ à·Ĳ
Ġà·Ħ à¶«à¶¸
à·ħ à¶¶à¶³à·Ģ
Ġà¶ħà¶º à·ĥ
Ġà¶ĭà¶´ à¶ļà¶»à¶±à¶ºà¶ļ
Ġà¶ħà¶© à¶½
Ġ4 60
Ġ19 34
à·ĥà·Ħ à¶ºà¶±
Ġà¶ĭà¶ºà¶± à¶§
Ġ77 7
Ġà¶ľ à¶¸à¶«
Ġà¶º à¶¯à¶¸
à¶ħ à¶§à·Ģ
à¶½à¶º à¶ľ
à¶ī à¶¹
à¶ºà¶º à·Ģ
à¶ºà·Ģ à¶´à¶±
Ġà¶ľà¶¸à¶± à¶ļà¶¯
Ġà¶´à¶± à·Ħà¶§
Ġà¶´à¶© à¶Ń
Ġà·Ģà¶° à¶¶à¶±
à¶ļà·Ħ à·Ģà¶Ń
à·Ģ à·Ħà¶»
à·Ħ à¶»à·ĥ
Ġà¶ĩ à¶¶à¶»
Ġà¶» à·Ħà¶¸
Ġà¶ĳà¶ļ à·ĥà¶Ń
Ġà¶¸à·Ħ à¶¢
Ġà¶»à¶§ à¶ļà¶§à¶¸
à·ĥà¶ļ à¶¸à¶§
à¶ħà¶± à¶´
Ġà·ħ à¶Ń
à¶¸à¶½ à¶¯
Ġà¶½à·ĥ à·ĥà¶´à¶º
Ġ21 4
Ġà¶ľ à¶½à¶§
Ġà¶Ĩ à·Ĩ
à·Ģà¶Ń à¶¯
à¶Ł à¶«
Ġà¶ĭà¶¯ à¶´
à¶»à·ģ à¶±
Ġ19 21
20 30
Ġ21 00
à¶łà¶±à¶ºà¶ļ à¶§
Ġà·Ģà¶łà¶±à¶º à¶º
à¶¸ à·Ĩ
à¶Ĥ à·Ļ
Ġà¶ĩ à¶±à¶ºà¶ļ
à·Ĥ à¶¯à¶»
Ġà¶ī à¶´à¶½
à¶Ńà¶± à¶ļà·Ģà¶Ń
à¶¸à¶¯ à·ĥ
à¶½à·Ģ à·ģà¶º
Ġà¶ħà¶ºà¶§ à¶¸
Ġà¶ļà¶»à¶ľà¶Ń à¶º
Ġ18 90
Ġ24 6
à¶¸à¶´ à¶¯à¶º
Ġâ ĸ
Ġà¶¢à¶±à¶ľà·Ħ à¶«
à·ĥ à¶®
Ġà¶» à¶¢à¶´à¶ļ
à¶· à·Ģà¶ºà¶±
à¶»à¶ļ à·ģ
à¶¸à¶± à¶»à¶Ńà¶±
à¶ī à·ģ
à¶©à¶ļ à¶±
à¶´à¶ļ à¶ºà¶ļ
Ġà¶»à·ĥ à¶ºà¶±
Ġà¶ļà¶® à¶±à¶ºà¶ļ
Ġ30 4
Ġ23 8
à·ĥà¶ļà¶§ à¶º
à¶¯ à¶¸à¶¯
Ġà¶Ń à¶±à·Ģ
à¶ħ à·Ģà¶»
à¶ĳ à¶½à¶ļ
Ġà¶¸à·Ħà¶Ń à¶ļ
Ġ4 10
Ġ35 000
Ġà¶¯à¶« à¶ľà·ĥ
Ġà¶¸à¶»à¶¯ à¶±
à¤ °
à¶½ à·ĥà¶§
à¶§ à¶´à·ĥ
Ġà¶¶ à·ħà¶¸
Ġà¶ħà¶© à¶Ń
Ġà¶»à¶¢à¶º à¶¯
Ġà¶ĩà¶´ à¶¸à¶Ń
Ġ22 7
Ġà·Ģà·Ħà¶½ à¶ºà¶ļ
25 00
à·Ħ à¶ºà·Ģà¶±
à¶¯ à¶¢à¶±à¶ļà¶º
à¶´ à¶°
Ġà·Ħ à¶Ńà¶¸
Ġà¶¶ à¶¶à¶½à¶±
à·Ĥ à¶±à¶ºà¶ļà¶§
à·Ģà¶½ à¶½
Ġà¶° à¶»à¶«
Ġà¶ļà·Ģ à¶´
Ġà¶ļà·Ģ à¶ºà¶±
à·ģà¶ļ à·Ģà¶½
20 25
à¶ľà¶« à¶±à¶ºà¶§
à¶©à¶½à¶ºà¶§ à¶Ń
ì Ŀ
à¶° à¶§
Ġà¶¶à¶½ à¶»à·Ħ
Ġà¶§ à¶½
Ġà·Ģà¶½ à¶±à¶¸
Ġà·Ħà¶» à¶¹à¶ºà¶ļ
Ġà¶ĳà¶º à¶ľ
Ġ6 10
Ġà·ĥà¶§ à·Ħà¶±à¶º
Ġà¶ħà¶¸à¶Ń à¶ļà¶¯
à¶¤ à¶Ń
Ġà¶Ĩà¶±à¶ºà¶± à¶ºà¶§
Ġà¶ļà¶¹ à¶º
Ġà¶ħà¶¯à·Ħ à¶±à·Ģ
à¶į à¶¢
Ġà¶ħ à¶ļà¶½à¶§
Ġà¶» à¶Ľ
Ġà¶Ĩ à¶łà¶»
à¶¸à¶± à¶±
Ġà¶´à¶» à¶Ńà¶»
à¶»à¶¯ à·Ħà·ĥà¶ļ
Ġà¶¢à¶± à·Ħ
Ġà¶¢à¶± à¶ļà·Ģ
Ġà¶īà¶¯ à¶´à¶±
à¶»à·Ħ à¶Ńà¶±
à¶½à·Ģ à¶±à·Ģ
à¶¢à¶±à¶º à¶Ń
Ġà·Ģà·ĥ à¶½à¶º
à¶ĳà¶¯ à·Ģà·ĥ
Ġà¶ħà¶ºà¶ļ à¶»à¶ľ
Ġà¶ļà·Ħà¶§ à¶ļ
à¶¸ à¶łà¶»
à¶½ à¶ľà¶½
Ġà·Ģ à¶§à¶±
Ġà¶± à·Ĩ
à·ħ à¶»
à·Ģà¶± à¶´à¶½
Ġà¶ļà¶½ à¶½à¶º
à¶ľà¶¸ à¶Ĩà¶»à¶ł
à¶Ķà¶¶ à·Ģà·Ħà¶±
Ġà¶»à¶¢ à¶¯à¶»
Ġ19 32
Ġà¶ĭà¶¹ à¶½à·Ģ
19 15
à¶¯à¶»à¶º à¶ľ
à¶½à¶¹ à·Ģà¶±
ïĥ ĺ
à¶ ĵ
à¶ļ à¶ļà¶»à¶«
à¶¶ à¶§à¶»
Ġà¶ĩ à¶½à¶»
Ġà¶ļà¶§ à¶»
Ġà¶ĭà¶´ à¶ľ
à·Ĥà¶º à¶ºà¶§
à·Ĥà¶ļ à¶ľ
Ġà¶ħà¶ľ à¶§à¶¸
Ġà¶Ĩà¶ºà¶Ń à¶±à¶Ń
à¶¸à·ħ à¶ľ
Ġà·Ģà¶¯ à¶¯
Ġ21 3
Ġà·ĥà·Ħà¶± à·ģ
Ġà¶Ĵà¶ļà¶ļ à·Ģà¶½
à·Ķ à¶ĥ
Ġà¶» à·Ģà¶§à¶¸
Ġà¶ĳà¶ļ à¶ļà¶º
à¶»à¶¸ à¶łà¶±
Ġà¶»à¶§ à¶¯
à¶¢à¶± à¶´à¶¯
à·Ĥà¶º à·Ģ
à¶»à¶§ à·Ģ
à¶ĭ à¶¯à¶»à¶º
à·Ģ à¶«à¶ºà¶ļ
à·ĥ à¶¶à¶±
à·Ħ à¶§à¶±
Ġà¶Ĩ à¶¬
à·Ģà¶» à¶½
à¶ĳ à¶ļà¶¯
à¶»à¶ļ à·ĥà¶·
à¶±à¶¸ à¶½
Ġà¶Ĩà¶» à¶°à¶±
Ġ4 30
à¶ºà·Ģà¶» à¶ľ
à·ģà¶ºà¶§ à¶¸
Ġà·ĥà¶½à·ĥ à¶±à·Ģ
à¶ļ à¶¨
Ġà¶± à¶ľà¶½
à¶© à¶ľà¶¸à¶ļ
à¶° à¶«à¶º
Ġà¶ĳà¶ļ à¶§à¶±
à·Ģà¶½ à·Ħ
à·Ģà¶½ à¶ºà¶±
à¶»à¶¸ à¶ºà¶§à¶¸
Ġà¶´à¶» à·ĥà¶Ń
Ġ4 25
Ġ19 23
Ġ100 000
Ġà¶ħà¶³ à¶¶
Ġà¶Ńà¶½ à¶ºà¶±
Ġ22 8
Ġ26 4
ĠÐ ²
Ġà¶Ĩà¶ľ à¶¸à¶Ń
Ġà¶ĩà¶Ń à¶±
Ġà¶´à¶» à¶¯à¶±
à·Ĩ à·Ģ
Ġ5 30
Ġà¶Ńà¶»à¶¸ à¶º
à·ĥà¶³ à¶±à·Ģ
Ġà¶µ à¶½à·Ģ
à¶§à¶¸à¶ļ à¶º
à¶Ĩà¶¯à¶» à¶ºà¶ļ
à·ĻâĢį à·ı
Ġà¶Ĭ à¶Ńà¶½à¶º
à·ģà¶ºà¶ļ à¶§à¶¸
Ġ25 2
Ġà¶¢à¶±à·Ģ à·Ħà¶»
Ġà·ĥà¶Ł à¶º
à¶Ī à¶§
Ġ å
Ġà¶ľ à¶ºà¶±à·Ģ
à¶³ à¶ļà¶ľ
à¶Ńà¶» à·Ģà¶Ń
à¶ħ à¶ľà¶½
Ġà·Ģà¶½ à¶ļà¶§
à¶ĳà·Ħ à¶¸
Ġà¶© à·ĥ
à¶ķ à¶ļà¶Ń
à·ĥà¶ºà¶ļ à¶¸
Ġ24 2
Ġà¶ľà¶½à·Ģ à¶ľà¶±
âĢįâĢįâĢįâĢįâĢįâĢįâĢįâĢį âĢįâĢįâĢįâĢįâĢįâĢįâĢįâĢį
à¶º à¶¥à¶º
à¶ļ à·Ģà¶»à¶±à¶º
Ġà¶ļ à¶¯à¶½
à·Ĥ à·Ģà¶½à¶¯
Ġà¶ħà¶º à¶ľà¶¸
Ġà·Ģà¶½ à¶ľà¶¸
à¶ļà¶§ à¶½
à¶ĩ à·Ģà¶»
à¶Ĭ à¶½
à¶±à¶» à¶ºà¶±
Ġà·ĥà¶§à·Ħà¶± à¶Ń
Ġà¶±à·Ģà¶Ń à¶¸à¶º
Ġ24 3
Ġ22 9
à® ±
Ġ Â
à¶¯ à¶ļà·Ģ
à¶¯ à¶©à¶ºà¶ļ
à¶ħ à¶»à¶º
à¶»à¶¸ à·ĥà¶¸
Ġà¶ļà¶¶ à¶½à¶ļ
Ġ49 0
à¶± à¶ºà¶±à·Ģ
à¶¶ à¶§à¶¯
Ġà¶ī à·Ģà¶±
Ġà¶Ķ à¶½à¶¸
à¶ĳ à¶±à¶ļ
Ġà·Ģà¶± à¶±à·Ģ
ĠÐ ½
Ġà¶¯à¶ľà¶½ à¶±à·Ģ
à¶° à¶±à¶ļ
à¶ł à¶½à¶±
à·Ģà·ĥ à¶ļà¶¯
Ġà¶ĳà¶±à·Ģ à¶º
Ġà¶¶à¶»à¶´à¶Ńà·ħ à¶ļà¶¸
Ġà¶ļà¶»à¶« à¶¸
Ġ44 0
8 00
Ġà¶± à·ĥà·ĥà¶´
Ġà¶½ à·Ģà¶±
Ġà¶Ĩ à·Ħà¶»
à¶ļà¶» à¶¯à¶»à¶ºà¶ļ
à¶»à¶¸ à¶¢à¶ºà¶±
à¶Ł à¶»
Ġà¶ħà·Ģà·ĥ à¶®
à·ĥà¶º à¶»à¶§
à¶Ĩ à¶ļà¶½
à¶ľà¶ºà¶ļ à¶¸
à¶ľà¶¸à¶º à¶¯
Ġ18 80
à·ĥà·Ħ à¶¢
à¶ħ à·Ģà·Ģ
à¶¯à¶» à·Ģà¶½
Ġà¶Ńà¶¸ à¶»
à¶»à·ĥ à¶Ń
à¶¨ à·Ģà¶½à¶§
à¶ħà¶¯ à¶¸à¶º
Ġà¶Ńà¶»à¶ľ à·Ģ
à·Ģà·Ħ à¶±à¶º
á Ģ
Ġ ë
à¶Ń à¶ļà¶»à¶±
à·Ķ à·ĸ
Ġà¶± à¶ºà¶§
à¶© à¶½à·ĥ
à·Ģà¶» à¶ºà¶ļà¶§
Ġà¶ļà¶½ à¶ºà¶ļ
à¶¸à¶« à¶ºà¶±
à·ģà¶± à¶½
Ġà·Ħà¶³ à¶ľà¶¸à¶ľ
Ġà¶Ŀ à¶«à¶Ń
Ġà¶¶à¶» à¶§à¶¸
Ġà¶ĳà¶ļà¶Ł à·Ģà¶±
Ġà¶į à¶±
ĠÐ ¾
ĠÃ Ĭ
Ġà¶ļ à¶±à·Ģà¶§
Ġà¶½ à¶´à¶ºà¶ļ
à¶§à¶¸ à¶¯
à¶ºà¶Ń à¶ļ
à¶¡ à¶±à¶ºà¶ļ
à¶Ķà¶¶ à¶¸
Ġà¶Ĩà¶ľà¶¸ à¶±à¶ºà¶Ń
Ġ26 9
Ġà¶ļ à¶´à¶»
Ġà¶´à·ħ à¶½à¶ļ
à¶Ľ à¶¯
à¶ĭ à·Ģ
à¶Ńà¶ºà¶ļ à¶¸
Ġ30 4444
Ġ24 4
à¶º à¶»à¶Ńà¶±
à·ĥ à·Ħà¶»
à·ĥ à·Ģà¶ºà¶±
à¶ľ à¶¢à¶±
Ġà¶¯ à¶¸à¶¯
Ġà¶ĭ à¶»à·ĥ
à¶Ńà¶» à·ĥ
à¶Ńà¶» à¶ľà¶ļ
à·Ģà¶ļ à·ħ
Ġà·ģ à·ģ
à¶ļà¶º à¶ľ
Ġà¶ħà·ĥ à·Ģ
à¶´à¶¯ à·Ģà¶±à·Ģ
Ġà¶¶à·Ħ à¶ļà¶§
Ġà¶īà·Ģà¶» à¶ļà¶»à¶±
Ġà¶ħà·ĥà¶½ à¶§à¶¸
Ġ23 7
à·Ħà¶¶ à¶»à¶«
Ġà¶ľ à¶ł
à¶© à¶ļà¶»à¶¸
à·ģ à¶«à¶ºà¶±
à¶±à·Ģ à¶©
à¶ľà¶Ń à¶ºà¶Ń
Ġ19 26
à¶Ŀ à¶±à¶ºà¶±
à·ģà¶ºà¶§ à¶¯
Ġà¶ºà·Ħ à¶¸à¶ľà¶§
Ġà¶Į à¶§à¶Ń
Ġ56 0
Ġà¶´ à¶ºà¶ľ
Ġà·Ħ à¶©à¶´
Ġà¶Ĵ à¶¸à¶§à¶Ń
à¶ļà¶» à¶´à¶Ń
à¶½à¶ºà¶ļ à¶¸
à¶½à¶±à¶º à¶§à¶Ń
Ġà¶¯à·Ħ à¶¸à¶Ń
à¶»à¶· à¶½à¶º
à·Ĥà¶¥ à·Ģà¶»
Ġà¶ĩà¶»à¶½ à·Ģà¶±
à·Ģ à¶ºà¶½
à·Ģ à·Ģà¶½à¶§
à¶» à¶½à¶§
Ġà¶¶ à¶´
à·Ģà¶» à¶¢
Ġà¶ħà·Ħ à·ħ
à¶»à¶´ à¶®à¶º
à·ĥà¶³ à¶¸
Ġà¶¢à¶±à¶¸ à¶Ńà¶ºà¶§
Ġà¶ĵ à·ģ
Ġà¶ĩ à¶ł
Ġà¶ļà¶½ à¶ĳà·ħ
Ġà¶´à·ħ à¶ļà¶»à¶±à·Ģ
Ġà¶ķà¶± à¶ļà¶¸
Ġà¶ľà¶½ à¶ľà¶¸
Ġà¶ĭà¶© à·Ħà¶§
à·ĥà¶³ à·Ħà¶±
19 38
Ġà¶ĭà¶ļ à·ĥà¶§
Ġà¶±à¶ºà¶± à¶Ń
à·ĥà¶Ł à¶¶
Ġá ¹
à¶ļ à¶¸à¶§à¶Ń
Ġà¶Ĵ à¶ĳà·Ĩ
à¶»à¶¯ à·Ħà·ĥ
Ġà¶ľà¶« à¶¯
à¶Ĭ à¶©
Ġ6 60
Ġà¶ĩà¶½ à·Ħ
Ġà¶´à¶« à¶ľà¶±
Ġ25 7
Ġà¶½à¶Ł à¶Ń
Ġà¶ħà¶§ à·Ģà¶ļ
Ġ28 6
Ġà¶»à¶ľ à·Ħà¶½
Î ¹
à¶§ à¶¢
Ġà¶ħ à¶ŀ
Ġà¶Ńà¶» à¶«
à·ĥà¶» à¶±à¶º
Ġà¶´à·ħ à¶±
Ġà¶© à¶ºà¶§
à¶ĭ à¶§
Ġ5 25
Ġ25 3
à¶Ĩà¶« à¶¸à¶©
Ġà·ĥà¶¶ à¶ļ
Ġà¶ľà¶½à·Ģ à¶ľ
Ġà¶½à¶¸à¶º à·Ģ
Ġà·ģà¶Ńà¶ļ à¶ºà¶§
ç ļ
Ġà¶ľ à·ĥà¶½
à¶¶ à¶±à·Ģ
Ġà¶½ à¶¯à¶»
Ġà¶¢ à·Ħà¶¸
à·ĳ âĢį
à·Ģà¶½ à¶ļà¶¸à¶ļ
à¶Ĵ à¶§
Ġà¶§ à¶¯
à¶¸à·ħ à·Ģ
Ġà·ĥ à¶¡
à¶© à·Ģà¶¯
Ġà¶Ķ à¶Ńà¶±à¶¯
Ġà¶ĭà¶´ à¶ºà¶±à·Ģ
01 1
Ġà¶Ńà¶¶ à¶Ń
Ġà¶ºà·Ħ à¶¸à¶ľ
à¶±à¶© à¶Ń
à¶± à¶¯à¶»
Ġà·ĥ à·ĥà¶¯
à¶® à·ģ
Ġà¶· à¶ľà·Ģà¶Ń
Ġà¶¸à·Ħà¶Ń à¶º
à¶»à·Ģ à¶¯à¶±à¶ļ
Ġà¶īà¶¯ à¶½à¶Ń
à·ĥà¶½ à¶ºà¶§
à·Ģà¶¸ à·ĥ
Ġà¶« à¶ºà¶ļà¶»
Ġà¶±à¶ľà¶» à¶ºà¶ļà¶§
Ġà¶¯à¶© à¶ºà¶ļà¶§
à·Ģà¶»à¶¯ à¶ļà¶»
Ã ŀ
à·Ģ à¶¥à¶º
Ġà¶ļ à¶¸à¶»
à¶´ à¶¸à¶ļ
à¶´ à¶ļà¶½
Ġà¶± à¶ľà¶Ń
Ġà¶ħà¶´ à¶¢à¶½à¶º
Ġà¶´à¶» à¶ºà¶±
à¶ļà¶§ à¶±
Ġà¶Ńà¶»à¶Ł à·Ģà¶½
Ġà¶¸à¶»à¶« à·Ģà¶½à¶§
Ġà¶īà·Ħà¶½ à¶§à¶¸
Ġ27 2
à¶§à¶»à¶§ à¶ļà¶§
à¶Ĩà¶¯à¶» à·Ģà¶±
Ġ à·Ĥà¶ļ
à¶¸ à¶½à¶°
à·Ħ à¶ļà·Ģ
Ġà¶Ń à¶¶à¶½
à¶¶ à¶±à¶º
Ġà¶ļà¶»à¶± à¶ļà¶±
Ġà¶ħà¶´ à¶¸
à¶¸à¶ļ à¶§à¶¸
à¶±à¶¸ à¶ľ
Ġà¶¶à¶½ à¶±à·Ģà¶§
à¶ºà¶¯ à¶¸à¶Ń
Ġà¶¯à·Ģà·ĥ à¶§à¶¸
Ġà¶»à¶® à¶ºà¶¯
Ġ30 6
Ġ26 5
Ġà·Ģà¶ºà·ĥà¶ļ à¶¯
Ġà¶ħà¶§à¶´ à¶§
à¶¢ à¶ºà¶½à¶Ń
à¶ħ à¶½à·Ģ
à¶Ĵ à¶¶
Ġà·ĥà¶³ à·Ģà¶Ń
Ġà¶ĭà¶± à¶±à·Ģ
Ġà¶ħà¶¯à·Ħà·ĥ à¶¸
Ġà¶ļà¶© à¶ļà¶»
Ġà·Ħà¶¯ à·Ħà¶±
Ġà¶»à¶¢ à¶ľà·Ħ
Ġ19 16
Ġà¶±à¶ľ à¶´
Ġà¶īà¶© à¶´
à¶ĳà¶ļ à·Ģà¶»à¶¸
à¶©à¶½ à·Ģà¶½à¶§
Ġ24 1
Ġ35 5
Ġà¶½à¶¸à¶º à¶ľ
à¶º à¶´à·ĥ
à¶ļ à·Ĩ
à·Ħ à¶©à¶º
Ġà¶¯ à·Ģà¶§à¶±
à¶¢ à·ĥà¶·
à¶»à¶Ń à¶½à¶ºà¶§
Ġà¶¸à¶Ń à¶½
Ġà¶¸à¶Ń à¶ľ
à¶»à¶´ à¶½
Ġ30 7
7 00
Ġà¶ħ à·Ģà¶±à¶¸
Ġà¶¶ à·ħà·ĥ
Ġà·ĥà¶³ à¶±
Ġà¶ĭà¶© à¶»à¶§à¶§
à·ħà¶ļ à¶«
Ġà¶¸à¶Ńà¶º à¶Ń
Ġà¶±à¶½ à·Ģà¶±
à¶Ń à¶¶à¶¸
à¶¸ à¶ļà¶»à¶«à¶ºà¶±
à¶¯ à¶±à¶§
Ġà¶ħ à¶Ľ
Ġà¶ľ à¶¢à¶»
Ġà¶¶ à¶ºà¶§à¶¸
Ġà¶ī à¶»à¶´
Ġà¶ľà¶± à¶«
Ġà¶ķ à¶ľà¶±à¶º
Ġà¶±à·Ģ à·Ģà¶±
à¶§à·ĥà¶ļ à¶ľ
Ġ28 7
à¶ľà·Ħ à¶«à¶º
à·Ģà·ħ à¶ļà¶§
Ġà·ĥà¶»à¶« à¶´
Ġ99 0
Ġ20100 1
3 50
à¶¸ à¶¬
à¶§ à·Ĩ
Ġà¶¸ à·ĥà¶±
Ġà¶¶ à¶ļà¶½
Ġà¶ĭ à¶ºà¶´
Ġà¶ħà¶º à¶©
à·ĥà¶» à¶ł
à·Ĩ à¶½à¶º
Ġà·Ģà¶§ à¶½à¶º
à¶¸à¶½ à¶¢
à¶½à¶ļà¶§ à¶¯
Ġà¶ħà¶´à¶±à¶ºà¶± à¶ºà¶±
à¶»à¶ļà¶® à¶±à·Ģà¶½
à¶ļ à·Ģà¶»à¶±
Ġà¶ļ à·Ģà¶¸
à¶´ à·Ģà¶º
Ġà·Ħ à¶Łà·Ģ
à¶¢ à¶«à¶º
à¶±à·Ģ à¶§à¶Ń
à·Ģà¶ļ à¶½
à¶Ńà¶½ à¶ºà¶ļà¶§
Ġà¶ļà¶»à¶ľ à·Ħà¶±
Ġà¶īà·Ģà·ĥ à¶ľà¶±
Ġà·ĥà·ĥ à¶¯à¶±
à¶»à¶¸à¶± à·ģ
Ġà¶¢à¶½à¶± à¶½
à¶´ à·Ģà·ĥ
à¶© à¶ľà¶»
Ġà¶ĳ à¶½à¶º
Ġà¶ī à¶Ńà¶»à¶ļ
à¶³ à¶±à¶¸
Ġà¶ľà¶Ń à¶ļà¶»à¶´
Ġà¶´à¶¸à¶« à¶¸
à¶¶à¶½ à¶±à·Ģ
Ġà¶¸à¶½ à¶¸
19 14
Ġ18 50
Ġà¶« à¶ºà·Ģà¶»
à¶»à·Ģà¶º à¶Ń
å¹ ´
à¶§ à¶ł
Ġà¶º à·Ģà¶Ń
à¶® à¶ºà¶Ń
à¶ļà¶» à¶ł
Ġà¶¸à¶ľ à¶°
à·ĥà¶» à¶½à¶¸
Ġà·Ģà¶§ à¶½à¶´
Ġà·ħà¶Ł à¶ļà¶¯
Ġà¶±à¶Ńà¶» à¶ļà¶»
Ġà¶ļà¶»à¶¯à¶» à¶ºà¶§
Ġ07 18
à·ĥà¶»à·Ħ à¶§à¶¸
Ġ35 6
à¶Ńà·Ħ à·Ģ
Ġà¶¶à¶¹ à·ĥà¶»
à¶ĳ à¶ºà¶¸
à¶¢à¶±à¶º à¶º
à¶ļà¶ºà¶ļ à¶¸
Ġà¶ķà¶ļ à¶¸à¶º
ãģ «
à·ĥ à¶©
à¶½ à¶¸à¶½
à·Ħ à¶¶à¶»
Ġà¶Ń à·Ģà¶±
Ġà¶ī à¶¹à¶½
Ġà¶¶à¶½ à¶ĩà¶±
à¶§à¶Ń à¶Ń
Ġ7 30
à¶¤ à¶¤
à¶´à¶ºà¶ļà¶§ à¶¯
Ġà¶ľà¶½à¶´ à¶ľà¶±
à·Ĵ à¶ĥ
à¶± à¶½à¶Ń
à¶º à¶Łà¶ºà¶ļ
Ġà·ĥ à¶ľà¶ºà¶ļ
Ġà¶¸ à·Ĥ
Ġà¶ĩ à¶§à¶ļ
Ġà¶Ķ à¶Ńà¶´
Ġà¶´à·ĥ à¶Ł
à¶±à¶¯ à¶§à¶Ń
Ð° ÑĢ
Ġà¶ļà¶½à¶¶ à¶ľ
Ä ģ
à¶ļà¶» à¶ļà¶¸
Ġà¶ł à¶´à¶½
à¶¹ à¶ļ
Ġà¶° à¶¢à¶ºà¶±
Ġà¶´à·Ħ à¶ļà¶»
Ġà¶īà·Ħ à¶Ńà¶ļ
à¶´à¶¯ à¶ļ
à¶½à¶ľ à¶«à¶±
à·Ģà¶ºà¶§ à¶º
à¶ºà¶ºà¶± à¶ºà¶ļà¶§
à¶ľà¶¸à¶º à¶Ń
Ġà·ħà¶Ł à¶Ń
Ġ25 1
Ġà¶¸à¶»à¶«à¶º à¶º
à·ĥà¶ļà¶§ à¶¸
Ġ33 8
194 6
à¶§ à¶µ
Ġà¶ĭ à¶»à¶ºà¶ļ
à¶¨ à¶ļà¶ºà¶ļ
à¶Ĩ à·Ģà¶§
Ġà¶ĳà¶½ à¶¯
Ġà¶ĳà¶´ à¶¸à¶«à¶º
Ġà¶ľà¶½ à·Ģà¶º
Ġà¶ĩà¶» à¶½à·Ģ
Ġà¶¢à¶½ à¶´
Ġà¶±à¶ľà¶»à¶º à¶¸
Ġà¶Ńà¶»à¶Ł à¶ºà¶ļà¶¯
à·Ħà¶¯ à·Ģà¶Ńà¶§
à¶Ĩà¶º à¶Ńà¶±à¶ºà¶ļ
Ġ27 00
Ġà·ĥ à·Ĥ
à¶³ à¶¯à¶»
à¶³ à¶´à·ħ
à·Ģà¶§ à¶¸à¶º
à¶ļà¶§ à·ĥ
à¶ī à¶©à¶¸à¶ļ
à·ĥà¶ļ à·Ģ
à¶½à¶¸ à¶®
Ġà¶īà·Ħà·ħ à¶ľ
à¶´à¶½ à¶ºà¶±
Ġà¶µ à¶½à¶ºà¶±
Ġà¶±à·ħ à¶º
à¶º à·Ħà¶º
à¶¯ à¶¸à¶¸
à¶ľ à¶ļà¶½
à·Ģà¶Ń à¶»à¶«à¶º
à¶ł à¶ł
Ġà¶´à¶¯ à¶´
à¶§à¶º à¶¸à¶ļ
Ġà¶´à¶« à·Ģ
Ġ25 9
Ġà¶¸à¶Ńà¶ļà¶º à¶Ń
á Ī
Ġà¶¸ à¶©à¶½
à¶« à·ħ
à¶« à¶ľà¶Ń
à¶© à¶ł
à¶° à·Ģà¶§
à¶° à¶ļà¶Ń
à¶¢ à¶ľà¶Ńà·Ģ
à¶´à¶ļ à·ħ
Ġà¶ļà·Ģ à¶±à·Ģ
à¶Ĭ à·ħ
Ġà¶ĳà·Ģ à¶ľ
à¶´à¶½ à¶ľà¶¸
Ġà¶±à¶» à¶´à¶Ń
Ġ26 6
Ġ00 1
à¶¯ à·Ģà¶½à¶¯
Ġà·Ģ à·Ħà¶ļ
à¶ľ à¶ľà¶¸à¶Ĩà¶»à¶ł
à¶¶ à¶ļà¶¸
Ġà·ĥà¶³ à¶§
à¶Ł à¶ºà¶ļà¶§
à¶¨ à¶ļà¶¸
à¶ħà¶¯ à·Ħà¶±
Ġà¶ļà¶»à¶´ à¶§
à¶©à¶½à¶º à¶º
Ġà¶±à¶ľà¶»à¶º à¶Ń
Ġà¶ļà¶»à·Ģ à¶ľà¶±
à·Ĥà¶¥ à¶Ń
ï Ĥ
Ġ à·Ĥà¶«
à·Ģ à¶ľà¶¸
Ġà¶± à¶ºà¶ľ
à·ħ à¶§à¶Ń
à¶ł à¶±à·Ģà¶½à¶§
à¶ħ à·Ĩ
à¶½à¶º à¶´
à¶Ł à¶¸
Ġà¶ħà¶½ à·Ģà¶¸
Ġà¶Ī à¶½
19 36
Ġ30 3
Ġà¶¯à·ĥ à¶ļà¶º
à¶»à¶¸à¶ºà¶§ à¶º
Ġ65 00
å Ĳ
à¶Ń à¶¥à¶ºà¶ļ
à¶¸ à¶±à·Ģ
Ġà¶¯ à¶ľà¶ļ
à¶¶ à¶ľà·Ģà¶±
à·ģ à¶ļà·ħ
à·ĥà¶ļ à¶¸à¶ļ
Ġà¶ļà¶¸ à¶¯
Ġà¶ľà¶½ à¶¯
à¶ħà¶¸ à¶Ńà¶»à·Ģ
à¶»à·ħ à¶½
Ġà¶Ĩà¶ľà¶¸à¶ļ à¶¸
à¶§ à·ħà¶Ł
Ġà¶Ń à¶¯à¶º
Ġà¶ĳ à¶»à¶¸
à¶ºà¶ļ à¶´
Ġà¶ĩ à¶±à·ĥ
à·Ĩ à¶©
à¶ĩ à¶ľà¶º
Ġà·ĥà¶¸à¶± à·ħà¶º
Ġà¶ĳà¶ºà¶§ à¶¯
Ġà¶ĭà¶´à¶Ń à¶§
Ġ36 4
1 19
à¶§ à·Ģà¶»à¶º
à¶¯ à·Ħà¶§
Ġà¶ħ à¶»à¶ļà¶º
à¶« à¶Ńà¶¸
Ġà¶ĳ à·Ĥ
à¶ºà¶± à¶Ĩà¶»à¶ł
Ġà¶ħà¶´ à¶½à¶ºà¶ļ
Ġà¶Ĵà¶ļ à¶ľ
Ġà¶ħà·Ħ à¶±à·Ģà¶½
à¶¸à·Ģ à¶±à·Ģ
à¶ľà¶«à¶ļ à·Ģà¶½
Ġ26 2
Ġà¶ļà·Ħ à¶±à·Ģà¶§
Ġâ Ļ
Ġà® ķ
Ġà¶´ à¶½à¶§
à·ħ à¶±à·Ģ
Ġà¶ĩ à¶¸à·ĥ
Ġà¶ĭ à¶°
Ġà¶ķà¶± à¶¸à¶º
à¶¸à¶¯ à¶Ń
à¶ľà¶½à¶º à¶ľ
Ġ19 13
Ġà¶ħà¶ľ à·Ģà¶±
à¶ºà¶´ à·ħ
à¶ļà¶© à¶½
Ġ26 7
à·ĶâĢį à·Ļ
Ġ189 5
ïģ ¶
Ġà·ĥ à¶®
Ġà¶ľ à¶½à¶±à¶º
à¶Ńà¶» à¶½à¶§
à¶ħ à¶Ńà¶ļ
à¶Ĩ à¶½à¶º
à¶½à·Ģ à¶ľ
Ġà¶»à·ĥ à¶³
à¶±à¶ľ à¶¸à¶±
à¶ĳà¶Ńà¶ļ à¶½
Ġà¶»à¶« à¶¶
Ġ27 6
Ġà¶ħà¶´à¶±à¶ºà¶± à¶ºà¶§
à¶ĩà¶Ł à¶½
Ġâī Ī
à¶¸ à¶»à¶§
à¶° à¶»à¶«
à¶±à·Ģ à¶ºà¶ļ
à¶¹ à¶ļà¶»
à¶ľà¶± à¶ļà¶ºà¶§
Ġà·Ħà¶¸ à·ĥ
à¶»à·ĥ à¶¯
Ġà¶ħà·Ħ à¶»à¶ļ
à¶¬ à¶´
à¶´à¶¯ à·Ģà¶½
19 00
à¶®à¶ļ à¶Ńà¶±à¶ºà¶ļ
à·Ģà·Ħà¶± à¶§
Ġà¶¸à¶© à¶ľ
à·ıâĢį à·Ļ
Ġà¶ħà·Ģà¶º à·Ģà¶ºà¶±
194 4
à¶īà·Ħ à·ħà¶¸
à·ĸ à·ĸ
à¶»à¶ļ à¶§à¶¸
Ġà¶¢à¶± à¶»à·ħ
Ġà¶¸à¶± à¶¯
à¶Ĩ à¶¥
Ġà¶ħà¶¸à¶Ń à¶±à·Ģ
à¶ºà¶» à¶ºà¶±
Ġà·Ģà¶º à¶»à¶º
à¶¯à¶»à¶º à¶Ń
Ġà¶ħà¶Ł à·Ģà¶±à·Ģ
Ġà¶ħà·Ģà¶ļ à¶½
Ġâ ĺ
3 000
à·ĥ à¶Łà·Ģ
à·Ħ à¶©à¶Ń
à¶§ à·Ģà¶½à¶§
Ġà·Ģ à¶°à¶ºà¶§
à¶ľ à·Ħà¶»
à·Ģà¶§ à¶»
à¶ľà¶Ń à¶·
Ġà¶ł à¶»à¶´
Ġà¶ķ à·Ĥà¶±
Ġà¶´à¶¸à¶« à·Ģ
Ġ5 15
à¶±à·Ģà¶½ à¶§à¶Ń
à¶µà¶½à¶º à¶º
Ġà·Ģà¶° à¶¯
ĠÃ ¶
Ï ģ
Ð ¿
à¶» à¶¶à¶¯
Ġà·Ģ à¶°à¶ļà¶º
à¶ľ à¶§à¶Ń
à¶ľ à¶ºà¶§à¶¸
Ġà·Ħ à¶§à¶Ń
à¶¶ à¶ĭà¶±
à¶° à¶¢
à¶¢ à·Ģà¶½à¶§
à·Ģà·ĥ à¶Ń
à¶»à¶¸ à¶«à¶ļ
Ġà·Ħà¶³ à¶±
Ġà¶ĭà¶ľ à·ĥà¶§
Ġà¶Īà¶Ń à¶ļà¶§
Ġà¶Ĭà·ħ à¶¸à¶ļ
Ġ æ
Ġà¶Ĩ à¶»à·ĥ
Ġà¶ĩà¶Ń à¶ļ
à¶Ńà¶» à¶«
à¶ī à¶½à¶±
à¶¸à¶¸ à¶¸
Ġà·Ĩ à¶ļ
Ġà¶Ĩà¶« à¶©
Ġ6 20
Ġà·Ģà·ĥ à·Ģà¶»
à¶ºà·Ħ à·ħ
ãģ Ħ
Î ½
Ġ Ù
à¶º à¶»à¶«
à¶« à¶ľà¶»
Ġà·Ģà¶ľ à¶§
Ġà¶´à¶Ń à·ħ
à·Ģà¶»à¶º à¶ľ
à¶¯à¶ļ à¶¸à¶ļ
à¶ļà¶»à¶«à¶ºà¶§ à¶Ń
Ġ07 77
Ġ33 5
Ġà¶¸ à¶©à¶´
Ġà¶¯ à¶©à¶½
Ġà¶ļà¶» à¶¸à¶Ń
Ġà¶ĩ à¶´à¶Ń
Ġà¶ĩ à¶ľà¶¸
Ġà¶Ĩ à¶ľà¶»à¶´à¶Ńà¶±
à¶Ńà¶» à¶¶
à¶ħ à¶¸à¶Ń
à¶¸à¶ļ à¶ºà¶±
Ġà¶ľà¶Ń à¶¸à¶±
à¶¸à¶» à·Ģà¶½à¶§
à¶ºà·Ģ à¶±à·Ģà¶¯
Ġà¶¸à¶½ à¶¶à¶¯
Ġà¶´à¶§ à·Ģà¶±à·Ģ
à·Ģà¶ºà¶± à¶§
Ġà¶ľà·Ħà¶½ à¶¯
à·Ħà¶»à¶« à¶ļ
à¶ļà·Ģà¶¯ à·Ħà¶»
Ġà¶ ª
à¶¯ à·Ħà¶º
à¶´ à¶ºà¶§à¶¸
à¶« à¶ļà¶¸
à¶© à¶±à¶¸
Ġà¶ĩ à¶«à¶º
Ġà¶ī à¶Ńà¶»
à¶ł à¶½à·Ģ
Ġà¶¶à¶½ à¶¶à¶½
Ġà¶ħà¶Ń à¶ĩà¶»
à·Ģà¶¸ à¶±à¶º
à¶ĭ à¶´à¶¸
Ġà·ĥà¶¯ à¶¸
à¶Ĩ à·ĥà¶º
à¶ĳà¶ļ à¶±à¶¸
Ġ6 22
Ġà¶Į à¶»à¶ľà·ĥ
à¶¤ à¶ļ
à¶»à·ħ à¶¸
Ġà¶ĭà¶» à¶ľà¶º
Ġà¶ĭà¶ľ à·Ħà¶§à¶º
Ġà¶±à·ħ à¶ºà¶ļ
à¶»à¶ļà¶» à¶½
Ġà¶ħà¶¹ à¶»à¶±
Ġà¶¯à·ģà¶ļ à¶ºà¶§
Ġà·ĥà·ħà¶ļ à¶±à·Ģ
Ġà·ĥà·ħ à·ĥà¶±
à¶ºà·ĥà¶± à¶ºà¶ļà¶§
Ġà¶ļà¶§à·Ħ à¶©à¶ļ
Ġà¶¸ à¶Ńà¶±
à¶Ĵ à¶»
à·ĥà¶ļ à·Ģà¶»
à¶ħà¶± à¶»
Ġà·Ģà¶½à¶§ à¶±à¶¸
à¶ĳà·ĥ à¶¸à¶º
à¶ľà¶ºà¶ļ à¶§à¶¸
Ġà¶Ĩà¶ºà¶Ńà¶± à¶¯
Ġà¶±à·ħ à¶½à¶§
Ġ31 6
Ġà¶¸à¶½à¶º à¶ľ
Ð° Ð»
à¶± à¶ļà¶»à¶±
à¶» à¶±à¶ºà¶ļà¶§
Ġà¶¶ à¶°
Ġà·ĥà·Ħ à¶½à¶ļ
Ġà¶ħà¶º à¶Ńà¶±à¶º
Ġà¶ľà¶Ń à¶ļà¶»à¶¸
Ġà¶ĳà¶± à¶ľà¶¸à¶±
à·ĥà¶¸ à¶»à·ĥ
à¶»à¶«à¶º à¶¯
à¶´à·Ħ à¶«
à·Ĥà¶ºà¶§ à¶º
Ġà¶«à¶º à·Ģà¶½
ðŁ Ķ
Ġà¶ĳà¶Ńà¶ļ à¶±
Ġà¶»à¶«à·Ģà¶ļ à¶ľ
Ġ39 0
Ñ Ĩ
å ¸
à¶± à¶°
à·Ķ à·Ĭ
à¶½ à¶ºà¶±à¶º
Ġà¶´ à·Ĩ
à¶³ à¶§à¶º
Ġà¶»à¶§ à¶īà¶³
Ġà¶ķ à¶ľà¶±
à¶¶à¶½ à·Ħ
Ġ7 80
Ġ30 9
à·Ħà¶ºà¶ļ à¶¯
à¶©à¶±à¶ľ à¶±à·Ģ
à¶ĭà¶¶ à¶½à¶§
à¶ĳà·Ģà¶» à·ĥ
1 13
à ´
à¶½ à¶½à¶ļ
Ġà¶¶ à·Ĩà¶½
Ġà¶Ĩ à¶Ńà¶ļ
à¶¸à¶ļ à¶§à¶Ń
à¶ºà¶¸ à¶ºà¶§
Ġà·Ħà¶» à¶¹à¶º
à¶¥ à¶±
Ġà¶īà¶© à¶¸à¶ļà¶§
à·Ģà¶ľ à¶§
à¶´à·ħ à¶´
à·Ģà¶ºà¶ļà¶§ à¶º
Ġà¶ľà¶½à·Ģ à¶´
à¶ħà·Ħ à¶¹
Ġà¶ĩà·ħ à·Ħ
à¶ĩà¶Ł à¶§
à¶º à¶¢à¶±à¶ļà¶º
Ġà¶ľ à¶»à·Ħ
à¶¶ à¶½à·ĥ
à¶© à¶§à¶¸
à¶»à¶ļ à¶¸à¶ļà¶§
à·Ħà¶± à¶ļ
à¶ļà¶½ à¶´
à¶»à·ģ à¶±à¶ºà¶ļ
à¶»à¶´ à¶¯à¶ºà¶ļ
Ġ19 01
Ġà¶Ī à¶ľ
à¶»à·ħ à¶ľ
à¶«à·ĥ à¶¸à¶»
Ġà¶ħà·ĥà¶»à¶« à¶·
à¶ľà¶© à¶¸à¶ļ
Ġ36 00
Ġà¶ĭà¶¯à¶º à·ģ
Ġà¶¯à¶Ł à¶º
Ġà¶¢à·Ħà¶¸ à¶±à¶º
á ŀ
à¶± à¶±à·Ģà¶¯
à¶½ à·Ģà¶»à¶§
Ġà¶ĳ à¶¶à¶±
Ġà¶Ķ à¶±à¶¸
à¶ł à¶»à¶§
à¶Ĵ à¶½
Ġà¶ļà¶© à·Ģà¶±
à·Ĥà¶ļ à·Ģ
à¶¬ à¶ļ
Ġ6 80
à·ĥà¶³ à¶º
à·ħà¶Ł à¶Ń
Ġà¶½à¶ľ à¶ļà¶¯
Ġ26 8
à¶Ńà¶ļà¶§ à¶¸
Ġà¶ħà¶¹ à¶Ńà¶½
Ġà¶ħà¶¸à¶± à¶ºà¶±
Ġà¶¯à¶Ł à¶½à¶½
à¶½à·Ħ à¶ļà¶§à¶Ń
Ð½ Ñĭ
à·ĥ à¶½à¶±
Ġà¶± à·Ģà¶»
à¶¶ à¶»à¶Ń
Ġà¶ī à¶¢
Ġà¶Ķ à¶´à¶±
Ġà¶Ķ à¶ºà¶½à¶§
à¶ł à¶ºà¶ļà¶§
à¶® à·Ģà¶±
Ġà¶Ĵ à·Ģà¶¸
à¶ħ à·ĥà¶»à¶«à¶º
à¶»à¶¸ à¶±à¶ºà¶ļ
à¶±à¶ļ à·Ģ
Ġà¶Ĭ à·Ĥ
à¶Ńà¶ļ à¶½
à¶ĭ à¶»à·Ħ
Ġà¶¯à·Ģà·ĥ à¶§à¶Ń
à¶ļà¶»à¶«à¶º à¶¯
Ġ6 30
à·Ħà¶Ń à·ħ
Ġà¶ºà¶§ à·Ģà¶±
à¶©à¶½ à¶ºà¶±
Ġà¶ļà¶»à¶¯à¶» à·Ģà¶½à¶§
Ġ28 00
Ġ31 5
Ġ34 1
194 1
Ġà¶ķà¶±à·Ģ à¶§à¶Ń
Ð ´
à¶º à¶Łà¶ºà¶§
à¶» à¶¥à¶ºà¶±
à¶±à¶º à·Ģà¶Ń
à¶ħ à¶·à¶º
à·Ģà¶§ à¶ºà¶±
Ġà¶¸à¶ľ à¶ĩà¶»
Ġà¶ĳà·Ģ à¶´à¶±
Ġ8 80
Ġ28 4
à¶Į à¶Į
Ġà¶Ńà¶« à¶¶
Ġà¶Ńà¶¸à¶Ń à¶¸à¶±
Ġ Ùħ
à·Ģ à¶¶à¶»
à¶½ à¶«à¶º
à¶´ à¶§à·ĥ
Ġà¶Ń à¶»à·Ģ
Ġà·Ħ à¶¸à¶§
Ġà·ģ à¶´à¶®
à¶ºà¶Ń à·Ģ
à¶ĩ à¶½à¶±
Ġà¶ħà·ĥ à¶½à¶º
Ġà¶¯à·Ģà·ĥ à¶ļà¶¯
à¶»à¶ºà¶ļ à¶§à¶¸
à¶Ńà¶½ à¶¸à¶§
Ġà¶ĳà·ĥ à¶´
Ġà¶īà¶ľà¶± à¶ľ
à·Ģà¶łà¶± à¶ºà¶±
à¶º à¶¥
à·ĥ à¶Ńà¶±
à·ĥ à¶¯à¶ºà¶§
à¶ºà¶ļ à¶°
Ġà¶¢ à¶¯
Ġà¶ħà¶´ à¶¶
Ġà·ĥà·Ħ à·Ģ
Ġà¶ħà¶Ń à·Ģà·ģ
à¶ºà¶¸ à¶ļà¶»
à¶ľà¶¸ à·Ģ
à¶Ńà·Ģ à¶ºà¶ļ
à¶±à¶» à¶¹à¶±
Ġà¶ĩà¶± à¶ľà¶Ń
Ġ25 8
Ġà·ĥà¶¶ à¶Ń
Ġà·Ģà·ħ à¶¯à¶¸
à¶ĭà¶´ à¶ļà¶»à¶«
Ġà¶¯à·Ħà¶ħ à¶§à¶ļ
à¶» à¶©à¶º
Ġà·ĥ à¶´à¶»
à¶ł à¶»à¶±
Ġà¶ħà¶¯ à·Ħà¶¸
Ġà¶´à¶» à¶»
Ġà¶· à¶ľ
à¶ºà¶¸ à·Ħ
à¶Ľ à¶±à¶ºà¶±
à¶ĩ à¶ºà¶¯
à¶ķ à·Ģà¶»
Ġà¶ºà¶ļà¶© à¶º
Ġà·Ģà¶ºà¶¹ à¶¯
Ġà¶´à¶¯à¶± à¶¸à¶º
Ðµ Ð½
Ġà¶ħà¶Ńà¶»à¶¸à¶Ł à¶¯
äº º
à¶º à¶¶à·Ģ
à¶¸ à¶´à¶Ń
à¶½ à¶»à¶§
Ġà¶Ń à¶±à¶ļ
Ġà·Ħ à¶ºà¶¸
Ġà¶ľ à¶§à¶ļ
Ġà¶ĳ à¶ºà¶½
Ġà¶ĩà¶Ń à¶ľ
Ġà¶¢à¶± à¶¶à¶½
à¶ľà¶¸ à¶«à¶º
Ġà¶ħà¶© à·Ģà¶±
à·Ħà¶» à¶´à¶ºà¶ļ
à¶ĭ à¶º
Ġà¶ļà¶© à·Ģà¶»
Ġà¶±à·Ģ à¶ľ
à¶ħà¶© à¶±
à¶©à¶± à¶ľà¶½
à·ģà¶ļ à¶®
à¶±à¶ľ à¶»à¶ºà¶§
Ġà¶ºà¶§ à¶ļà¶»
Ġà¶Ĩà¶ºà¶Ńà¶± à¶ľà¶Ń
à¶µ à¶Ń
Ġà¶Ľ à¶º
Ġ24 9
à·Ħà¶»à¶« à¶ºà¶±
Ġà·Ħà¶»à·Ģ à¶±à·Ģ
à¶´à¶´ à·Ħà·ĥ
à¶ļ à·Ħà¶§
à¶¶ à¶¸à¶ºà¶ļ
Ġà¶» à·Ģà¶½
Ġà¶ĭ à·Ģà·Ħ
Ġà¶´à¶» à·ħ
Ġà¶ĳà¶ļà¶§ à¶¸à¶º
à¶§à·ĥ à¶¯
à¶µ à·ĥ
Ġà¶¶à¶© à¶´
Ġà¶ľà·Ħ à¶¸à¶»
à¶§à·Ģ à¶©
Ġ25 4
10 7
Ġ33 6
Ġ190 6
Ġ190 7
ãĥ ¼
Ġà¶´ à¶¨
Ġà¶½ à¶ľà¶Ń
à·Ĥ à¶¸à¶ļ
Ġà·ĥà¶¸ à¶¢à¶º
à¶® à¶¯à¶ļ
Ġà¶Ĵ à¶¸à¶§à¶º
Ġà¶¸à·Ħ à¶»à¶ľ
Ġà¶´à¶½ à¶ļà¶»à¶±à·Ģ
Ġà¶Ĩà¶¯à¶» à¶ºà¶ļà¶§
Ġà¶ħà¶¸à¶Ń à¶½
Ġà¶ĩà¶± à¶ľà¶±
Ġ18 33
Ġà¶¢à¶½à¶º à¶º
Ġà¶±à·Ģà¶ļ à·Ģà¶¯
à¶½à¶ļà¶§ à¶º
Ġ29 5
Ġ31 2
Ġà¶ļà¶½à¶¶à¶½ à·Ģ
à¶ª à¶Ń
Ġ58 0
00000000 000
à¶¸à¶½à¶° à¶¸
à·Ĭ à·ı
à·Ļ à·Ĳ
à¶ºà¶± à·Ģà¶ļ
Ġà¶Ĩ à¶±à¶¸
à·Ģà¶± à¶ľ
Ġà¶Ĵ à·Ģà¶¯
Ġà¶Ĵ à¶ŀ
Ġà·Ģà¶± à¶ļ
Ġ4 01
à¶¸à·ĥ à¶¯
Ġà¶ĭà¶© à¶Ń
Ġà¶īà·Ģà·ĥ à¶¸
ãģ ¯
Ġà¶ĭ à¶©à¶ļ
Ġà¶¸à¶§ à·ĥ
à·ĥà¶½ à¶¸à¶§
Ġà¶´à·Ħà¶» à¶±
Ġà¶Ķà¶´ à¶¸à¶§
Ġ28 2
Ġà¶į à¶¯
âĸ ¬
Ġà·ĥ à¶¥
Ġà¶ĭ à¶ļà¶§à¶½
à¶±à¶Ń à¶º
à¶ºà¶Ń à¶Ń
à¶ºà¶Ń à¶ºà¶ļ
à¶¸à¶¯ à·Ģ
à¶½à·Ģ à¶ºà¶ļà¶§
Ġà¶Ī à¶¸
19 33
Ġà¶Ńà¶»à¶ľà¶º à¶¯
à¶¯à¶»à¶º à¶º
à·Ħà¶¯ à¶´
à·ĥà¶ļà¶§ à¶Ń
æĹ ¥
çļ Ħ
à¶± à·Ħà¶º
à·Ģ à¶ľà¶Ń
Ġà¶Ń à·Ģà¶»à¶±
Ġà¶ľ à·Ħà¶Ń
à¶¶ à¶Ńà¶ļ
Ġà¶ĳ à¶±à¶º
à¶ºà¶± à¶Ń
Ġà¶Ĩ à¶ľà¶¸à¶º
Ġà¶Ĩ à¶©à¶´
Ġà¶Ńà¶Ń à¶Ń
Ġà¶ļà¶»à¶¸ à¶½
à¶ĭ à¶¶à¶Ń
à¶ĭ à¶©à¶§
Ġà¶´à¶¯ à·Ģà¶¸
à¶Ĩ à¶Ńà¶Ń
à¶¶à¶½ à¶¸à¶ļ
Ġ6 70
à¶ļà·ĥ à¶±à¶º
à¶©à¶´ à¶ºà¶§
Ġà·Ģà¶¯ à¶±à¶§
Ġ29 6
Ġà¶ļà·Ħ à¶±à·Ģ
Ġ34 2
à¶Ńà¶« à¶¸à¶½
Ð¾ ÑĢ
Ġà¶ħà¶§à¶¸ à¶ľà¶½
å Ń
à¶¶ à¶ļà¶§
Ġà¶¢ à¶»à¶¸à¶»
à¶Ńà¶» à¶Łà¶ļ
à¶¸à¶§ à·ĥ
Ġà¶±à¶¸ à·Ģ
Ġà¶ķ à¶«
à¶©à¶ļ à¶¯
Ġ3 19
Ġà¶ľà¶¸ à¶±à¶ºà¶§
Ġ29 8
Ġà¶ħà¶¬ à¶ľ
Ġà¶ļà·Ħ à·Ģ
Ðµ Ð»
å Ī
à¶§ à¶ļà·ĥ
à¶© à·ħ
à¶ºà¶ļ à¶ļ
à¶ħ à¶ºà¶§
Ġà¶ħà¶Ń à¶ħà¶»
à¶Ķ à¶ºà¶º
Ġà¶ħà¶» à¶´à¶»
à¶´à¶± à¶¥à¶º
à¶Ĩ à¶¯à¶¸
Ġà¶ĳà¶½ à¶§à¶¸
à¶½à¶Ń à¶¯
à¶ķ à¶½à¶±
Ġ18 60
Ġà¶ľà¶¸à¶ļ à¶¸
Ġà¶¹ à¶º
à¶½ à¶»à¶Ńà¶±
Ġà¶´ à¶½à¶ºà¶ļ
à¶ľ à¶¤
Ġà¶¢ à¶¢
Ġà¶¢à¶± à¶¯
Ġà¶Ńà¶» à¶«à¶ºà¶§
à¶Ŀ à¶»à¶º
Ġà¶¶à¶© à¶¢
à¶ĭà¶¹ à¶º
à¶©à¶½ à¶ºà¶ļà¶§
à¶´à¶§ à¶ºà¶§
Ġ26 1
Ġà¶ħà¶¹ à¶ľà·ĥ
Ġà¶ļà·Ħ à¶ľ
âĺ ħ
à¶´à¶ļà¶»à¶± à¶ºà¶±
ïģ ¬
ðŁĳĮðŁĳĮðŁĳĮðŁĳĮðŁĳĮðŁĳĮðŁĳĮðŁĳĮðŁĳĮðŁĳĮðŁĳĮðŁĳĮðŁĳĮðŁĳĮðŁĳĮðŁĳĮðŁĳĮðŁĳĮðŁĳĮðŁĳĮðŁĳĮðŁĳĮðŁĳĮðŁĳĮðŁĳĮðŁĳĮðŁĳĮðŁĳĮðŁĳĮðŁĳĮðŁĳĮðŁĳĮ ðŁĳĮðŁĳĮðŁĳĮðŁĳĮðŁĳĮðŁĳĮðŁĳĮðŁĳĮðŁĳĮðŁĳĮðŁĳĮðŁĳĮðŁĳĮðŁĳĮðŁĳĮðŁĳĮðŁĳĮðŁĳĮðŁĳĮðŁĳĮðŁĳĮðŁĳĮðŁĳĮðŁĳĮðŁĳĮðŁĳĮðŁĳĮðŁĳĮðŁĳĮðŁĳĮðŁĳĮðŁĳĮ
Ġà¶ħà·Ħà¶½à¶ļ à·Ģà¶Ń
à¶Ń à¶«à¶ļ
à¶¸ à¶ľà¶Ń
à¶ļ à¶¢à¶±à¶ļ
Ġà·ĥ à·Ģà·ĥà¶§
Ġà¶ĩ à¶½à¶º
à¶³ à·ĥà¶½à¶ļ
à¶Ńà¶» à¶¸à¶§
Ġà¶ļà¶»à¶± à¶ļà¶½
à¶»à¶ļ à¶©à¶§
à¶¸à¶ļ à¶§à¶º
à¶Ĵ à¶¢à¶±
Ġà¶ħà¶Ń à¶¯à¶»
Ġà¶Ķà¶¶ à¶»
à¶½à¶§ à·Ģà¶Ń
à¶ºà·Ģà¶» à¶ļà¶§
à¶¯à¶±à¶º à¶¯
à¶»à¶«à¶ºà¶ļ à¶»
Ġ30 5
Ġà¶Ńà¶»à¶ľà¶º à¶º
à¶ľà¶« à¶±à¶ļ
à·ĶâĢį âĢį
Ġ57 7
Ġ59 0
à¶» à¶Łà¶±
Ġà·ĥ à¶ŀ
à¶« à¶©
à¶© à·Ģà¶±à·Ģ
Ġà¶ħà¶Ń à¶§à¶Ń
Ġà¶´à¶Ń à¶ļà¶§
Ġà¶ħà¶° à¶ļ
à¶ĩ à¶»à¶¹
Ġà¶¡ à¶Ń
Ġà¶ĳà¶» à¶¶à¶¯
à¶«à¶ºà¶ļ à¶¯
à·ģà¶± à·ģ
à¶±à·Ħ à·Ģà¶§
Ġà¶¯à·Ħ à·Ħà¶Ń
Ġà¶±à¶»à¶ļ à¶Ń
à¶½à¶ļà¶§ à¶Ń
à¶½à¶¹ à¶¯
Ġà¶¹ à·Ħ
Ġà¶ľà¶¢ à¶¸à¶±
Ġà¶Ŀà¶« à¶ļà¶¸
à·Ģ à·Ħà·ĥ
à·Ļ à·ĵ
à¶¯ à·Ħà¶ļ
Ġà¶´ à·Ģà¶»à¶º
Ġà¶¶ à¶§à¶ļ
à·Ĥ à¶±à·Ģ
à¶¢ à¶¸à¶±
à¶³ à¶´à¶½
Ġà¶¢ à¶½à¶ļ
à¶Ńà¶» à·Ģà¶¸
Ġà¶ļà·ħ à¶½à¶ºà¶ļ
Ġà¶¶à¶½ à¶½à¶º
Ġà·Ģà¶© à¶¯
à¶ħà¶± à¶°
Ġà·Ģà¶½à¶§ à·Ģà¶Ń
Ġà¶±à¶© à¶ºà¶§
Ġ18 70
Ġà¶¸à¶»à¶« à¶ºà¶±
Ġà¶ħà¶¹ à¶»à¶½
à¶¯à·Ħ à¶±à·Ģ
Ġà·ĥà·ħ à¶ļà¶¸
Ġ74 7
Ġà¶´à¶»à¶º à¶¸
Ø ´
ä ¹
à·Ħ à·Ģà¶»
à¶ľ à¶ļà¶§
Ġà¶± à¶»à·ĥ
Ġà¶¶ à¶¢à·Ģ
à¶ºà¶± à·Ģà¶Ń
à·Ģà·ĥ à¶ļà¶¸
Ġà¶ļà¶Ń à·Ģ
à·Ħà¶½ à¶§à¶º
Ġà¶ķ à¶ļà·Ģ
Ġà·ĥà¶¯ à¶ļ
Ġ20 24
Ġà¶ĩà¶± à¶½à¶º
à·ħà¶¯ à¶ľ
à·Ģà¶« à¶ľà¶½
Ġà¶ħà¶§ à·Ģà¶½
à¶´à¶¸ à¶«à¶º
à¶ħà¶· à¶ºà¶ľ
à·Ħà·Ģ à¶©à¶±
ĠÐ º
ãģ Ł
Ð° Ð½
à¶ħà¶±à·Ģ à·ĥà¶»à¶º
à·ĥ à¶ľà¶½
à¶½ à·ħ
à¶¯ à¶ļà¶§à¶Ń
Ġà¶ļ à¶ºà¶§
Ġà¶» à¶ľà¶±
à¶³ à¶½à¶±
Ġà¶Ĩ à·ģà¶ļ
à·Ģà¶± à¶»
Ġà·ĥà¶³ à¶ľ
à¶¢à¶± à¶½
à¶¯à¶±à¶º à·Ģ
Ġà¶Ŀ à¶±à·Ģ
Ġà¶¯à·Ħ à¶±à·Ģà·Ģ
à¶Ńà¶¸à¶± à¶§
Ġ31 1
Ġ57 3
0 77
ä ½
à¶» à¶Ľ
à¶Ń à¶ł
à¶° à¶ļà¶»à¶ľà¶Ń
à¶ºà¶ļ à¶ºà¶Ń
à·Ĥ à¶ºà¶§à¶¸
à¶³ à¶§à¶Ń
Ġà¶ļà·ħ à·Ģà¶¸
Ġà¶ĭà¶´ à¶¶
Ġà¶´à·Ħ à¶¯à·Ģ
à¶ºà·Ģà·ĥ à¶º
Ġ12 50
Ġà·Ģà·Ħ à·ħà¶º
à¶ĳà¶Ń à¶ļà¶¸
à·ģà·Ģ à·Ģà¶½
Ġ27 3
Ġà·Ģà·ħ à¶½à¶±
22 2
Ġà·ĥà¶Ńà¶» à·ĥ
Ġà·Ħà¶¶ à¶»à¶ļà¶©
Ġà¶ħà¶ºà¶ļà¶» à¶ľà¶±
à¶¯ à¶½à¶±
Ġà¶¶ à¶¯à¶±
Ġà¶¶ à¶ļà·ĥ
à¶° à¶±à¶Ń
Ġà¶» à·Ħà¶½
à¶ħ à¶ľà¶Ń
Ġà¶· à¶¢à¶±à¶º
à¶Ńà¶ļ à¶¸à¶§
à¶Ńà¶§ à·Ģà¶Ń
Ġà¶¸à¶Ł à¶ļà¶§
Ġà·Ģà·Ħà¶½ à¶ºà¶§
Ġ33 2
Ġ33 3
à¶½à¶³ à¶ľà¶Ń
Ġà¶¯à¶Ł à¶½
Ġà·Ħà¶Ł à·Ģà¶¸
Ð ¼
Ġà¶ļ à¶¸à¶§à¶Ń
Ġà·Ģ à·Ħà¶½à¶§
à·ģ à¶½à¶±
Ġà¶¢ à¶©à¶º
à¶ľà¶Ń à·Ģà¶½
à¶°à¶± à¶½
Ġà¶ļà¶© à¶¸à¶«
à¶´à¶±à¶º à¶§à¶Ń
Ġ30 2
Ġà¶´à·Ħà¶½ à·Ģà¶ļ
Ġà¶¶à¶½à¶° à¶»à¶ºà¶±
Ġà·Ģà¶łà¶±à¶º à¶Ń
Ġ32 2
ãģ Ĺ
ãĤ Ĵ
7 20
Ð ±
à¶» à¶»à¶Ńà¶±
à¶¸ à¶ľà¶±
Ġà¶¶ à¶»à¶¯
Ġà¶Ĩ à¶ª
à¶Ńà¶» à¶ľà¶ºà¶§
à¶¸à¶ļ à·Ģà¶»à¶º
à¶Ĵ à¶ļà¶¯
Ġà¶ħà¶» à¶¶
Ġà¶Ĭ à¶¯
à·ĥà¶¸ à¶®
à¶ħà¶¯ à¶¯
à¶ºà¶ºà¶± à·Ģà¶½
à·Ģà¶±à·Ģ à¶»
à¶ľà¶«à¶ļ à¶ľà¶Ń
Ġà¶ĭà¶´à¶ļà¶»à¶« à·Ģà¶½à¶§
à¶ĳà·ħ à·Ģà¶½
Ġà¶ļà·Ħ à¶³
Ġà¶»à¶Ńà¶± à¶´
à¶Ĩà¶±à¶ºà¶± à¶º
à¶ļ à·Ģà¶§
à¶« à¶ļà¶»à¶«à¶ºà¶§
à·ģ à¶±à¶Ń
à¶Ĥ à¶Ĥ
Ġà¶ĭ à¶±à¶º
à¶ħ à·Ģà¶½
Ġà¶Ńà¶» à¶¸à¶§à¶º
Ġ5 10
Ġ5 23
à¶ķ à¶±à·Ģà¶§
à·ĥà·Ģ à·Ģà¶½
Ġ55 5
Ġ57 1
Ġà¶ĵ à¶ļ
Ġà¶´à¶½à¶º à·Ģ
à¶ļ à·Ģà¶»à¶º
Ġà·ĥ à·ĥà¶¸
à¶ľ à¶ļà¶¸
à¶´ à¶¯à¶±
Ġà¶¯ à¶ŀ
à·ģ à¶Ńà¶ºà¶§
à·Ģà¶Ń à¶ºà¶§
à¶ł à¶ļà¶¸
à¶ļà¶½ à¶ºà¶§
Ġà¶ļà¶® à¶ļà¶º
Ġà¶ĩà¶½ à¶©
Ġà¶ĳà¶ļà¶Ł à¶¯
Ġà¶¯à·ĥ à·Ģà¶±
Ġ40 4
Ġà·Ģà·ħ à·ĥ
à¶¯à·Ģà·ĥ à¶¸
Ġ188 5
Ð¾Ð ¼
à·Ģ à¶ļà¶»à¶±
à¶ºà¶ļ à¶»à¶¸
Ġà¶» à¶Ŀ
à·Ĥ à¶»à·Ģà¶½
à¶³ à¶ļà¶¸
à¶±à·Ģ à¶±à¶±
à¶ł à¶½à¶º
à¶ħ à¶»à·Ħ
à¶ĳ à¶¢à¶±
à·ĥà¶» à·ħà·Ģ
Ġà¶ĭà¶´ à¶ļà¶»à¶«à¶ºà¶§
à·ĥà¶½ à¶ºà¶±
à¶»à·Ħ à¶ł
Ġ5 01
à¶ľà·Ħ à·Ħ
Ġà¶īà·Ģà·ĥ à¶±à·Ģ
Ġà·ĥ à¶¶à¶»
Ġà¶¯ à·ģà¶ļà¶ºà¶±
Ġà¶Ń à¶±à¶¸
à¶© à¶§à¶Ń
Ġà¶ī à¶¸à¶½
Ġà¶ħà·Ģ à¶¸à·Ģ
à¶Ķ à¶´à¶»
à¶Ńà¶¸ à¶ºà¶ļ
Ġà·Ħà¶¯ à¶¶
à·Ĥà¶ļ à¶¸à¶ļ
à¶´à¶¯ à¶ºà¶ļ
à¶¸à·Ħ à¶ľà¶±
à¶¸à·ħ à¶º
à¶ļà¶© à¶§
à·ĥà¶ºà¶ļ à¶¯
à¶Ńà¶¸à¶± à¶ºà¶ļ
Ġà¶ĭà¶ľ à·Ħà¶§
Ġà·Ģà·Ħà¶½ à·Ģà¶½
Ġ65 2
Ð° ÑĤ
à·ĥ à¶»à¶ļ
à¶§ à¶½à¶±
Ġà·Ģ à·ĥà¶Ń
à¶° à¶ļà¶»à¶ľ
à¶® à¶»à·Ģà¶½
Ġà¶· à¶±
à¶ĭ à¶³
Ġà¶´à·Ħ à¶ļà¶»à¶±
Ġà¶ħà·Ħ à¶±à·Ģà¶¯
à¶ĳà¶ļ à·ĥ
à¶Ŀ à¶§à¶ļà¶º
Ġà¶¶à·ĥ à¶ºà¶ļà¶§
Ġà¶Ķà·ĥ à·Ģà¶½
19 05
Ġ27 4
Ðµ ÑĤ
à·Ĵ à·Ķ
à¶» à¶±à·Ģà¶¯
à¶¸ à¶³à¶ļ
à¶´ à¶»à¶½
à¶¶ à·Ħà¶»
à¶© à¶½à¶±
Ġà¶Ĩ à¶±à¶º
à¶¸à¶§ à·Ģ
Ġà¶¸à·Ħ à·Ģà¶Ń
à·Ĵà¶Ĥ à·Ļ
à¶ľà¶¸ à¶»
à¶¯à¶ļ à·ħ
19 12
à¶®à¶ļ à¶·
Ġà¶¶à¶© à¶Ń
Ġà¶ħà¶¶ à¶º
Ġ57 0
Ġ190 3
Ġ900 1
Ġà·Ģ à¶ºà¶¸
Ġà¶± à¶³
à·Ĥ à¶»à¶ºà¶ļ
à¶ºà¶§ à¶ľ
à¶Ńà¶» à¶ºà¶ľ
Ġà¶ļà·ħ à·Ħà¶¸
à¶· à¶»
Ġà¶¶à¶½ à¶±à·Ģà¶±
Ġà¶· à¶½
Ġà¶· à¶ºà¶ļ
à¶ľà¶¸ à¶ºà¶±
Ġà¶ĭà¶± à¶¯
à¶Ĩ à¶§à¶±
à¶ļà¶»à¶± à¶ºà¶±
Ġà¶»à¶¢ à¶ļà¶»à¶±
Ġà¶īà¶© à·Ħà·ĥà¶»
à¶ĳà¶ļ à¶Łà¶Ń
Ġà·ĥà¶» à·ħà¶º
à¶ķ à¶§
à¶¸à¶ºà¶ļ à¶¯
Ġà¶ľà¶«à¶±à¶ļ à¶¯
Ġ26 3
à·ĥà¶±à¶º à¶Ń
Ġ04 5
Ġ47 0
à¶¢à¶±à¶´ à¶¯à¶º
Ġà® ®
à·ıà·ı à·ıà·ı
Ë Ī
å Ĭ
Ġà·Ģ à¶»à¶Ń
Ġà·Ģ à·Ħà¶º
âĢį à·Ļà·ıà·Ĭ
Ġà¶± à·ħà¶Ł
Ġà·Ħ à¶»à¶¸
à¶° à·Ħà¶¸
à¶´à¶Ń à¶¯
à¶ī à¶ľà¶±
à·ĥà¶ļ à¶ºà¶ļ
à¶¸à·Ħ à¶ľ
Ġà¶ľà·Ħ à¶±à·Ģà¶§
à¶ļà¶ļà¶§ à·Ģà¶Ń
Ġ65 1
à¶ºà¶° à¶»à¶º
Ġ190 9
Ġà¶¹ à¶¶
ðŁĺĤ ðŁĺĤ
à·ĥ à·Ħà·ĥ
à¶½ à¶ļà¶»à¶«
Ġà¶¯ à¶¸à·ĥ
à¶¶ à¶¹
à¶ł à¶»à¶ºà¶ļ
Ġà¶ħà¶´ à¶»à¶§
Ġà¶¸à·Ħ à¶½à¶ļ
à¶»à¶ļ à·ħ
à¶Ńà¶ļ à¶¸à¶ļ
à¶Ńà¶½ à¶´
Ġ4 15
Ġ6 39
à·ģà¶± à¶¯
à·Ģà¶»à¶« à·Ģ
19 37
Ġà¶Į à¶¸
Ġ31 7
Ġ31 8
Ġ45 5
à·Ģà¶³ à¶Ń
Ġà¶ļà¶§à·Ħà¶¬ à¶§
Ġ190 8
Ġ188 6
âĢĽ âĢĽ
à¶¸ à¶³à·Ģ
Ġà¶ļ à·ĥà¶ļ
Ġà¶¸ à·Ģà¶§à¶Ń
à¶ľ à¶±à¶¸
Ġà¶ħ à·Ģà¶»à¶§
Ġà¶¯ à·ħà¶º
Ġà¶ļà¶» à¶ļà·Ģà¶¸
Ġà¶ĩ à¶´à¶¯
à¶»à¶¸ à¶ļà¶§
Ġà¶ļà·ħ à¶¹à¶º
Ġà¶ļà¶§ à¶¯
à¶ħà¶´ à¶ļ
Ġà¶´à·Ħ à¶¯à¶º
Ġà¶ºà¶¸ à¶´à¶½
Ġà¶Ńà¶»à¶ľ à·Ģà¶¯
Ġ01 15
ÙĬ Ø©
å į
Ġà¶´ à¶©à¶ºà¶ļ
à¶ľ à¶¸à¶§à¶Ń
Ġà·Ħ à¶¶à¶º
Ġà¶» à·Ħà¶±
Ġà¶ĭ à¶»à¶¸
Ġà¶ļà·ħ à¶¹à¶±
à¶¸à¶Ń à¶ļà¶ºà¶±
Ġà¶ħà¶½ à¶ľà¶½
à·ĥà¶½ à¶§à¶Ń
à¶¸à¶» à¶½
à¶°à¶± à¶¯
Ġà¶´à¶± à¶±
Ġà¶Ńà¶¯ à¶§à¶¸
Ġà·ĥà¶»à·ĥ à¶½
Ġà¶ħà¶¸à¶Ńà¶» à·Ģà¶º
Ġà¶´à¶§à¶½ à·Ģà¶±
åľ °
à¶ļ à¶«à¶º
Ġà¶¸ à¶½à·ĥ
à¶ºà¶ļ à¶ºà¶ľ
Ġà¶ĩ à·Ģà¶§
à·Ĥ à·Ħ
à¶ħ à¶ħ
Ġà¶ħà¶Ńà¶» à¶½
Ġà¶ħà¶¯ à¶½
à¶ĳà¶ļ à¶Ł
à¶ºà·Ģà·ĥ à¶±à¶º
Ġ28 8
Ġà¶´à¶ł à¶ºà¶ļ
à¶© à·Ģà¶½à¶¯
à·ħ à¶¸à¶ļ
Ġà¶ħà¶º à¶¸à¶º
Ġà¶´à·ĥ à·ĥ
à¶±à¶ļ à¶ļà¶¸
à¶ľà¶½ à¶ľà¶¸
Ġ3 200
Ġà¶»à¶¢ à¶ļà·ħ
à¶ķ à¶´à¶±
Ġ18 65
Ġ30 8
Ġà¶Ľ à¶¢
10 2
Ġà¶·à¶§ à¶ºà¶ļ
Ġ47 5
Ġà® ª
à¶» à¶´à¶º
à¶¸ à¶°à¶»
à¶¯ à¶ļà¶»à¶¸
Ġà¶± à·Ģà¶ºà¶º
Ġà¶¶ à·Ģà¶±
à¶© à¶´à·ħ
Ġà¶ĳ à·Ģà¶Ń
Ġà¶ĳ à¶Ńà¶»
à·ħ à¶ºà¶ļà¶§
à·ħ à·Ħà¶º
à¶¢ à¶½à¶±
Ġà·ĥà¶¸ à¶łà¶Ń
Ġà·Ģà¶½ à¶§à¶±
à¶¡ à¶ºà¶±
Ġà·ĥà¶½ à·ĥà¶½
à¶»à¶® à¶¸à¶ļ
à¶½à¶ºà¶§ à¶¯
Ġà¶Ńà¶½ à¶´à¶Ń
à¶ĳà¶½ à¶¹
Ġà¶±à¶»à¶¹ à¶´
1 15
ä ¼
å Ľ
à·ĥ à¶«à¶º
à·Ħ à¶±à·Ģ
Ġà¶ļ à·Ģà¶§à¶º
Ġà·Ģ à·Ģà¶±à·Ģ
Ġà·Ħ à·Ģà·ĥà¶ļ
à¶ĳ à¶ºà¶§à¶Ń
à¶ĳ à¶ļà¶§à¶Ń
Ġà¶ķ à·Ĥ
à¶ľà¶½ à·Ħ
Ġà¶Ĩà¶º à¶Ńà¶º
à¶Ŀ à¶«à¶Ń
à¶«à¶Ń à¶·
Ġà·Ģà·Ħ à¶¶
Ġ14 000
Ġà¶ļà¶»à¶¯à¶» à¶ºà¶ļà¶§
Ġ28 9
Ġ29 7
Ġà·Ħà¶»à·Ģ à¶ľ
ãģ ¨
Ġâ Ĺ
à¶ļ à¶°
à·Ħ à¶ļà¶§à¶Ń
à¶§ à¶¶à¶»
Ġà¶Ń à·Ħà¶½
à·ģ à¶°
Ġà¶ĭ à¶¸à¶º
Ġà¶ļà·ħ à¶ļà¶§
à¶Ĵ à¶Ńà¶ļ
à¶Ł à¶§
01 6
à¶ºà¶¯ à·ĥ
Ġà¶´à¶± à·Ħà¶º
Ġ5 13
à¶°à¶±à¶º à¶¯
Ġà·Ģà·ĥ à¶ļà¶§
à·ģà¶ļ à·Ģà¶»à¶ºà¶ļ
Ġà¶ĩà¶½ à¶¶
Ġà¶¶à¶« à¶§
Ġà¶´à·Ħà·ħ à·Ģà¶ļ
à·ĥà¶»à¶º à¶¸
à¶½à¶³ à¶´à¶½
à¶ħà¶¸à¶» à¶´
É Ļ
â Ŀ
à¶ļ à¶Ńà¶¸
Ġà¶ļ à·Ħà¶½
Ġà¶´ à¶ļà¶º
à¶¶ à·Ħà¶¸
Ġà¶ĩ à¶ºà¶¸
à¶ļà¶§ à¶ļà¶Ń
Ġà¶ħà¶» à¶ºà¶§
Ġ4 12
19 18
Ġà¶Į à¶º
Ġà·Ħà¶Ńà¶» à¶ļà¶¯
Ġà¶ĩà¶ºà¶§ à¶¯
Ġà¶µ à·ĥ
Ġà¶ļà·Ħ à·Ģà¶±
Ġ38 8
Î »
Ġà·ĥ à¶¶à¶º
à¶´ à¶Ńà¶»à¶º
Ġà¶ĭ à¶»à¶«à·Ģ
à¶ħ à¶Ńà¶±
Ġà¶ħà¶Ń à¶ľà·ĥ
Ġà¶§ à¶¶
à¶ī à¶»à¶«
à¶ºà·Ģ à¶±à·Ģà¶§
à¶ĭ à¶´à¶º
Ġà¶ĭà·ĥ à¶ļà¶§
à¶Ńà·Ħ à¶©
Ġà¶»à¶¯ à·ħà¶ºà¶±
à¶ĭà¶¶à¶½ à¶ľ
Ð ³
à¶ļ à¶¶à¶»
à¶¯ à·Ħà¶¯
Ġà·ĥ à¶µà¶½à¶Ń
Ġà¶ĩ à¶¯à¶º
Ġà¶» à·Ģà¶±
Ġà¶ī à¶Ńà¶»à¶º
à¶® à¶¯à·ĥ
à¶ħ à¶¯à¶±
Ġà·Ģà¶± à¶¶à·Ģ
Ġà·ģ à·ĥ
Ġà¶ħà¶Ń à¶ľà·Ħà¶±
à¶ļà¶Ń à¶±à¶º
Ġà¶Ĩà¶ºà¶Ńà¶±à¶º à¶¯
Ġà·Ĥ à¶¶
Ġà¶¯à·Ħ à¶¸à¶º
Ġà¶¯à·Ħ à¶±à¶¸
Ġà¶Ńà¶½ à·Ģà¶½
12 3
ĠÐ ´
æ °
Ġà¶ Ĥ
Ġà·Ģ à¶°à¶ºà¶ļ
Ġà·Ģ à·Ħà¶»à¶±
Ġà·ĥ à¶ºà¶ļ
Ġà¶º à¶»
Ġà¶ļà¶» à¶¯à¶¸
Ġà¶¢ à¶½à¶°
à¶Ķ à¶ºà¶½
à¶ļà¶§ à·Ħà¶¬
Ġà¶īà¶¯ à·Ģ
Ġà¶ĭà¶´ à¶ºà¶¸
à¶»à¶± à¶±
à¶»à¶½ à¶±à·Ģ
Ġà¶ĩà¶ľ à·ħ
Ġà¶Ńà¶½ à¶±à·Ģ
Ġ29 4
Ġ31 4
Ġ32 7
Ġ190 2
à¶º à¶ł
Ġà¶ĩ à¶ºà¶§à¶¸
Ġà¶» à¶¯à·Ģà¶±
à¶ļà¶§ à¶±à¶¸
Ġà¶ĭà¶¯ à·ħ
Ġà¶ļà¶»à¶±à·Ģ à¶Ń
à¶Ĭ à·Ģ
Ġ6 23
Ġ7 60
Ġ7 70
Ġà¶ĭà¶¹ à·Ģà¶Ń
Ġà¶´à¶« à¶¯
Ġà¶´à¶« à·Ģà¶±
Ġà¶ĩà¶Ł à¶ļ
Ġà¶ħà¶¬ à¶¸
à¶º à·ĥà¶ļ
à¶» à·Ģà·ĥà¶¸
à·Ħ à¶ļà¶ļ
à¶§ à¶ľà·Ħà¶ľà¶±
à¶¯ à¶¸à¶ļà¶§
Ġà¶¯ à¶½à¶¯
à·ģ à¶¸à¶º
Ġà¶Ĩ à·Ģà¶ļ
à¶ł à¶»à¶«
Ġà¶ħà¶Ń à·Ģà¶»à¶º
Ġà¶ħà¶Ń à·Ģà¶»à¶ºà¶±
Ġà¶Ķà¶¶ à¶¸à¶º
Ġà¶ħà·ĥ à¶¸à¶¸
à¶Ĩ à¶¢à¶±
Ġ8 40
19 19
Ġ34 5
Ġà¶±à¶Ł à¶»à¶º
Ġà® ļ
ãĤ ĭ
å Ĩ
Ġà¶ļ à¶¸à¶§à¶º
Ġà¶¸ à¶©à¶º
à¶© à¶¤
Ġà¶ī à¶¶à¶±
Ġà¶¶à·Ģ à¶¸
Ġà¶ºà¶± à¶¯
Ġà¶´à¶Ń à¶Ń
Ġà¶Ķà¶¶ à¶±à·Ģ
Ġà¶ĭà¶´ à¶°
à¶¢à¶± à¶¶à¶½à¶º
Ġà¶Ĭ à¶Ńà¶½à¶ºà¶ļ
à¶»à·Ħ à¶ļà¶ºà¶ļ
Ġà¶ĳà¶½ à·Ģà¶´
Ġà·Ģà¶Ń à¶ľ
Ġà¶¢à¶±à¶´à¶¯ à·Ģà¶½
12 8
Ġà¶±à¶ľà¶»à¶ºà¶ļ à¶¸
à¶īà·Ħ à·ħà¶§
Î¿ Ï
é Ģ
à·ĥ à¶¯à¶¸
Ġà·ĥ à·Ģà¶½
à¶ľ à·Ħà¶¯
Ġà¶± à¶§à¶»
Ġà¶ļà¶» à·Ģà¶§à¶ļ
Ġà·ĥà·Ħ à¶ºà¶Ń
Ġà¶· à·Ģà¶ºà¶§
à¶½à¶± à¶¥
Ġà¶»à¶¢ à¶ľà¶½
Ġ9 60
19 24
Ġà¶´à¶« à¶Ńà¶ļ
à¶ħà¶Ń à¶´à¶º
Ġà·Ħà¶Ńà¶» à·Ģà¶§
à·Ģà¶±à·Ģ à¶§
à·ģà·Ģà¶½ à¶§à¶Ń
Ġà¶µ à¶½à¶ļà¶ºà¶ļ
Ġà¶ľà·Ħà¶½ à¶Ń
Ġ29 1
10 4
Ġ34 6
à·ĥ à¶ļà¶»à¶«à¶º
à·Ħ à¶ºà¶¸
à¶¢ à·Ģà¶»
à¶ļà¶» à·Ģà¶¸
à¶· à¶ļà¶½
à¶»à¶º à¶»
à¶¢à¶± à·ĥ
à·ģà¶´ à¶½à¶±
à¶Ńà¶±à¶º à·Ģ
Ġà¶ħà¶ºà¶§ à·Ģà¶Ń
à¶ķ à¶»
Ġà¶Į à·Ģà¶Ń
Ġ35 2
Ġ35 9
Ġà¶īà¶»à¶« à·Ģ
à¶ļà·Ģà¶¯ à¶¯
Ġà¶ľà¶±à¶±à¶ļ à¶ľ
Ġà¶ļà¶©à¶ļ à·ħ
ĠâĪ Ĵ
à·Ģ à¶¶à¶½
à·Ģ à¶¯à¶±à¶ļ
à¶¸ à¶»à¶¸
à·ĥ à¶¯à¶ºà¶ļ
à·Ħ à¶Ńà¶½
âĢį à·Ĵ
Ġà¶ľ à·Ģà¶¸à·ĥ
Ġà¶ĳ à¶»à¶Ń
Ġà¶Ĩ à¶»à¶°
Ġà¶Ķ à¶¢
à·Ģà¶½ à¶ļà¶ľ
Ġà·Ģà¶± à¶»
à¶½à¶º à¶»
Ġà¶ľà¶Ń à¶ļà¶»à¶±à·Ģ
à¶Ĩ à¶´à¶±
Ġà¶¯à·Ģà·ĥ à¶ļà¶Ń
Ġà·Ħà¶¯ à¶±à·Ģà¶§
à¶´à¶ºà¶ļ à¶§à¶Ń
à¶§à¶´ à¶§à¶ºà¶ļ
à¶©à¶± à¶ľà¶´
à·ħà¶³ à¶±
Ġà¶Ńà¶¯ à¶ļà¶»à¶ľ
Ġ40 5
Ġ29 2
à¶¶à·ħ à¶±
Ġ75 000
Ġ55 00
Ø§ ÙĨ
Ð¾Ð ´
à º
à¶ļ à¶ļà¶»à¶«à¶ºà¶§
à¶¯ à¶´à¶±
Ġà¶ļ à·Ģà¶ļ
Ġà¶ļ à·Ħà¶ļ
à·ħ à¶´à¶¯
à¶ºà¶ļ à·Ģà¶»à¶ºà¶ļ
à¶ħ à¶§à¶ļ
Ġà·Ģà¶± à·ĥà¶¸
Ġà¶· à¶»
à¶»à¶§ à·ģ
à·Ľ à·Ĭ
à¶©à¶ļ à¶¸à¶§
à¶»à·Ħ à¶ļà¶Ń
Ġà¶Ńà¶± à¶´
à¶ºà¶ºà¶ļ à¶§à¶Ń
Ġà¶¸à¶»à¶« à¶ļà¶»
Ġà·ĥà¶»à·ĥ à¶Ń
10 3
à® ´
Ġà¶ļà·Ħ à·Ģà¶«
Ġ32 6
à·ħà¶ľ à¶¯
à¶Ŀà¶§à¶ļ à¶ºà¶ļ
æ Ŀ
à·ĥ à·ģ
à·Ĳ âĢįâĢį
Ġà¶¸ à·ħà¶Ń
à¶° à¶»à¶ºà¶ļ
Ġà¶ľà¶Ń à·Ģà¶±à·Ģ
Ġà¶ļà¶§ à·Ģà¶Ń
à¶ĩ à¶©à¶¸
Ġà¶ļà¶¸ à¶½à¶±
Ġà·Ĩ à·Ĩ
Ġà¶ĳà¶½ à¶½
Ġà¶ĳà·ĥ à¶¸à¶º
à¶»à¶ł à¶ļà¶ºà¶ļ
à·ĥà·Ħ à¶±à¶º
Ġà¶īà¶´à¶¯ à·Ģ
à¶¯à¶»à¶Ń à¶¸
194 3
à¶±à¶Ľ à¶ºà¶ļ
à·Ģà¶¥ à¶°
à·ģà¶Ń à·Ģà¶»
à¶» à¶»à¶łà¶±à¶º
à·ĥ à·Ģà¶¸
à¶¯ à¶±à¶Ń
Ġà·Ģ à·Ģà¶¸
Ġà·Ģ à·Ģà¶´
Ġà·Ħ à¶§à¶º
à¶« à¶§à¶º
à¶ºà¶± à·ĥ
Ġà¶Ĩ à·ħ
à¶»à¶ļ à¶§à¶Ń
à¶Ńà¶¸ à¶¯
à·Ģà¶»à¶«à¶º à¶¯
à¶ħà¶Ń à·Ħ
Ġà¶ħà¶±à·Ģ à¶»
Ġà¶ĩà¶§ à·Ģà¶½
16 0
Ġ38 4
à¶½à·ĥà¶§à·Ħà¶± à¶ļ
à¶©à·ĥà¶§ à·Ħà¶±à¶º
Î ¼
à¶¯ à·ĥà¶±
Ġà¶¸ à¶»à¶Ń
à¶ľ à·Ģà¶ºà¶±
à¶° à¶½
à¶ľà¶± à·Ħ
Ġà¶Ĭ à¶ļ
à¶¶à¶½ à·Ħà¶±
à¶±à¶¯ à·ĥ
Ġ20 23
Ġà¶ºà¶§ à¶ļà¶»à¶ľ
19 29
Ġà¶¯à·Ħ à·Ħà¶Ńà¶»
Ġà¶ľà·Ħà¶± à¶ºà¶ļ
Ġà¶¸à¶Ńà¶ļà¶º à¶º
à¶ĭà¶¯ à¶ºà¶±
à¶©à¶ļà¶§ à¶¸
Ġ32 8
Ġ36 6
Ġà¶¢à¶ºà¶ľà¶Ń à·Ħ
á ī
ĉ Ġ
à¶» à·Ģà¶§
à¶» à¶¤
à·ĥ à¶Ńà¶¸
Ġà¶¸ à¶±à¶ļ
Ġà¶ľ à·Ģà·ĥ
à¶¶ à¶´à¶Ńà¶±à·Ģ
Ġà¶¶ à¶§à¶¯
Ġà¶» à·ĥà¶Ń
à¶Ķ à·Ĥ
Ġà¶ĭà¶´ à·ĥà¶»
Ġà¶ĭà¶´ à¶ļà¶»à¶±à¶º
Ġ6 13
Ġ7 40
Ġà¶»à¶§à·Ģà¶½ à¶§à¶Ń
Ġà¶ĭà¶¹ à¶§à¶¸
Ġà¶Ĩà·ĥ à·Ģà¶ļ
Ġà¶Ńà¶± à¶´à¶§
19 27
à¶¯à¶ºà¶§ à¶º
Ġà¶Ĵà¶ļà¶§ à¶º
à¶ļà¶ºà¶§ à¶¯
à·Ģà¶« à¶ºà¶±
à·Ģà·ħ à¶ľà¶¸
à® ¨
Ġà¶´à¶§à¶½ à·Ģà¶½
Ġà¶´à¶§à¶½à·Ģ à¶ľ
Ġ190 4
à·Ģà¶° à·Ħ
Ġà¶ļà¶µ à¶Ńà¶»
à¶¸ à·ĥà¶Ń
à¶¸ à¶ºà¶§à¶¸
Ġà¶¸ à¶ºà¶±
Ġà·Ħ à¶ºà¶½à¶ļ
Ġà¶ĩ à¶ļà¶º
à·Ĥ à¶±à·Ģà¶½
Ġà¶ĳà¶ļ à¶³
à¶±à·Ģ à¶ļà·Ģ
Ġà·ĥà¶¸ à¶»à¶½
Ġà¶ħà¶± à¶ļ
Ġà¶´à·ĥ à·ĥà¶±
Ġà¶§ à·Ģà¶½
à¶ºà¶º à¶·
à¶¢à¶± à¶ľà·Ħà¶«à¶º
Ġà¶Ĵà¶ļ à·Ģ
Ġà¶ļà¶»à¶½ à¶½
Ġà¶»à¶¢ à¶¯à·Ħà¶±
à¶Ŀ à·Ģà¶±
à¶¸à·Ħ à¶ļ
à¶ºà¶» à·Ģà¶½
à¶µ à¶±
Ðº Ð°
âĸ¬ âĸ¬
Ï Ħ
æ ĺ
à¶º à¶¯à·Ħà·ĥ
Ġà¶¶ à¶ļà¶»
Ġà¶» à¶¡
à¶Ńà¶» à¶ºà¶¯
à¶ĳ à¶¸à¶Ń
à¶· à¶ļà¶»à¶±
à·Ģà¶§ à¶ľ
Ġà·ĥà¶Ń à¶´à·Ħà¶ļ
à¶»à¶«à¶º à·Ģ
Ġ4 22
Ġà¶ļà¶»à¶ľ à·Ħà¶ľ
Ġà·Ģà·ĥ à¶·
Ġà¶īà¶³ à¶½à¶º
Ġà¶Ķà·ĥ à·Ģà¶º
à¶±à¶ºà¶± à¶º
200 00
Ġà¶ĭà¶¸ à¶Łà¶ļ
ĠÐ ¼
à¶©à¶±à¶Ł à¶¸
Ġ189 6
1 12
à¶Ń à¶°
à·ħ à¶ľà¶ļ
Ġà¶ĭ à¶½à¶ļ
Ġà¶ļà¶»à¶± à¶§
à¶»à¶¸ à¶´
à¶»à¶¸ à¶Ĩà¶»à¶ł
Ġà¶ħà¶± à¶´à¶±à¶Ń
Ġà¶¶à¶½ à¶ľà¶½
Ġà¶ºà¶± à¶±
Ġà¶ļà¶© à¶ł
Ġ8 35
Ġà¶Ŀ à¶±à¶ºà¶§
à¶Ńà¶ºà¶ļ à¶¯
à¶ºà¶ºà¶± à¶§
à¶©à¶¸ à¶ºà¶ļ
Ġà¶Ńà¶»à¶Ł à·Ģà¶½à¶§
Ġà·Ħà¶Ń à·Ħà¶¸
à¶»à·Ħà¶«à¶º à¶º
Ġà¶»à·Ħ à¶¸à¶±
Ġ78 7
Ġà¶±à·Ħà¶» à¶ºà¶ļ
Ð¾Ð »
ĠÃ ¼
å¤ §
à¶º à¶¶à¶Ń
à¶Ń à¶´à¶½
Ġà¶¶ à¶¸à¶»
Ġà¶¶ à¶Ńà¶§
à¶¢ à·Ģà¶±
à¶ľà¶Ń à¶ºà¶º
à¶¹ à¶¯à·Ģ
Ġà¶ħà·Ģà·ĥ à¶»à¶¯
à¶±à¶ļ à¶¸à¶§
Ġà¶ķ à¶¢à·ĥ
Ġà·Ħà¶¸ à¶¯
à·ĥà¶¸ à¶±à¶º
Ġà¶´à¶± à¶´
Ġà¶īà·ĥ à¶¶
Ġà¶īà·Ħ à¶ľ
Ġà¶ºà¶±à·Ģ à¶Ń
Ġà¶ĭà¶© à¶»
Ġà¶ĭà¶© à¶¸à·ħ
à¶´à·Ħ à¶Ńà¶»à¶§
Ġà¶ĩà¶» à¶ľà¶Ń
à¶¯à¶§ à¶¯
à·Ĥà¶ºà¶§ à¶¯
Ġ17 50
à·ĥà¶»à¶º à¶º
Ġ01 14
Ġ54 3
Ð¾ Ð½
Ġà¶ļà¶§à·Ģà·Ħ à¶ľ
7 50
Ġà¶ļ à¶ºà¶ļ
à¶ľ à¶·
à¶ľ à¶Ĩà¶»à¶ł
à¶¶ à¶»à¶ļà¶¸
Ġà¶¶ à¶¸à¶±
Ġà¶» à¶¸à¶½
à¶±à·Ģ à¶½à¶¸
Ġà·ĥà¶¸ à¶¶à¶½
Ġà¶Ķ à¶ºà¶ļ
Ġà¶ļà¶»à¶± à¶¯
Ġà·ĥà·Ħ à¶ºà·Ģ
Ġà¶ľà¶± à¶ļà¶¸
à·Ĥà¶« à¶ľ
Ġà¶ļà¶± à¶ļà¶§
à¶¸à¶ľ à¶»
Ġ6 15
Ġ7 15
à¶©à¶½à¶º à¶¸
à¶ħà¶Ń à·Ģà¶»à¶ºà¶§
Ġà¶Ńà¶½ à¶ľà¶½
Ġà¶ĭà¶´à¶ļà¶»à¶« à¶¯
Ġ27 9
Ġà·Ģà·ĥà¶»à¶ļ à¶§à¶Ń
à¶´à¶ºà¶§ à¶º
à¶¯à¶»à¶ļ à¶¯
Ġ57 5
ðŁĳįðŁĳį ðŁĳįðŁĳį
à¶º à¶´à¶¯
Ġà¶´ à¶¥
Ġà¶¸ à¶¡
Ġà¶± à¶Ńà¶»à¶ļ
Ġà¶ĩ à·ĥà¶Ń
à¶Ķ à¶Ńà¶±à¶¯
Ġà¶ħà¶» à·Ħà¶±
Ġà¶Ķà¶º à¶Ńà¶»à¶¸
Ġà·Ģà¶§ à¶ľà¶½
Ġà¶ļà¶± à¶ľà¶»
19 28
à¶»à·Ģà¶» à¶ºà¶§
Ġà¶« à¶ºà·Ģ
Ġà·Ģà¶łà¶±à¶ºà¶ļ à¶§
à·ĲâĢį à·Ļ
à·ı à¶ĥ
à¶º à¶»à¶¸à¶º
à¶» à·ħà¶Ń
à¶¸ à¶©à¶¸
Ġà¶ľ à¶»à¶¸
Ġà¶ľ à·Ĩ
à¶¶ à¶§à¶Ń
à¶¢ à¶©
Ġà¶ĭ à¶Ķà¶§
à¶Ńà¶» à¶ºà¶¸
à¶»à¶ļ à¶±à·Ģ
Ġà¶ļà¶½ à¶¯à·ĥ
à¶Ķ à¶ľ
à·ĥà¶§à·Ħà¶± à¶ļ
Ġà¶Ķà¶ļ à¶³
à·ģà¶±à¶º à¶¯
Ġà·Ĥ à¶§à¶»
Ġà¶ĩà¶½ à¶½
Ġà¶¶à¶³ à¶ľ
Ġ27 7
å ¾
æ Ī
à·ĥ à¶ļà¶»à¶±
Ġà·ĥ à¶ºà·Ģà¶±
à¶« à¶¢
à¶© à¶ºà¶¯
à¶° à¶ļà¶¯
Ġà¶ĳà¶ļ à¶¸à¶¯
Ġà¶ĩà¶Ń à·ħ
à¶ħ à·ĥà¶»
Ġà¶¸à·Ħ à¶¸à¶¯
Ġà·ĥà¶³ à¶º
Ġà¶ħà¶¯ à·Ģ
à·ĥà¶¸ à¶¯
Ġà¶ħà·ĥ à¶¸à¶»
à¶ĳà¶Ń à¶±à¶¸
Ġà¶´à·Ħà·ħ à·Ģà¶±
Ġà¶¢à·Ģ à·Ħà¶»
Ġ28 1
Ġà¶ħà¶»à¶ľà¶½à¶º à¶º
à¶¸à·Ħà¶± à¶ľà¶»
Ġ58 5
à·ĥà¶¸à¶± à·ħ
ĠâĢĽ âĢĽ
âĸ ¶
Ġ189 8
9 00
ï ĺ
à¶± à¶ĳà¶ļ
Ġà·Ģ à¶§à¶¸
Ġà·ĥ à¶ľà·Ģà¶±
Ġà·Ħ à¶¶à¶»à¶½
à¶¢ à¶»à¶ºà¶ļ
Ġà¶¢ à¶©à¶¸
Ġà¶Ķ à¶ºà¶½à¶ľ
Ġà¶¸à·Ħ à¶º
Ġà¶¶à¶½ à·Ħà¶½
à¶ľà¶ºà¶ļ à¶§à¶Ń
à¶Ŀ à¶ľà¶Ń
Ġ20 40
19 22
Ġà¶¢à¶½à¶º à¶Ń
Ġà¶ħà·Ħà¶½ à¶ļà¶§à·Ģà¶Ń
Ġà¶ľà·Ħà¶½ à¶¸
à¶§à¶ľ à·Ħà¶±
Ġà·Ģà·ħ à¶´à¶½
à¶§à¶»à¶§ à·Ģà¶½à¶§
à¯ ĩ
Ġ189 7
Ð¸Ð ¹
à¶» à¶³
Ġà·ĥ à¶´à¶½
à¶ºà¶ļ à¶»à¶½
à¶»à¶¸ à¶±à¶ºà¶§
à·Ħà¶± à¶Ń
à¶ľà¶½ à¶´
Ġà¶´à·ħ à¶ľ
Ġà¶ħà·Ħ à¶±à·Ģà¶§
Ġ6 36
à¶´à¶» à¶ºà¶±
Ġ7 27
à¶¯à¶±à¶º à¶§à¶Ń
Ġ9 80
Ġ18 17
à·Ħà¶¬ à¶´à¶§
Ġà¶Ĵà¶ļà¶ļ à¶ºà¶ļà¶§
10 5
11 00
Ġà¶ħà¶»à·Ģ à¶ľ
Ġà¶ħà·ĥà¶» à¶«à¶ļ
ĠØ ¨
Ġ ê
à¶º à·Ģà¶½à¶¯
à¶ļ à¶ħà¶°
à¶§ à·Ħà¶½
à¶ľ à¶¢à¶¶
Ġà¶» à¶¸à¶±
Ġà¶ĩà¶Ń à¶§
à·Ģà¶» à¶§à¶Ń
Ġà¶¸à·Ħ à¶±à·Ģ
à¶«à¶º à·Ħà¶´à¶Ń
à¶»à¶Ń à¶§
à¶»à¶« à·Ģà¶ļ
Ġà¶¸à¶± à·ĥà¶Ń
Ġà¶Ķà¶º à·Ģ
à¶ĭ à¶¯à¶»
Ġà¶¸à¶½ à¶ļà¶§
Ġà¶ĳà¶» à¶»
à¶ľà¶ºà¶ļ à¶º
à¶Ŀ à¶±à¶ºà¶ļ
à¶ºà¶ºà¶ļ à¶¯
Ġ28 3
à® £
Ġ33 1
Ġ38 6
Ġ95 5
Ġà¶ļà¶§à·Ħà¶¬ à·Ģà¶½
ãģ Į
Ð¸ ÑĤ
à¶½ à·Ĥ
à¶§ à¶ļà¶½
à¶¯ à¶«à·Ħ
à·Ĳ à·Ĳ
Ġà¶´ à·Ģà¶½
Ġà¶¶ à¶ºà¶±
Ġà¶¶ à¶ļà¶±
Ġà¶Ĩ à¶»à¶§
à¶±à·Ģ à¶ľà¶Ń
Ġà¶ĭ à¶±à¶§
à¶ħ à¶¥
à¶»à¶¸ à¶ºà¶§à¶Ń
à¶· à¶ºà¶¯
à¶ľà¶¸ à¶½
à·Ħà¶» à¶¹
à·ħà¶¹ à¶Ń
Ġ4 14
Ġà¶īà¶³ à¶½à¶¯
à¶´à·Ģ à·Ħ
Ġ18 73
Ġà¶ľà·Ħ à¶½à¶º
Ġà¶ĩà¶Ł à·Ģà¶½
à·ĥà¶ļà¶§ à¶¯
Ġ03 4
Ġà·Ħà¶½ à¶±à·Ģ
Ġà·Ģà·ħ à¶ļà¶§
12 6
Ġà¶ĭà¶¶ à¶ľ
à¶©à·ĥ à¶§à¶±
à·Ģà·ħà¶ļ à¶ľ
à¶Ŀà¶±à¶ļ à¶ºà¶ļ
Ġà¶ĭà·Ģ à¶¸à¶«
à· ³
à¶º à¶¸à¶§à¶º
Ġà¶´ à¶±à¶¸
à¶´ à¶«à¶Ń
Ġà¶ľ à¶¸à¶§à¶Ń
à¶° à¶ºà¶§à¶Ń
Ġà¶¢ à¶½à¶¸
à·Ģà¶§ à¶ľà¶Ń
Ġà¶»à¶§ à·Ģà¶§
19 32
à¶ķ à¶ķ
Ġà·ħà¶Ł à¶´
à·Ģà¶« à¶ľ
à¶»à¶ļà¶Ń à¶±à·Ģà¶½
Ġà¶¶à·ħ à¶½à¶Ń
à¶½ à·Ģà¶»à¶«à¶ºà¶ļ
Ġà¶± à¶¬
à¶±à¶º à¶ľ
Ġà·ĥà·Ħ à·ĥà¶ļ
à¶ī à¶½à·Ģ
à¶ĭ à¶©à¶¸
Ġà¶´à¶¯ à¶ºà¶±
à¶§à·Ħ à¶ļ
à¶§à¶ļ à¶©
Ġ18 67
à¶¤ à¶ºà¶§
à¶ľà¶ºà¶§ à¶º
à¶ħà¶ľ à¶»à¶¯à¶ľ
Ġà¶¯ à¶»à¶¯à¶©
à¶« à¶ľà·ĥ
Ġà¶ĩ à·Ģà·ĥ
Ġà·ĥà¶¸ à¶ºà¶Ń
Ġà¶ħà¶´ à¶§à¶º
Ġà¶¸à·Ħ à¶ĩà¶¸
à¶¸à¶Ń à¶ļà¶»
Ġà¶ļà¶½ à·ĥ
Ġà¶ľà¶± à¶«à¶ļ
à·ĥà¶¸ à·ĥà¶¸
Ġ6 18
Ġ6 24
à¶´à¶±à¶º à¶¯
Ġà¶ºà¶§ à·Ģà¶Ń
à¶ľà¶¸à¶±à¶º à¶º
à·Ģà¶±à¶º à·Ģ
Ġà¶Ńà¶§ à¶¸à¶±
Ġ31 3
Ġ37 7
Ġà¶ħà¶Ńà·Ģà¶» à¶ºà¶ļà¶§
Ġà·ĥà¶»à¶¯ à¶¸à¶§
Ġ ÙĪ
à·ĥ à¶ľà¶»
à¶½ à¶¸à¶ļà¶§
Ġà¶´ à¶¶à¶½
à¶´ à¶±à·Ģà¶½
à·ĬâĢį à·ĬâĢį
Ġà¶¯ à¶¶
Ġà¶Ń à¶±à¶º
à¶¶ à¶´à¶Ńà¶±
à¶© à·Ħà¶»
à·ħ à·Ģà¶ļ
à·ģ à¶Ńà¶ºà¶ļà¶§
Ġà¶ļà¶» à·ĥ
à¶ºà¶± à¶ĳà¶ļ
Ġà¶¢ à¶ļ
Ġà¶ĭ à¶¯à¶»à¶ºà¶§
à¶Ĵ à¶ļà¶½
Ġà¶ļà¶½ à¶½à¶ºà¶ļ
à·ĥà¶ļ à·Ģà¶»à¶º
à¶¯à¶º à¶ľ
à¶¢à¶± à¶¯
Ġà¶° à¶±à¶ļ
Ġà¶´à¶¸à¶« à¶Ń
Ġà·Ħà¶¯ à·Ģ
à¶½à¶° à¶»à¶ºà¶ļ
Ġà¶¸à¶« à¶©à¶½à¶º
19 21
19 34
Ġà¶ľà·ĥ à¶¯
Ġà¶ļà¶³ à¶§
Ġà·Ħà¶Ńà¶» à¶Ń
Ġà¶ĳà¶ļà¶ļà¶§ à¶¯
12 2
à® Ļ
à¶§à¶¸à¶§ à¶¸
Ġ67 5
Ġ188 9
Ù Ĳ
Ġ ÑĢ
à·Ģ à¶´à¶±
à¶Ń à·Ħà¶±
à¶Ń à¶ļà¶»à¶«à¶ºà¶§
à¶½ à¶½à¶Ń
Ġà¶´ à¶łà¶º
Ġà¶Ń à¶½à¶¸
à¶« à¶½à¶Ń
Ġà¶ľ à·Ģà¶½
Ġà¶ĭ à·Ģà¶¸
à¶¸à¶± à¶´
à¶»à¶¯ à¶ºà¶ļ
à¶ºà¶¸ à¶½
à¶¶à¶± à¶°à¶º
à¶»à¶± à¶¯
à¶´à·ĥ à¶¯
Ġ4 17
Ġ6 21
à¶»à¶´à¶§ à¶ºà¶¯
à¶ľà¶ºà¶§ à¶¯
à·ĥà·Ģ à·Ģà¶½à¶¯
Ġà·Ħà¶¬ à¶¯
à·ĥà·Ħ à¶ľà¶Ńà¶º
Ġ17 96
Ġà¶ĸà·Ĥ à¶¯
Ġà¶ħà¶§ à·Ģà¶ľ
Ġà¶»à¶§à·Ģà¶½à¶§ à¶¯
Ġ69 0
Ġ188 1
à¶¸ à·Ģà¶ļà¶ľ
à¶ł à¶±à·Ģ
Ġà¶ļà·ħ à¶±
à¶»à¶º à·ĥ
à¶½à¶º à·Ģ
à¶¹ à¶³à·Ģ
Ġà¶· à¶¨
à¶¨ à¶ºà¶º
à¶¨ à¶ºà¶ļà¶§
Ġ5 14
à¶Ńà¶½ à·Ģà¶ļ
Ġà¶ħà¶· à¶ºà·ĥ
à¶¬ à¶½à¶º
à¶Ŀ à¶ľ
Ġà¶»à·ĥ à¶ºà¶Ń
Ġà·Ĥ à¶§à¶½
à¶ºà¶¸à¶ļ à¶ľ
Ġà¶¯à¶© à·ĥ
Ġ29 3
Ġà¶ħà¶ºà¶ļ à·ħ
Ġ33 9
Ġà·Ģà¶° à¶ļà¶ºà¶±
à·ĥà¶¶ à¶ºà¶§
à¶º à·Ģà¶§
à¶ļ à¶©à¶±
Ġà¶ļ à¶´à¶¯
à·Ĳ à·Ĵ
Ġà¶ħ à¶»à¶ļà¶§
Ġà¶± à¶ł
Ġà¶± à¶§à·Ģ
Ġà¶º à¶§à¶½
Ġà¶ī à¶½à¶ºà¶´
à·Ģà¶Ń à·Ģ
à¶® à¶»à¶ºà¶§
à¶´à¶Ń à¶¸à¶ºà¶ļ
Ġà¶¸à·Ħ à¶§
Ġà·Ģà¶± à¶ľà¶Ńà·Ģ
Ġà¶ħà¶Ń à¶ľà¶ľ
Ġà·Ħà¶» à¶«à¶º
à¶ļà¶»à¶± à¶½à¶¯
Ġà¶¡ à¶±à¶Ń
Ġà¶´à¶½ à¶ļà¶»à¶½
Ġà¶ľà¶½ à¶½
à·ģà·Ģà¶½ à¶º
Ġà¶Ńà¶»à¶¸à¶§ à·Ģà¶Ń
Ġà¶Ķà·Ĩ à¶»
Ġà·ĥà¶»à¶« à¶Ń
Ġà¶¯à·Ħà¶ºà¶ļ à¶§à¶Ń
Ġ189 1
Ġà¶ĭà¶»à¶ľ à¶ºà¶±
1 18
à¶± à·Ħà¶»
à·Ģ à¶¢à¶º
à·ħ à¶ļà¶º
Ġà¶ĩ à¶»à¶Ń
à¶ħ à¶ºà¶Ń
à·Ħà¶± à¶¯
à¶±à¶ºà¶ļ à¶»
à¶¸à¶» à¶´
19 25
Ġà·Ĥ à¶§
à¶ħà¶» à¶ľà¶½
Ġà¶¯à·Ħ à¶»à¶ļ
Ġà·Ħà¶º à·Ħà¶¸
Ġà¶ķà¶ļ à¶ľ
Ġà¶´à·Ħà¶½ à¶§à¶¸
à¶¶à¶© à·Ģ
à¶½à·Ģà¶º à¶Ń
à¶ĩà¶¸ à·ĥà¶±
à¶µà¶½à¶º à¶Ń
Ġ32 9
Ġ43 5
Ġà·ĥà·ħ à¶ļà¶½
Ġ57 4
ãģ ¦
Ð° Ñı
à¥ Ģ
à¶» à·Ĥà¶«
à¶Ń à¶¶à¶¯
à¶§ à¶¬
âĢį à·ĸ
à¶¶ à¶Ńà¶º
Ġà¶ĳ à·Ģà¶§
à·ħ à·Ħà¶¸
à¶±à·Ģ à·ģ
à¶ł à¶¸à¶»
à¶Ķ à¶¶à¶¯
à¶¹ à¶±à·Ģ
à·Ĩ à¶½à¶ºà¶ļ
Ġà¶ĭà¶´ à¶·
à¶ĳà¶ļ à¶¸à¶Ń
Ġ18 71
Ġ18 64
à·Ĥà¶ºà¶ļ à¶¯
Ġ66 1
æ Ń
à¶Ń à¶¶à¶»
à¶§ à¶ºà¶Ń
Ġà¶¯ à·ĥà¶¸
à¶¶ à¶´à¶«
Ġà¶½ à·Ģà¶»
Ġà¶º à·ĥà¶´
Ġà¶ļà¶» à¶Ńà¶Ń
Ġà¶ĩ à¶¸à¶§
Ġà¶ĩ à¶»à·Ģ
Ġà¶¢ à¶½à·ĥ
à·Ģà¶» à·ĥ
Ġà¶´à¶» à·Ħà¶ļ
à¶»à·Ħ à·Ģà·ĥ
à¶Ńà·Ģ à¶±à¶º
à¶Ńà·Ģ à¶ºà¶§
Ġà·ĥà¶± à·Ħ
Ġà¶ºà¶¸ à·Ħ
à·ĥà·Ħ à¶ļà¶»
à¶ļà¶ºà¶§ à¶º
10 6
12 9
à¶¯à·Ħ à¶¸à¶Ń
ĠðŁ Ļ
Ġ46 5
à·Ħà¶© à·Ģà¶¸
ãģ §
Ð¸ Ð½
Ġà¶ĭà¶·à¶º à¶¢
Ġà¶¸à·Ħà¶»à¶ľ à¶¸à¶§
Ø ¬
Ġ à·Ĥà¶«à¶º
à·Ģ à·Ģà¶»
à·ģ à¶±à¶ļ
à·Ģà¶» à·Ģà¶½
à¶»à¶¸ à¶©à¶½
à¶¸à¶Ń à¶½à·Ģ
Ġà¶Ķà¶¶ à·Ģà¶Ń
à¶ºà¶º à¶¸à¶º
Ġà¶¯à¶± à¶ľ
à¶¯à¶½ à¶ļà¶§à¶º
Ġà¶ħà¶¯à·Ħà·ĥ à¶±à¶¸
à¶¡ à¶Ńà¶¸
à¶±à¶ľ à¶»à¶ºà¶ļ
19 35
à¶©à¶±à¶º à¶Ń
Ġà¶ħà·Ģà·ĥà¶» à¶´à¶Ń
Ġà¶ĭà¶ľà¶Ń à¶ļ
Ġ35 3
Ġ32 4
à·ĥà¶»à¶ºà¶ļ à¶¯
à·ĻâĢį à·Ĭ
à¶»à¶ļà¶® à¶±à·Ģà¶½à¶§
à·ĥà¶¸à·Ħ à¶»à¶¯
Ġà¶ļà¶½à¶¹ à¶ļ
ç ľ
à¶º à¶¹à¶§
à¶ļ à·Ģà¶ļ
Ġà¶¸ à¶°à¶º
Ġà¶ħ à¶»à¶ºà¶ľ
âĢį à·Ķ
Ġà¶± à·Ħà·Ģ
Ġà¶¶ à¶ºà¶ľ
à¶© à·Ģà¶º
Ġà¶ĩ à¶´à¶º
Ġà¶ħà¶´ à¶Ńà¶ºà¶±
Ġà¶īà¶Ń à·ĥ
à¶¶à¶³ à¶º
Ġà·Ħà¶¯ à·Ģà¶Ńà¶Ń
à·ģà¶± à¶´à¶Ń
Ġ8 01
à¶´à·ħ à¶½
Ġ18 40
Ġà¶»à¶« à·Ģà¶ļà¶§
à¶ħà¶ľ à·Ħà¶»
ĠðŁĺ Ĥ
Ġà¶»à·Ģà¶§ à¶½
à¶¯à·ģà¶ļ à¶ºà¶ļà¶§
00000000 0000
ä¸ Ń
ĠÐ¿ ÑĢ
è ¡
à¶± à·Ĥ
à·Ģ à¶©à¶¸
à¶º à¶´à¶»
à¶½ à¶¸à¶¯
à¶¯ à¶¢
Ġà¶± à·ģ
à¶« à¶»à¶º
à·Ĥ à¶Ŀ
à¶»à¶¸ à¶·
à¶Ĵ à¶Ĵ
Ġà¶´à¶» à·Ħ
à¶¯à¶» à¶´
Ġà¶´à·ħ à¶½à¶§
Ġà¶´à·ħ à¶³à·Ģà¶±
Ġà¶´à¶¸à¶« à¶¸à¶º
à·ĥà¶¸ à¶»à·Ģ
Ġ4 24
Ġ4 23
Ġà¶»à¶¢ à¶ľà·Ħà¶±
Ġà¶¸à¶½ à¶´
à·ģà¶ļ à¶ľ
Ġà¶ĭà¶© à·Ħà¶¸
à¶½à¶¯ à·ĥ
19 23
Ġà¶Ĩà¶ºà¶Ńà¶±à¶º à¶§à¶Ń
Ġà·Ħà¶»à·Ģ à¶ľà¶±
Ġà¶¯à·Ģà·ĥà¶ļà¶§ à·Ģà¶Ń
Ġà¶¸à¶»à¶½ à¶Ń
Ġà¶Ĩà·Ģà¶» à¶±à¶ºà¶ļ
Ñ İ
â ŀ
à¶º à·ĥà¶º
à·ģ à¶Ńà¶ºà¶±
à¶´à¶Ń à¶±à¶ºà¶Ń
à¶ĳ à¶ļà·Ģ
à¶· à¶µà¶½
à¶¹ à¶¸
à·ĥà¶± à¶ļà¶¸
à¶´à·ĥ à·ħ
Ġà·Ģà·ĥà¶» à¶§à¶Ń
Ġà·Ģà·ĥà¶» à·Ģà¶½à¶§
à·Ħà¶§ à¶¸à¶º
Ġà¶¶à¶½à·Ģà¶Ń à¶ļ
à·ĥà¶»à¶« à¶ºà¶§
Ġà¶Ĩà¶ºà¶Ńà¶±à¶ºà¶ļ à¶¸
18 00
Ġ33 7
Ġà¶±à¶»à¶¹ à¶¯
Ġà¶¸à·ħà¶ļ à¶©
2 25
3 80
à·Ģ à¶łà¶±à¶ºà¶§
à¶Ń à¶«à¶º
Ġà¶± à¶½à·Ģ
à¶© à¶ºà¶ľ
à¶ħ à¶ļà¶½
à¶· à¶±à¶º
à¶»à¶º à·Ģà¶Ń
à¶Ńà¶± à¶¸à¶º
à·ĥà¶» à¶ºà¶§à¶Ń
à¶»à¶ľà¶Ń à·Ģà¶±
à·ĥà·Ħ à¶ºà¶§
Ġ50 4
à¶»à¶ļà¶» à¶ľà¶Ń
à·ĥà¶ļà¶§ à·Ģà¶Ń
à·ģà·Ģà¶½à¶§ à¶¯
à¶ª à¶º
Ġ85 9
Ġ59 3
Ġ189 4
ĠØ ´
Ġà¶¸à·Ħà¶ļà¶± à¶¯à¶»
à¶» à¶½à·Ģ
à·ĥ à¶¯à¶½
à¶§ à·Ħà¶¸
à¶¯ à¶ļà¶¯
Ġà¶¸ à¶´
Ġà¶± à¶¸à¶§à¶Ń
Ġà¶ĩ à¶¸à¶ļ
Ġà¶ĩ à¶§à¶»
Ġà¶ĩ à·ħà·Ģ
à¶ł à¶»à·Ģ
Ġà·Ģà¶ľ à¶¯
à¶¯à¶» à¶Ĩà¶»à¶ł
à¶ºà¶º à·Ģà¶»à¶º
Ġ5 22
Ġ5 28
Ġ6 88
à¶©à·ĥà¶§à·Ħà¶± à¶Ń
Ġ18 000
à¶ĭà¶¹ à¶½à¶Ń
Ġà¶ħà¶¶ à¶ľ
à·ĥà·ĥ à¶´à¶º
à¶ķà¶± à¶±à¶¸
Ġà¶ħà¶ľà¶± à¶ľà¶»
Ġ36 3
Ġ188 3
Ġ20100 5
Ġ20101 0
1 0000
Ñ Ī
à¶ļ à¶±à¶Ń
à·ĥ à¶°
Ġà·ĥ à·ħà¶¹
à¶ľ à¶°à¶»à¶º
Ġà¶ľ à¶½à¶°
Ġà¶Ĩ à·ģà¶º
à¶±à¶º à¶´
Ġà¶ļà¶½ à¶±à¶º
à¶ļà¶¸ à¶¸
à¶ħà¶´ à¶º
à¶ľà¶½ à¶½
à¶¢à¶º à¶»
à¶Ńà¶¸ à¶»
à¶±à¶ºà¶ļ à¶§à¶Ń
à¶»à·Ħ à¶ºà¶º
Ġà·Ħà¶¯ à¶ļ
à¶»à¶ºà¶ļ à¶§à¶Ń
Ġà·Ģà·Ħà¶± à·ĥ
à¶ºà¶ºà¶§ à¶¯
Ġà¶¸à¶»à¶« à·Ģà¶½
Ġà·Ħà¶¬ à·Ģà¶¸
Ġà¶Ľ à·Ĥ
Ġ27 1
Ġà·ĥà¶Ł à¶½
à·Ģà·ħ à·Ģà¶½
à·Ħà¶»à¶«à¶º à¶º
14 0
14 5
Ġà¶±à¶Ł à¶±à·Ģ
6 000
à¶± à¶»à·Ģ
à·Ģ à·Ģà¶§
à¶» à¶ļà¶»à¶¸
à¶½ à·Ħà¶»
à¶ľ à·Ħà¶±à¶º
à¶´ à¶ļà¶»à¶±à¶º
Ġà¶» à¶±à·Ģà¶ļ
à·Ģà·ĥ à¶ļà¶º
à¶¢à¶º à·ģ
Ġ5 24
à¶ļà·ħ à¶¸à¶«
Ġ11 000
Ġà·Ģà¶º à¶»à¶ºà¶ļ
Ġà¶ħà¶ľà¶º à¶Ń
Ġà¶ĭà¶´à¶ļà¶»à¶« à¶ºà¶±
Ġà¶ħà·Ħà·ĥ à¶Ń
Î µ
à¶º à·ĥà¶§à·Ħà¶±
à¶½ à·ģ
Ġà¶ħ à¶»à¶Ń
à¶ł à¶½à¶±à¶ºà¶±
Ġà·ĥà¶³ à·ħ
à¶¯à¶ļ à·Ģà¶»à¶ºà¶ļ
à¶ħà¶¯ à·Ģà¶±
Ġà·Ħà¶³ à¶ļ
Ġà¶Ńà¶»à¶ľ à¶ºà¶±
Ġ7 10
Ġ10 50
à¶©à¶¸ à·Ģà¶±
Ġà¶Ī à¶Ńà¶º
Ġà¶ľà·Ħ à¶±à·Ģà¶½
à¶»à¶ľà¶Ń à¶ļà¶»
à¶»à¶· à¶½à¶¸
Ġ07 2
Ġ2010 21
Ġà¶ħà¶¬ à¶¶
14 2
Ġà·ĥà·Ģà¶± à¶§
Ġ66 6
ĠâĹ ı
à¶± à¶½à¶±
à¶§ à¶ºà¶ļà¶§
Ġà¶ľ à¶ľà¶ļ
Ġà¶¶ à·Ħà¶¸
à·ħ à¶¯à·Ģ
à·ħ à¶´à¶Ńà¶ļ
Ġà¶ĩ à¶±à¶§
à¶¢ à¶±à¶§
à¶Ńà¶» à¶½à¶ľ
Ġà¶· à¶«
Ġ5 21
à¶´à¶¯ à·Ģà¶´
Ġà·ĥà¶§ à¶±à¶ļà¶¯
Ġà¶ĭà¶¹ à¶¯
à¶¸à·ħ à¶§
Ġà¶´à¶§ à¶ļà¶º
19 11
à¶»à¶· à¶±
Ġ45 000
Ġà¶ĭà¶¶ à¶§à¶Ń
Ġà·ĥà¶Ńà¶» à¶¯
Ġà¶´à¶¶ à·ĥà¶»
Ġ46 9
Ġ53 4
Ġà¶ħà¶©à¶´ à¶«à·Ģ
Ù ģ
à·Ģ à·Ħà¶ļ
à¶» à¶ļà¶»à¶«
à¶Ń à¶±à·Ģà¶±
à·ĥ à·ĥà¶½
Ġà¶ħ à¶¶à¶»
Ġà¶ľ à¶ºà¶´
à·ħ à¶ºà¶Ń
à¶ĳ à¶´à¶¸à¶«
à¶¸à¶º à·Ģ
Ġà¶¸à·Ħà¶Ń à¶§
Ġà¶ħà¶» à·ħ
à·Ĥà¶« à¶§
à¶´à¶± à¶¥
Ġà¶¯à·Ģà·ĥ à¶±
à¶»à¶½ à¶¯
à¶Ŀ à¶¶
Ġ8 10
Ġà¶ĭà¶´à¶¯ à·Ģà¶º
à¶§à¶ļ à·Ģà¶»
Ġà·ħà¶¸à¶º à¶º
Ġà·Ĥ à·Ģ
à¶¸à¶ºà¶ļ à¶ľ
Ġà¶ħà¶»à¶ľ à¶½à¶ļ
Ġà¶¯à·Ħ à¶¢à¶»
Ġà¶Ńà¶¯ à¶ļà¶»
Ġà¶¸à¶Ńà¶º à¶¯
Ġà·Ħà·ĥ à·ħ
ðŁ İ
Ġà¶§à¶º à¶»à¶º
Ġà¶½à·Ģ à¶«à¶Ń
à¶»à¶¶ à¶¯à¶±
Ġ65 6
Ġ39 9
Ġ68 3
à¶´à¶±à¶Ń à¶§
à¶ħà¶Ńà¶» à¶¸à¶ľà¶¯
Ġ20100 8
Ġà¶ĳà¶¬ à¶»
à·Ģà¶Ł à¶±à¶ļ
à¶Ĭà¶Ĭ à¶Ĭà¶Ĭ
í ķ
Ġà¶´ à¶ºà¶º
Ġà¶Ń à¶±à·Ģà¶±
à¶ļà¶» à·Ģà¶º
Ġà¶´à¶Ń à¶¶
Ġà¶¸à¶¸ à¶¸à¶º
Ġà¶´à·ħ à¶³à·Ģ
Ġà¶ħà¶½ à·ħ
à¶Ĩ à·Ģà¶»
Ġà·Ħà¶¯ à¶±à·Ģà¶±à¶¸
Ġ7 39
Ġ8 0000
Ġ9 70
Ġà¶¯à·Ħ à·Ģà¶±
à¶¤ à·ĥ
Ġà¶ħà·Ħà·ĥ à¶º
Ġà¶īà¶»à¶« à¶Ń
Ġ37 4
Ġà·ĥà¶Ńà¶» à·Ģà¶»à¶¸
Ġà¶»à¶³ à·Ģà¶½
à¤ ¿
Î ·
à¶± à¶´à¶½
à¶ļ à¶¶à·Ģ
Ġà¶ļ à·ĥà¶º
à¶ľ à¶³à¶ļ
Ġà¶¯ à¶±à·Ģà¶º
à·Ģà·ĥ à¶¯
Ġà·ĥà·Ħ à¶±à¶ºà¶±
Ġà¶ļà·ħ à¶ºà¶ļ
à¶¸à¶ļ à¶¶à·Ģ
Ġà¶¶à¶½ à¶ºà¶ļà¶§
Ġà¶¶à¶½ à¶´à¶»
à¶Ńà¶± à¶ļà¶¯
à¶ī à¶»à¶§
à¶¨ à¶±à¶º
Ġà¶ľà¶¸à¶± à¶¯
à¶¸à¶¯ à¶¸
Ġ5 29
à¶»à¶ºà¶§ à¶¸à¶º
à¶´à¶¯ à¶¸
Ġà¶Ĩà¶½ à·Ģà¶±
Ġà¶Ĩà¶½ à·Ģà¶§
12 1
13 1
13 8
Ġà·ĥà¶´à¶º à¶´
Ġà·ĥà¶Ńà¶» à·Ģà¶±
à¶´à¶»à¶« à·Ģ
Ġ ÑĤ
à¶± à·ħà¶½
à·ı à·Ķ
à¶º à·ĥà¶»
à¶» à¶±à·ĥ
à¶½ à·Ģà¶¯
à·Ħ à¶ł
à·ģ à¶ºà¶ļà¶º
Ġà¶ī à·ħà¶ļ
Ġà¶Ķ à¶»à·Ģ
à¶ł à¶½à¶ºà¶ļ
à¶ł à¶ĭà¶´
à·Ģà¶§ à·Ħ
à¶ľà¶Ń à¶ºà¶§à¶Ń
Ġà¶ħà¶¸ à¶»à¶±
Ġà¶¢à¶± à·ĥà·Ģ
à¶Ĩ à¶¸à¶±
Ġà¶ĭà¶« à¶§
Ġà¶īà·Ħà¶½ à¶ľ
à¶»à¶· à¶½à¶Ń
à·ĥà¶»à¶º à¶¯
Ġà·Ħà¶¯à¶½ à¶Ń
26 00
33 3
Ġà¶¹ à·Ģ
á Ĭ
å Į
é ĩ
à¶» à¶Ŀ
à·Ħ à¶°
à¶¯ à¶¸à¶§à¶º
Ġà¶ļ à¶Ńà¶»à¶ļ
Ġà¶Ń à¶Ńà¶±à¶±
Ġà¶¶ à¶ºà·ĥ
à¶° à¶ºà¶¸
à¶±à¶º à¶°à¶»
Ġà¶ĭ à·Ģà¶§
Ġà¶ħà¶± à¶Ł
Ġà·ģ à¶Ľ
à·Ħà·ĥ à¶º
à¶»à·Ģ à¶ľà¶Ń
Ġà¶¸à¶Ń à·Ģà¶½à¶§
à¶»à·ĥ à·ĥ
Ġà¶¯à¶± à·Ħ
à¶¨ à¶ľ
Ġà·ħ à¶ľà¶º
Ġà¶ĳà·ħ à¶¸
à¶§à·Ħ à·ħ
à¶ķ à¶ļà¶¸
Ġà¶ĩà¶½ à·Ģà¶½
Ġà¶« à¶ºà¶Ń
à¶ħà¶º à¶®
Ġà·Ħà¶¬ à¶´à¶§à¶º
Ġà¶µ à¶º
à¶ª à¶¯
Ġ54 2
Ġ66 2
âĺ Ĩ
å °
Ġà¶´ à¶±à·Ģà¶º
Ġà·Ħ à¶©à¶Ń
à·ħ à¶ºà¶º
Ġà¶Ĩ à¶¯à¶º
Ġà·ĥà·Ħ à¶ļà¶¸
à¶¸à¶ļ à·Ģà¶Ń
à¶»à¶¯ à·ĥ
à¶Ńà¶º à·Ģà¶Ń
Ġà¶Ńà¶» à·Ħà¶Ń
à¶ºà¶º à¶ºà¶±
à¶ºà¶Ń à¶±à·Ģà¶½
Ġà¶´à·ħ à¶ļà¶»à¶º
Ġà¶ħà·ĥ à¶¶
Ġà¶ĳà¶½ à¶§
à¶½à¶ºà¶ļ à¶º
Ġà¶ľà¶« à¶±à¶Ń
Ġ0 20
Ġà¶ħà¶ľ à·Ģà¶º
Ġ6 26
à¶´à¶½ à·Ģà¶±
Ġà¶»à¶§à·Ģà¶½ à¶º
Ġ50 5
à¶¶à¶§ à¶½à¶±
18 48
à·ĥà¶´ à¶ºà¶±
12 7
16 7
Ġ53 8
Ġà¶ħà¶§à¶¸ à¶ľ
99 9
Ġà·Ħà¶Ł à·Ģà¶º
Ġ188 7
Ġ< <
Ġà·ĥà¶³à¶ļà¶© à¶´à·Ħà¶«
á ¹
ì Ħ
à¶º à·ģà¶º
à¶½ à¶¢à¶±
à·Ħ à¶¸à¶Ń
Ġà¶¶ à¶¬
Ġà¶ĳà¶ļ à¶Ńà¶»
à·Ģà¶» à¶ľà¶¸
à¶¸à¶§ à·Ħ
à¶® à·Ģà¶ļ
à¶ħ à¶½à·ĥ
à¶ĳ à¶ºà¶§à¶¸
à¶· à¶´à¶Ńà¶±à·Ģ
Ġà¶· à¶¨à¶ļ
Ġà¶ħà¶© à¶º
à·Ĥà¶« à¶ºà¶§à¶Ń
à¶«à¶ºà¶ļ à¶»
Ġà¶Ŀ à¶«à¶º
Ġà¶īà¶ļ à¶¸à¶±
Ġà·Ģà¶»à¶ļ à¶¯
à¶ļà¶ļà¶§ à¶¸
à¶»à·Ħà·ĥ à¶±à¶º
Ġà¶Ńà¶»à·Ħ à¶ļà¶§
à¶¸à¶Ł à¶§
à¶°à¶ļà¶º à¶º
à¶»à·Ħà¶± à¶ºà¶±
Ġà·Ħà¶©à¶´ à¶§
é Ľ
à¶ºà¶ļ à·Ģà¶Ń
à¶ºà¶± à¶½à¶¯
à¶±à·Ģ à¶±à·Ģ
Ġà·Ģà¶± à¶łà¶»à¶º
à¶Ľ à¶«à¶ºà¶§
Ġà¶ļà·Ģ à¶ºà¶ļ
à¶»à¶¢ à¶Ńà¶±
Ġ7 14
Ġà¶ĳà·ħ à·Ģà¶±à·Ģ
Ġ9 20
à·ĥà¶³ à¶ľ
à¶ħà¶¸ à¶»à·Ģ
à¶ķ à·Ĥà¶°
Ġà¶ľà·Ħ à¶±à·Ģà¶±
Ġ50 2
à¶¶à¶© à¶§
20 8
Ġà¶µ à¶¸
ðŁ Ļ
à¶»à¶ļà¶» à¶ľà¶±
à¶½à·Ģà¶½ à¶Ń
12 4
à¶¹à¶½ à¶ľà¶¸
Ġà·Ģà¶³ à¶·
ĠðŁ Ĵ
Ġà¶ĭà¶¹à¶½ à¶§à¶Ń
Ġà¶ľà¶¸à¶« à¶ļ
å ·
à¶± à¶ļà¶»à¶«à¶º
à¶» à·Ĥà¶«à¶º
à¶ļ à¶¸à¶§à¶º
à¶½ à¶¥à¶ºà¶ļ
Ġà¶Ń à¶¶à¶¯
Ġà¶ľ à¶¢à¶º
Ġà¶ĭ à¶»à¶º
à¶Ńà¶» à¶ļà¶¸
à¶ĳ à¶¶à¶¯
à¶±à¶¸ à·ĥ
à¶Ł à¶ľ
Ġà¶ħà¶º à¶Ńà¶±
Ġà·Ģà¶½ à¶¯à¶¸
Ġà¶ħà¶½ à·Ģà¶±à·Ģ
à¶ĩ à¶³à¶±
Ġ8 30
à¶ºà¶´ à¶§
Ġà·Ĥ à¶§à¶½à¶º
Ġ18 99
Ġà¶īà·Ģà¶» à¶ļà¶»à¶½
à¶°à¶ļ à¶ºà¶§
à¶±à¶ļà¶§ à¶º
Ġà¶Ńà¶½ à¶´à¶ºà¶ļ
Ġà¶Ĩà¶½ à·Ģà¶ļ
à¶»à·Ħà·ĥ à¶±à¶ºà¶ļ
Ġà¶ħà¶´à·Ħ à¶»à¶«à¶ºà¶§
Ġ34 9
Ġà·Ħà¶© à·Ģà¶½
Ġà¶ĩà·ħ à·Ģà¶½
ãģ Ļ
Ð¾Ð ³
É ª
ç İ
Ġ à·ĳ
à¶¸ à¶»à¶«à¶ºà¶ļ
à¶ļ à·Ģà¶»à¶ļ
Ġà¶´ à¶°
Ġà¶ľ à¶ºà¶º
à·ħ à·Ģà¶¸
à¶® à¶ºà¶¸
Ġà¶»à¶§ à¶ľ
Ġà¶ĳà¶ļà¶ļ à¶ļ
Ġà¶ĭà¶´ à¶ºà¶º
Ġà¶ħà¶· à¶ºà¶¯
à¶Ńà¶ºà¶ļ à¶§à¶¸
ðŁ Į
à¶Į à¶»à¶±
18 0
Ġ32 3
Ġ33 4
Ġ65 3
Ġ49 5
à¶ºà¶° à¶»à¶±
Ġâ ľ
à·Ģà¶¥ à¶Ń
ãĥ ³
à¶ºà¶µ à¶¸
é ģ
à¶º à¶ħà·Ģà·ģ
à¶Ń à·Ģà¶½à¶¯
à·ĸ à·Ķ
à¶ºà¶± à·Ģà¶½à¶§
Ġà¶Ĵ à¶¶à·Ģ
Ġà¶Ĵ à·Ģà¶±à¶¸
à¶ħ à·Ģà¶ºà·Ģ
à¶· à¶¢à¶±à¶º
à·Ģà¶§ à¶ºà¶ļ
à·Ħà·ĥ à¶½à¶ļ
à·ģà¶º à¶ºà¶±
Ġà¶ĭà¶´ à¶¯à¶±
à¶»à·Ħ à¶ºà¶Ń
Ġà¶´à·Ħ à¶ļà·ħ
à¶½à¶±à¶º à¶¸
à·Ħà¶§ à·Ģà¶Ń
Ġà¶īà¶© à·Ħà¶»
Ġ7 13
Ġ7 90
Ġà¶¶à·Ħ à¶¯
à¶µ à¶¸
Ġà¶Į à¶§à¶¸
à¶Į à¶ľ
18 90
à¶½à¶¶ à¶´
à¶Ī à¶º
Ġ34 8
Ġ48 6
Ġ46 2
à¶ļà¶½à¶ļ à¶¯
Ġ189 3
Ġà¶ļà¶§à·Ģ à·Ħà¶ļ
3 70
æ ī
à·Ĵ à·Ĵà¶Ĥ
Ġà¶¸ à¶½à¶±
Ġà¶¸ à¶ļà¶»à¶±
Ġà¶¯ à¶Ńà¶§
à¶« à¶±à¶±
à¶ºà¶ļ à¶»à¶«à¶ºà¶ļ
à¶»à·ĥ à¶ºà¶±
à¶»à¶± à¶ļà¶¸
Ġ4 16
Ġà¶»à¶¢ à¶»à¶§à¶§
Ġà¶ħà¶ľ à¶ºà¶±à·Ģ
Ġ18 30
Ġ16 50
Ġà¶ļà¶»à¶¯ à·Ħ
10 8
Ġ45 6
Ġà¶ºà¶ļà¶© à¶ºà¶ļ
Ġà¶¯à¶Ł à¶½à¶´
Ġà¶´à¶»à¶¯ à·Ģà¶º
Ġà¶ħà¶Ńà·Ģà¶» à·Ģà¶½à¶§
Ġà¶±à¶ºà¶± à¶¢
Ñ Ħ
à¶Ń à¶¶à·ĥ
à¶ļ à¶±à¶ºà¶§
à·Ħ à¶ŀ
à¶¯ à¶ļà¶»à¶±à·Ģ
Ġà¶½ à¶·
Ġà¶º à¶¸à¶½
Ġà¶ī à¶»à¶¸
à¶ºà¶± à¶ľà¶±
à·Ģà¶½ à¶±à¶¸
à¶»à¶ļ à·Ģà¶½
à¶Ĵ à·Ģà¶±
Ġà¶ħà·Ģ à·ģà¶ºà¶Ń
à¶»à¶¯ à¶±
à·ĥà¶» à·Ģà¶½
Ġà¶½à¶ļ à¶½
à¶Ĩ à·Ģà¶Ń
Ġà¶´à¶± à¶ľ
à·ħà¶¹ à¶¸
Ġ4 19
Ġ4 200
Ġ4 13
à¶Ŀ à¶»à¶ļ
19 16
Ġà¶´à¶« à·Ħà¶ļà¶§
Ġà¶¢à¶º à¶¶
Ġà¶¯à·Ħ à¶ºà¶Ń
à¶ļà¶´ à¶§à·ĥ
Ġà¶ħà¶Ł à·Ģà¶Ń
18 80
à¶»à·Ģà¶º à¶¯
Ġ44 3
à¯ Ģ
Ġà¶Ĩà¶ľà¶¸à¶ļ à¶§à¶¸
âĻ ¥
à¶§ à¶ľà·Ħ
Ġà¶ļ à¶¯à¶±
Ġà¶ļà¶» à¶¹
Ġà¶ī à¶»à¶Ń
Ġà¶ī à¶´à¶±
à·Ģà¶½ à·Ģà¶Ń
à¶ĳ à¶´à¶»
Ġà¶¶à¶½ à¶±à·Ģà¶±à¶¸
Ġà¶´à¶» à¶ºà¶ļ
Ġà·Ģà¶½ à¶½à¶±
Ġà¶Ĭ à¶ĳà·ĥ
Ġà¶ļà¶© à¶¯à·Ħ
Ġ8 60
à¶´à¶½ à¶ļà¶§
à¶¯à¶§ à·Ģà¶Ń
Ġà¶¢à¶½à¶º à¶¯
à·Ģà¶±à·Ģ à¶±
Ġà¶ħà·Ģà¶¸ à¶ļà¶»
Ġà¶ĭà¶½ à¶½
à¶Ľà¶« à¶ºà¶ļà¶§
à¶Į à¶§à¶Ń
Ġà¶»à¶³à·Ģ à¶±à¶º
Ġà¶īà¶»à¶« à¶¸à¶º
à¶»à·Ħà¶« à¶ºà¶ļà¶§
Ġà¶´à¶¹ à·Ħ
Ġà¶±à¶ºà¶ľ à¶»
æ ķ
à·Ħ à¶ľà¶±
Ġà¶± à¶Łà¶º
à¶¶ à·Ģà¶½à¶§
à¶¶ à¶ļà¶»à¶ľà¶±
Ġà¶º à¶¸à¶»
Ġà¶ĩ à·ħà¶½
à·Ĥ à¶ľà¶Ńà·Ģ
Ġà¶Ĩ à¶´à¶Ń
à¶Ńà¶» à¶·
à¶ļà¶» à·ĥ
Ġà¶ħà¶» à·Ģà¶±
Ġà¶ħà¶¯à·Ħà·ĥ à¶¯
Ġà¶ħà·Ħ à¶±à·Ģà¶±
à¶Ķà¶¶ à¶º
Ġ6 17
Ġ6 28
Ġà¶»à¶® à¶ºà¶º
Ġ7 01
Ġ8 70
Ġà¶ľà¶«à¶± à¶ºà¶±
Ġà·ĥà¶´ à¶»à¶¸
Ġà¶ľà·Ħ à¶«à¶ºà¶ļ
Ġ13 97
Ġà¶ĳà¶»à¶§ à¶¯
à¶ľà¶¸à¶§ à¶¸
150 5
ÐµÐ ´
Ġà¶´à¶ºà¶ľ à·Ħà¶½
á ĭ
å º
é ĥ
à¶± à¶±à¶ºà¶ļ
à¶º à¶ľà¶Ńà·Ģ
à¶§ à¶»à·ĥ
Ġà·ĥ à¶ºà¶¯
Ġà¶¯ à¶±à¶§
Ġà¶¶ à¶¯à¶½
Ġà¶¶ à¶ºà¶»
à·Ĥ à¶±à·Ģà¶½à¶§
Ġà¶Ĩ à¶»à¶º
à¶±à¶º à·ĥ
à¶® à¶¸à¶º
Ġà¶±à¶¸ à¶ºà¶§
à¶ºà¶¸ à¶©
à¶½à¶ļ à¶¸à¶±
Ġà¶ĭà¶´ à¶ļà¶»
à¶ľà¶½ à·Ģà¶Ń
Ġ5 17
Ġà¶Ĩà·Ģ à¶©
à¶ļà·ħ à¶ļ
Ġà¶ľà¶½ à·Ģà¶¸
19 10
Ġà¶¸à¶© à¶¸à¶ļ
Ġà¶Īà¶Ń à¶¯
Ġà¶±à·ħ à·Ģà¶±
Ġà·ĥà¶ļ à·ĥà¶º
à¶´à¶ºà¶§ à¶¯
à¶®à¶±à¶º à¶º
Ġà·ĥà¶Ł à¶ºà¶±
Ġà¶Ńà¶»à·Ħ à·Ģà¶ļ
Ġ2010 28
13 9
Ġ58 2
Ġ46 8
Ġ53 6
76 00
Ġà¶ºà·Ħà¶¸à¶Ł à¶§
Ú ©
á ĥ
è ¿
Ġ à·ĺ
à·Ģ à¶«à¶Ń
à·ı à·ĬâĢį
à¶ļ à¶±à¶ļ
à¶¯ à·ĥà¶ļ
Ġà·ĥ à¶ºà·Ģ
à¶° à¶ļà¶»à¶«à¶º
à·Ģà¶Ń à·Ģà¶»à¶ļ
Ġà¶ĭ à¶¸à¶±
à¶Ńà¶» à¶ľà¶ºà¶ļ
à¶ħ à¶§à·Ģà¶±
Ġà¶īà¶± à¶±
à¶¹ à·Ģà¶±
Ġà¶´à·ħ à·Ħ
à¶¯à¶º à·Ģ
Ġà¶»à¶¢ à·ĥ
Ġà¶ĭà¶¹ à¶§à¶º
à¶»à¶´à¶§ à¶ºà¶±
Ġ18 32
Ġà¶ļà·Ģà¶¯ à·Ģà¶Ń
à·Ĥà¶ºà¶ļ à¶§à¶¸
Ġà¶ļà¶»à¶¯à¶» à·Ģà¶½
à¶Ĵà¶ļà¶§ à¶¸
Ġ45 2
Ġ39 2
à¶¢à¶±à·Ģ à¶»
Ġ20100 6
æ ´
à¶ ı
à¶½ à¶±à·Ģà¶¯
à¶§ à¶½à·Ģ
Ġà¶´ à·Ĥ
Ġà¶¸ à¶¥
Ġà¶Ĩ à·Ģà¶»à¶«à¶ºà¶§
à¶±à·Ģ à¶ļà¶ºà¶±
à·Ģà¶» à¶ļà¶¸
Ġà¶¸à·Ħ à¶«à·Ģ
Ġà¶ħà¶± à·ĥà¶ļ
Ġà¶ł à¶¶
Ġà·Ħà¶» à¶±
Ġà¶ĳà·Ħ à¶±à¶¸
à·ĥà¶ļ à¶ºà¶§
à¶»à·Ħ à¶¯
Ġ5 18
Ġà¶»à¶¢ à·Ħ
à·Ģà¶ľ à¶ĭà¶Ń
à¶±à¶ľ à¶§
Ġà¶´à¶§ à·Ģà¶ľ
Ġà¶Ī à¶»
Ġà·Ģà·Ħ à¶»à¶§
Ġà¶ħà¶Ł à¶»
à¶«à·ĥ à·ħ
Ġ34 7
Ġ38 5
Ġ55 6
Ġà¶±à·Ħ à¶ľà¶±
à®ķ à®³
à¶īà¶©à¶ļ à¶©à¶¸
Ġà¶»à¶¯à¶½ à¶ºà¶±
Ø¨ Ùĩ
1 17
à·Ģ à¶³à·Ģ
à¶º à¶¯à¶±
à¶º à¶»à¶ļà¶§
Ġà¶ļ à¶¯à¶ļ
Ġà¶ħ à¶Ŀ
Ġà¶¯ à·Ħà¶ļ
Ġà·Ħ à¶½à¶¸
Ġà¶ľ à¶ļ
à¶³ à¶ľà¶½
Ġà¶¢ à¶»à¶¸
Ġà·ĥà¶¸ à¶«à¶½
à¶® à¶ºà¶ļà¶§
à¶ĳ à·Ģà¶½
à¶· à¶ºà¶ļà¶§
Ġà¶§ à¶±à¶½
Ġà¶ł à¶¯
à¶ºà¶¸ à¶´
Ġà¶½à¶ļ à·Ĩ
à¶¯à¶½ à¶§à¶Ń
Ġà¶´à·Ħ à¶«à¶ļ
Ġ6 12
Ġà·ĥà¶´ à¶ºà¶Ń
Ġ13 000
Ġà¶µ à·Ħ
Ġà¶ħà¶§ à·Ħà¶¸
Ġ40 3
Ġ03 3
Ġ60 8
à¶±à¶¸à¶ļ à¶ľ
à·Ĥà¶¥ à·Ģà¶»à¶º
Ġà¶ħà¶¹ à¶Ń
14 6
Ġ48 8
Ġ37 9
Ġà¶°à¶±à¶º à¶Ń
à¶©à·Ģà¶½ à¶§à¶Ń
ãģ ¾
Ġà¶ħà¶Ńà¶ľ à·Ħà¶½
à·ħà¶¯à¶´ à¶½à¶§
à¶ħà¶Ńà¶» à¶¸à¶ľ
à¶ħà¶ľà¶½ à·Ģà¶Ń
ĠÂ ²
à·ĥ à¶ľà¶º
à·ĥ à¶ºà¶§à¶¸
Ġà¶ļ à¶Łà·Ģ
Ġà¶´ à¶ºà¶±
Ġà·ĥ à¶Ŀ
âĢį à·Ĳ
à·ľ à·ı
Ġà¶º à·ĥà¶»à¶Ń
Ġà·ĥà¶¸ à¶ºà¶¸
Ġà¶Ķ à¶ļà¶§
Ġà¶ĭ à¶ºà¶¯
Ġà¶ħà¶± à¶½à·ĥ
à¶¸à¶± à¶ľ
Ġà¶¸à¶Ń à¶ºà¶¸
à·Ĥà¶« à¶ļà¶»
à·Ħà¶» à·Ģà¶Ń
Ġà¶ĳà¶± à¶»
à¶ļà¶½ à¶»
à¶ºà·Ģ à¶ł
à¶ºà¶ľ à¶«à¶±
Ġ5 27
Ġà·Ħà¶¯ à¶±à·Ģà¶±
Ġ0 50
Ġà¶ļà¶»à¶ľ à·ĥ
Ġ6 35
Ġà¶ĳà·ħ à¶Ł
Ġà¶Ńà¶¶ à¶´
Ġà¶´à¶§ à¶ļà·Ģà¶½
Ġà¶¸à¶Ł à¶Ń
à·ħà¶³ à¶´à·ħà¶§
Ġà¶ħà¶¶ à¶»à¶«
Ġà¶±à¶» à¶Ķà¶±
à¶ħà¶½ à·Ģà¶Ń
Ġà¶±à¶Ńà¶» à·Ģà¶±
à¶Ńà¶¯ à·ĥ
Ġà¶ħà¶»à¶ľà¶½à¶º à¶Ń
Ġ36 7
Ġ48 5
Ġ43 3
à¶±à¶Ł à¶ľ
Ġ78 4
ãĢ Ģ
à¶½à·ĥà¶§à·Ħà¶± à¶ļà¶§
Ġà¶ļà·ħà¶¹ à¶¸
Ġà·ĥà·ĥà¶³ à¶¸
Ġ20100 7
Ġ20101 5
Ġà·ĥà¶¸à·Ħ à¶»à¶¯
Ġ20110 8
à¶± à¶»à¶ļà¶¸
à¶» à¶¶à·Ģ
à·Ħ à¶ļà¶»
Ġà¶¸ à¶ľà¶±
Ġà·Ħ à¶©à¶¸
à¶© à¶¶à¶§
à¶³ à¶¯à¶¸
à¶® à¶ļà¶»à¶«à¶º
à¶ħ à¶®à¶Ń
à·Ģà¶§ à¶±à¶º
Ġà·ģ à·Ħ
à¶ºà¶Ń à·Ħ
Ġà¶´à·ħ à¶§
à¶Ĩ à¶ºà¶Ńà¶±à¶ºà¶§
Ġ5 16
à¶¶à¶½ à¶ļà¶¸
à¶§à·ĥ à¶ļà¶§à¶¸
à¶Ńà¶±à¶º à¶¯
à¶ľà¶» à¶ºà¶±
à¶ľà¶» à·Ģà¶½
Ġà¶Ĩà¶¯à¶»à¶º à¶¯
à¶»à·Ģà¶½ à¶Ń
Ġà¶¯à·ĥ à·ĥ
Ġà¶½à¶Ł à¶´
Ġ60 5
Ġ2010 26
à·ĥà¶±à¶§ à¶¸
Ġ34 4
Ġà¶ļà¶¸à¶§ à¶¸
Ġ46 7
Ġ53 5
Ġà¶ļà¶§à·Ģ à·Ħà¶»
Ġ20101 2
Ġá »
à¶Ń à¶Ńà¶¸
à·ĥ à¶§à¶»
Ġà¶ļ à·Ħà¶¯
Ġà¶ħ à¶µà¶Ń
Ġà¶¯ à¶Ńà¶º
Ġà·Ħ à¶ºà¶Ń
à¶ºà¶ļ à·ĥ
à·Ĥ à¶§à¶Ń
Ġà¶ĳà¶ļ à¶¸à¶±
à¶³ à¶½à¶Ń
à¶±à·Ģ à¶ľà¶¸
à¶¸à¶º à¶¢à¶±à¶ļà¶º
Ġà¶ľà¶± à¶ļ
Ġà¶´à·ħ à¶ļà¶»à¶½
à·ĥà¶½ à¶ļà¶º
à¶ĭ à¶¸à¶Ń
Ġà·Ħà¶¯ à¶Ń
Ġà¶»à¶¢ à¶´à·Ģ
Ġà·Ĥ à¶´
à·ĥà¶¯ à¶»à¶ļ
Ġ35 8
à¶§à¶´à¶Ń à¶ļà¶§
Ġ2010 20
Ġ2010 22
Ġà¶ħà¶¬ à¶¯à¶¶à¶»
Ġà¶¶à¶½à¶Ńà¶½ à·Ģà¶½à¶§
ĠâĢ Ĳ
Ġ85 00
Ġ189 2
Ġ188 4
3 60
Ù ĥ
Ġ ç
à¶± à¶Ĩ
à¶½ à¶§à¶±
à·Ħ à¶½à¶±
à·ģ à¶ļà¶§
Ġà¶ļà¶» à¶¯à¶ºà¶ļ
Ġà¶ĳà¶ļ à·Ģà¶»à¶ļ
à¶ºà¶§ à¶½
Ġà·Ģà¶ľ à¶ºà¶ļà¶§
à¶ļà¶§ à·Ģ
à¶¯à¶± à¶¯
Ġà¶ķ à¶ĳà·ĥ
Ġà·ĥà¶Ń à·ħ
à·ĥà¶½ à¶§à¶¸
Ġ6 01
à¶§à·ĥ à¶§à¶Ń
Ġà¶īà·Ħà·ħ à¶Ńà¶¸
Ġà·ĥà¶§ à¶±à¶º
Ġà·Ĥ à·Ĩ
à¶ħà¶Ń à¶®
Ġ07 14
18 33
10 9
à¶½à¶Ł à¶¸
13 5
Ġà¶©à¶º à¶ľà¶¸
Ġà·Ħà¶´ à¶±à·Ģ
Ġ58 3
Ġ57 2
à·ĥà¶¸à¶± à¶½à¶º
Ġà¶¶à¶¹ à¶»à¶ļà¶±
Ġ77 2
à¶»à·ĥà¶» à¶´
à¶ºà¶¹ à¶½à¶±
Ġ Ì
à·ĥ à·ĥà¶º
Ġà¶ľ à·ħ
Ġà¶ĭ à¶±à¶ļ
à¶® à¶±à¶ºà¶§
à¶´à¶Ń à¶±à¶ºà¶±
à·Ģà¶º à·ģ
Ġà¶ħà¶Ń à¶ºà¶§
à·ĥà¶¸ à¶ºà¶§
à¶°à¶± à·Ħà¶½
Ġà¶ľà¶¸à¶± à¶¸
Ġà·ħ à¶ľà¶§à¶¸
Ġà¶ļà·Ģ à¶ł
à¶Ŀ à¶½
Ġà¶¶à¶» à¶ľ
à·ħà¶³ à¶º
à¶¸à¶ļà¶§ à·Ģà¶Ń
Ġà·Ģà¶łà¶± à¶¯
Ġà·Ħà¶¯à·Ģà¶Ń à¶§à¶¸
Ġà¶ħà¶´à¶±à¶ºà¶± à·Ģà¶½
Ġà¶łà¶ļ à¶¶
Ġ37 2
Ġà¶Ĩà¶±à¶ºà¶± à¶ºà¶±
Ġ44 4
Ġ44 5
26 8
Ġ49 9
Ġà·ĥà¶¸à·Ħ à¶»à¶ļà¶§
Ġà·ĥà¶´à¶» à¶ľà¶¸
Ġ âĨĲ
à¶¸ à¶´à¶½
à·ĥ à¶¥à¶ºà¶ļ
Ġà¶ļ à¶±à·Ģà¶±
Ġà·ĥ à¶»à¶º
à¶´ à¶®à¶ºà¶§
Ġà·Ħ à¶§à¶¸
à¶¶ à¶ºà¶º
Ġà¶¶ à¶¹à¶½
à·ģ à·ģ
à·Ģà¶± à¶¶à·Ģ
Ġà¶Ķ à¶Ńà¶»à¶¸
à¶Ł à¶¸à¶±à¶§
Ġà¶¢à¶± à¶¶à¶½à·Ģ
à¶¯à¶» à·Ģà¶Ń
à¶¢à¶± à¶»à¶Ł
à¶±à·ĥ à¶¸
à¶ļà¶½ à·Ħà¶ļ
Ġà¶Ĵà¶ļ à¶¶à¶¯
à¶´à·ĥ à¶Ł
à¶Ĩ à¶±à¶¸à¶©
Ġà·Ħà¶¯ à¶´à¶±
Ġ7 17
Ġà¶ĩà¶³ à·Ħ
19 07
à¶ļà¶ļà¶» à¶±à¶º
Ġà¶ĩà¶ľ à¶´à¶Ń
Ġà¶±à¶ľà¶» à·Ģà¶½à¶¯
Ġ16 000
à¶ľà¶±à¶º à¶Ń
Ġ2010 27
Ġ45 4
à¶ºà¶° à¶»à¶ºà¶±
ðŁĺ į
Ġà¶ħà¶ºà¶ļà¶» à¶±à·Ģ
Ù Ĵ
â ķ
à·ĥ à·Ħà¶¸
à·ĥ à¶¸à¶»à¶±
à¶½ à¶¶à¶Ń
Ġà¶ļ à¶¸à¶§à¶¯
à¶ľ à·Ģà¶»
Ġà¶ħ à¶§à¶Ń
Ġà¶ħ à¶¢à¶»
à¶¶ à¶ļà¶»à¶½
à¶© à¶«à¶º
Ġà¶º à·Ģà¶¯
Ġà·ĥà¶¸ à¶«
Ġà¶Ķ à¶»à¶±
à¶Ńà¶» à¶ľà¶Ń
à¶® à¶ºà¶¯
Ġà¶¶à¶½ à¶Ŀà¶«à¶º
Ġà¶±à¶¸ à¶±à·Ģ
Ġà¶ħà¶¸ à¶»à¶¢
Ġà¶ľà¶Ń à¶ļà¶»à¶½
à¶»à¶¯ à¶»à¶±
à¶¹ à·Ħ
Ġà¶ļà¶§ à¶ļà¶®
Ġà¶¸à¶Ń à·Ģà¶½
Ġà¶ķ à¶Ń
Ġà¶ķ à·Ħ
Ġà·ĥà¶Ń à¶Ń
à·ħà¶¹ à·Ģà¶±à·Ģ
à¶ļà¶¯ à·Ģ
Ġà¶Ī à·Ģà¶»
Ġ01 5
Ġ00 5
à¶»à¶ºà¶ļà¶§ à¶¯
à¶»à¶¶ à¶«
à¶ļà·Ģà¶¸ à¶¯
Ġ43 8
à¶©à·ĥ à·Ħà¶±
Ġ68 1
Ġà¶¸à·Ħà¶¸à¶ľ à¶§
è Ģ
à¶º à·ĥà¶Ń
à¶º à¶¸à¶§à¶¯
à¶§ à·Ħà¶Ń
à¶ľ à¶ľà·Ħ
Ġà·Ħ à¶½à¶§
Ġà¶¶ à¶¯à¶º
à·ģ à·ĥà·Ħà¶ľà¶Ń
Ġà·ĥà¶¸ à·Ģà¶ºà·ĥ
à¶ħ à¶©à¶ļ
à¶ľà¶¸ à¶¸
à·Ĩ à¶Ń
à¶ĩ à¶¬
à¶´à¶± à¶¥à¶ºà¶±
à¶ĭ à¶¯à¶ºà¶ļ
à¶¶à¶½ à¶ľà¶Ń
Ġà¶īà·Ħ à¶§
Ġà¶ħà¶ľ à·ĥà·Ģ
Ġ6 38
à¶Ńà¶§ à¶¸à¶º
à¶³à·Ģ à¶´
Ġ8 77
Ġà¶īà¶³ à·ħ
Ġà¶ĭà¶« à·ĥ
à¶»à¶ľà¶Ń à¶ļ
à·ĥà·Ħ à·Ģà¶±
à¶ľà¶«à¶ļ à·Ģà¶½à¶§
Ġà¶ĩà¶´ à¶»à¶½
Ġà¶Ĵà¶ļà¶ļ à·Ģà¶½à¶§
à¶¯à·Ħ à¶±à·Ģà·Ģ
Ġ36 9
Ġà¶ħà·ĥà¶¸ à¶Ł
Ġ55 9
Ġ64 9
à¶Ńà·ģ à¶»
Ġ20100 3
Ġ20101 8
Ġà·ħà¶³ à¶»
Ã ¼
ì ł
à¶º à¶¥à¶ºà¶±
à¶½ à¶½à¶¸
à¶½ à¶´à¶½
Ġà·Ģ à¶ºà¶½à¶§
à¶´ à¶ļà¶»à¶«à¶ºà¶§
à¶« à¶ļà¶»à¶±à¶º
à¶¶ à¶ļà¶»à¶ľà¶Ń
à·ħ à¶ļà¶¯
Ġà¶½ à·Ĥ
Ġà¶º à¶´à·ĥ
à·Ģà¶± à¶´à·ħ
Ġà¶Ķ à·Ģà¶±
à·Ģà¶½ à¶´à¶±
à¶ĳ à¶»à¶±
à¶»à¶¸ à¶ļà¶¸
à¶»à¶º à¶¯à¶»
Ġà¶±à¶¸ à¶ºà¶ļà¶§
à¶»à¶Ń à¶Ń
à¶½à¶ļ à·Ģ
à¶Ńà¶± à¶´
à·ĥà¶± à·ĥ
Ġà¶ĳà¶¸ à¶½
à¶ļà¶ļ à·ħ
à¶»à·Ħ à¶ļà¶ºà¶±
Ġ4 18
à¶ļà·ħ à¶ľ
Ġà·Ģà·ĥ à¶»à¶Ń
Ġ8 20
Ġà·ĥà·Ħà¶· à¶ľ
à¶¸à·ħ à¶¯
Ġà¶ĩà¶± à¶´
à·ħà¶³ à·ĥà¶½à¶ļ
à¶¯à¶¸ à¶±à¶º
Ġ18 77
Ġ18 76
Ġà·Ħà¶Ńà¶» à¶ľ
Ġ40 7600
Ġ35 4
Ġ02 5
Ġà¶ħà¶¬ à¶¯
Ġà¶¸à¶½à¶º à¶Ń
Ġ64 4
Ġ54 1
Ġ54 7
Ð¾ Ñģ
Ġ20101 6
à·Ģà¶Ł à¶±à¶ľ
ĠÏ Ģ
à «
à·Ģ à·Ģà¶º
à·ļ à·Ļ
à¶½ à·Ħà¶½
à·Ħ à¶³à¶º
à¶§ à¶§à¶º
Ġà·Ģ à¶Ł
Ġà¶¯ à¶©à¶ļ
Ġà¶¶ à·Ģà¶»
Ġà¶¢ à¶©à¶ļà¶¸
Ġà¶ħà¶´ à·Ģà·Ħà¶±
à·Ģà¶º à·Ģà¶Ń
Ġà¶¢à¶± à¶»à¶½
à¶Ńà¶± à¶ľ
Ġà¶ķ à¶ħà¶º
Ġà¶ĭà¶´ à¶±à¶±
Ġà¶ħà¶½ à·ĥà¶ļà¶¸
à¶Ĩ à¶ľà¶¸à¶§
Ġà¶ħà·Ħ à·Ģ
à¶¬ à¶º
Ġà¶Ĩà·ĥ à·Ģà¶±à¶º
à¶»à¶´à¶§ à¶ļà¶»
à¶ķ à·Ģà¶º
Ġà¶»à¶« à·Ģà¶»
Ġ17 89
Ġà¶ĳà¶Ńà¶± à¶¸à¶º
Ġà¶¶à¶³ à¶´à¶§
à¶Ľà¶« à¶ľà¶Ń
Ġ2010 30
Ġà¶ħà¶¬ à·Ģà¶±
13 6
Ġ65 5
Ġ59 1
Ðµ Ñģ
Ġà® µ
ÙĨ Ø¨Ùĩ
à·ļ à·Ĵ
à·Ħ à¶¶à¶½
Ġà·Ģ à¶¸à¶ļ
âĢį à¶Ĥ
à¶¶ à¶°
à¶¶ à¶Ńà¶½
Ġà¶Ĩ à·Ĥ
à¶±à·Ģ à¶½à¶º
à¶ºà¶§ à¶´à¶Ń
Ġà¶ħà¶´ à¶·
Ġà¶¸à·Ħ à¶¯à·Ģà¶½
Ġà¶ļà¶½ à¶¶à·Ģ
Ġà¶ħà¶¯ à¶»à¶º
Ġà¶ħà¶Ń à·Ģà¶Ń
Ġà·ĥà¶¸à¶ľ à¶¸à¶º
à¶¥ à·Ģ
Ġà¶ħà¶ľ à·ĥ
Ġ6 14
Ġ8 28
à¶±à¶½ à¶ºà¶§
Ġ9 40
à¶µ à¶ļ
à¶ķ à¶©
Ġà·ħà¶Ł à¶ļ
à¶ºà¶ºà¶ļ à¶¸
à¶ľà·Ģà¶½ à¶§à¶Ń
Ġ48 3
Ġ58 1
Ġ53 7
Ġ41 0000
ĠÐ ł
Ġ67 8
à¶ħà¶»à¶½ à¶ľ
Ġà¶ ĥ
à·Ģ à¶ľà¶½
à·ı à·ļ
à¶º à¶»à¶±
à¶» à¶ľà¶º
à¶» à¶¡
à¶¸ à¶Ńà¶»à¶¸
à¶¸ à¶Łà¶ļ
à¶½ à·Ħà¶Ń
à·Ħ à¶«à¶ľ
à·Ĳ à·Ĭ
Ġà¶½ à·Ģà¶ļ
à·Ģà¶» à¶¯à¶§
à·ĳ à·ĳ
Ġà¶ħà¶´ à¶¸à¶±
à¶»à¶ļ à¶ļ
Ġà·ģ à·Ĩ
Ġà·Ģà¶½ à·Ģà¶Ń
à¶ļà¶¸ à·Ģà¶Ń
Ġà¶ļà¶Ń à·Ģà¶ļ
Ġà¶¸à¶Ń à·ĥ
Ġà¶ķ à¶ļà¶ļ
à·Ĩ à¶½à·Ģà¶»
à·Ģà¶¯ à¶§
Ġà¶Ĵà·Ģ à¶±à·Ģ
Ġ7 44
Ġà¶¸à¶» à·Ģà¶±
Ġ8 45
Ġà·ĥà¶» à¶±à¶º
Ġà·Ħà¶Ńà¶» à¶§à¶¸
à¶īà¶¯ à·Ħ
Ġ00 7
Ġà·Ħà·Ģà·ĥ à¶¸
Ġ54 6
à¶Ńà¶±à¶§ à¶¯
Ġ66 7
ĠÐ ·
Ġà¶ħà¶§à·Ģ à¶´
Ð¾ ÑĤ
Ø§ ÙĦ
Ø§ Ø±
Ġà·ĥà·ĥà¶³ à¶½
âĹ Ħ
2 20
æ µ
à¶» à¶µà¶½à¶º
Ġà·ĥ à¶Ńà¶º
Ġà¶¸ à¶»à·Ģ
à¶ľ à¶¸à¶§à¶º
Ġà·Ħ à·Ģà¶»
à¶¶ à¶»à¶«
à·Ģà¶» à¶§à¶º
à¶ļà¶» à·ħ
à¶ħ à¶ºà¶ľ
à¶· à¶ļà·ħ
Ġà·Ģà¶» à¶½à·ĥ
Ġà¶ĭà¶´ à¶ºà¶½
à¶ī à¶¸à¶¯
Ġà¶© à¶´
à¶§à¶± à¶ºà¶±
à¶½à·ĥ à·ĥà¶´
à¶ļà·ħ à·Ģ
Ġ7 25
Ġà¶Ĭà¶§ à·Ģà¶©
Ġà·Ģà·ĥ à¶¸à¶ļ
Ġà¶´à¶« à¶§à¶Ń
20 50
Ġ40 6
Ġ60 6
16 1
Ġ37 6
Ġ43 7
Ġ47 6
ãģ ª
à¤ ¨
Ð°Ð ·
å ¯
é ľ
Ġ ãĢ
à¶Ń à¶±à¶§à¶Ń
à¶¯ à¶ºà¶ļà¶º
Ġà¶¸ à·ĥà¶º
Ġà¶ħ à¶ºà¶½
à¶´ à¶§à¶Ń
à¶´ à¶§à¶ļ
Ġà·Ħ à¶¸à¶º
à¶¢ à¶ļà¶»à¶«à¶ºà¶§
Ġà¶Ĩ à¶ºà¶±
Ġà¶ĭ à¶Ķà¶½
Ġà¶ħà¶´ à·ĥà¶»à¶±à¶º
Ġà¶ĭà¶´ à¶ºà¶´
à¶ħà¶´ à¶½
Ġà·ĥà¶Ń à¶´à·Ħà¶ļà¶§
Ġà¶Ĭ à¶¶à¶§
Ġà·Ħà¶¯ à¶±à·Ģà¶½
à·Ĥà¶«à¶º à·Ģ
Ġ7 12
à¶´à¶½ à¶ºà¶§
Ġ15 10
Ġà¶¶à¶© à¶º
à¶¢à¶ļ à·Ģà¶»à¶ºà¶ļ
Ġà·ĥà¶ļ à·ĥà¶½
à¶©à¶±à¶º à¶º
Ġ70 4
à¶»à¶¸à¶«à¶º à·Ģ
à¶ļà·Ģà¶½ à¶§à¶Ń
Ġ43 0000
36 5
à¶Ŀà¶«à¶ļ à¶ºà¶ļ
ä¸ Ģ
à¶» à¶±à·Ģà¶½
à¶ļ à·Ħà¶´
à·Ħ à¶ļà¶»à¶±
à¶§ à¶±à¶ļ
à¶§ à¶ļà¶ºà¶±
à¶¯ à¶ľà¶½à¶ºà¶±
Ġà¶ĳ à¶¯à¶º
à·Ĥ à¶°à¶ºà¶ļ
Ġà¶Ķ à¶ļà¶¯
à¶ºà¶§ à¶ļ
Ġà¶¢à¶± à¶ļà¶½
Ġà·Ħà¶» à¶ºà¶§
à·Ħà¶½ à¶ľ
Ġ6 37
à¶¯à·Ģ à¶ľà¶±
Ġà¶Ĩà¶¯à¶» à¶¶à¶»
Ġà·Ģà·Ħ à¶ļà¶¯
Ġ18 61
Ġ18 62
Ġà¶»à¶§à¶§ à¶¯
Ġà¶¢à¶» à¶´à¶Ń
à¶´à¶§ à¶½à¶º
Ġ22 000
Ġ35 1
à¶¯à·Ħ à¶©
Ġ36 8
Ġà¶ħà¶¸à¶± à¶ļà¶¸
16 4
Ġà¶īà¶»à¶« à¶¸à¶¸
Ġà¶´à¶±à·Ģ à¶±à·Ģ
à¶½à¶· à¶Ń
Ġ55 1
à¶Ńà·Ģà¶½ à¶§à¶Ń
Ġ42 8
Ġ53 3
Ġ59 5
Ġ188 2
à¶ºà¶ľà¶± à¶±à¶ļ
Ġ20101 7
Ġà¶ļà¶©à¶ī à¶¸à¶§
å ±
à·Ģ à¶¸à¶«
à¶¸ à¶´à¶Ńà¶±à¶º
à¶½ à¶±à·Ģà¶½
à·Ħ à¶«à¶¯
à¶§ à¶ºà¶¯
à¶¯ à¶Łà¶±
Ġà·ĥ à¶¹
à¶¶ à¶ľà¶±
à¶¶ à¶ļà¶»à¶ľ
à¶¶ à¶ļà¶»à¶´
Ġà¶Ĩ à·Ħà¶¸
Ġà¶Ĩ à·Ģà¶§à¶Ń
Ġà·ĥà·Ħ à¶ºà¶ļà¶ºà¶±
Ġà·ĥà·Ħ à¶ľà·Ħà¶±
à¶¯à¶» à·Ģà¶½à¶§
à¶»à¶« à¶ľà¶¸
à¶¨ à¶°à¶¸
Ġà¶ħà·Ģà·ģ à¶Ń
à¶ĭ à·Ħ
Ġà·Ģà¶§ à¶ļà¶»à¶ľà¶Ń
à·ħà¶¹ à·Ģà¶º
Ġà¶ħà¶ľ à·Ģà¶±à·Ģ
à¶ħà¶¸ à¶»à¶«
19 13
Ġà¶ĩà¶» à¶´à¶±
Ġà·Ĥ à¶½
à¶¯à¶ºà¶§ à¶¯
Ġ17 76
Ġà¶ļà·ĥ à¶±à·Ģ
Ġà¶ħà¶ľà¶º à¶ºà¶ļ
Ġà¶ħà¶§ à¶¯à·Ħà·ĥ
à¶»à¶¸à¶« à¶ºà¶ļà¶§
Ġà¶¢à¶±à¶ļ à¶®
Ġ48 2
à¶łà¶ļ à¶ºà¶ļà¶§
Ð°Ð ²
Ġà¶¯à¶ľà¶½ à¶½
Ġà¶¶à¶©à¶ļ à¶©
à·Ĭ à·Ķ
à·Ĵ âģ£
à·ı à·Ĳ
à¶º à¶°à¶»
à·ĥ à¶ŀ
à·Ħ à¶«à¶ºà¶ļ
à¶« à¶ºà¶§à¶¸
à¶© à¶§à¶º
Ġà¶Ĵ à¶¯à¶«
à¶ĳ à¶·
Ġà¶¸à·Ħ à¶īà¶½
Ġà¶ľà¶Ń à¶Ń
à¶¹ à¶ļà¶»à¶ºà¶ļ
à·ģà¶º à¶»
à¶ºà¶º à¶¸à¶Ń
Ġà¶ħà¶© à¶ľ
Ġà¶Ĭ à¶Ń
Ġà·Ģà¶§ à¶ľ
Ġ5 11
à¶¶à¶½ à¶ºà¶±
Ġà¶»à¶¢à¶º à¶ºà¶±
Ġà¶±à¶ľ à¶¯
Ġ6 34
Ġ8 25
Ġà¶¶à·Ħ à·ħ
Ġà¶´à¶§ à·Ģà¶´
19 26
Ġ18 75
Ġ18 72
Ġà¶´à¶±à¶Ń à¶º
Ġà¶´à¶±à¶Ń à¶Ń
à¶±à¶ļà¶§ à¶¯
à¶±à¶ļà¶§ à·Ģà¶Ń
Ġ50 6
à¶ľà¶¸à¶±à¶º à¶Ń
à¶ºà¶¸à¶§ à¶¸
Ġ03 1
Ġ45 7
Ġ45 8
17 5
à¶ĭà¶´ à¶ºà¶±
Ġ33 00
à¶ļà¶»à¶«à¶ºà¶ļ à¶¯
27 8
Ġ53 2
Ġ89 0
Ġà¶»à¶³ à¶±
Ġà¶ħà·Ģà¶ºà·Ģ à·Ģà¶½
Ġà·ĥà¶ļà¶½ à·ĥ
æľ Ī
4 50
Î º
à °
à·Ħ à·ħà¶º
Ġà¶ļ à·Ģà¶ļà¶§
Ġà·ĥ à¶«
à¶« à¶»à·Ģ
à¶© à¶ŀ
à¶© à·ĥà·Ħ
Ġà¶º à¶ľà¶¯
à·Ĥ à¶¸à¶½
à¶¢ à¶´à·ĥ
Ġà¶¢ à¶ľà¶±
à¶±à¶º à¶ľà¶Ń
à¶¸à¶§ à¶¸à¶½
Ġà¶Ĵ à¶±à¶¸
à¶ļà¶» à¶ļà¶»
à¶¸à¶± à¶½
à¶¸à¶± à·ĥà¶§
Ġà¶ħà¶¯ à·Ģà¶±à·Ģ
Ġà¶Ńà¶» à¶½à¶ºà¶ļ
à¶ī à¶ł
Ġà¶Ĭ à¶ł
à¶Ńà¶ļ à¶ľ
Ġà¶´à¶¯ à¶ºà¶º
Ġà¶´à·Ħ à¶ļà¶§à¶Ń
Ġà¶ľà¶« à¶±à¶±
Ġ7 18
Ġà¶Ĭà¶§ à¶¯
Ġ9 30
à¶ºà¶ºà¶± à¶ºà¶ļà¶¯
Ġà¶Ķà·ĥ à·Ģà¶±à·Ģ
Ġà¶Ī à¶©
Ġ18 20
Ġà¶Ńà¶»à¶Ł à·Ģà¶½à¶¯
Ġà¶« à¶ºà¶¯
à¶»à·ħ à¶±à·Ģ
Ġà·Ģà¶łà¶± à¶ºà¶±
Ġà¶´à·Ħà·ħ à¶º
Ġ22 22
Ġà¶ļà·Ħ à¶¹
30 6
Ġà¶©à¶¶ à¶½à¶ļ
Ġ36 2
Ġà¶ħà¶»à¶ļ à¶¯
à¶¯à¶»à¶ļ à¶¸à¶ļ
à¶ļà¶® à¶±à¶ºà¶±
Ġ68 5
Ġà¶»à¶¯ à·ħà¶º
Ð» Ð¸
à¥ ĩ
à¶ĩà¶ļ à¶©à¶¸
Ġà¶»à¶³à·Ģà¶± à¶ºà¶ļ
Ġà¶¸à·ħà¶ļ à¶³
æľ ¬
è ĩ
Ġ à·ľ
à·Ģ à¶łà¶»à¶º
Ġà¶± à·ĥà·ĥà¶´à¶º
Ġà¶Ń à¶ļà¶§
Ġà¶ľ à·ħà·Ģà¶±
Ġà¶¶ à·Ĩà¶»
à¶© à·ĥà¶±
Ġà¶Ĩ à¶½à¶ļà¶¸à¶±
Ġà¶ĭ à¶¸à¶»
à¶ł à¶»à¶½
Ġà¶ħà¶´ à¶¢à¶½
à¶±à¶¸ à¶©à¶¸
Ġà·ģ à¶¯
Ġà¶´à¶» à¶Ńà¶»à¶ºà¶§
à·Ħà·ĥ à¶½
00 1
à·ĥà¶ļ à·Ģà¶Ń
Ġà¶´à·ħ à¶¯à¶±
Ġà¶´à¶½ à¶³à¶±
Ġ7 35
Ġà¶īà¶³ à¶´à¶½
à¶¸à¶ºà¶ļ à¶¸
Ġ13 50
Ġà·Ħà¶¬ à·Ģ
Ġ07 6
18 60
à¶Ī à¶Ńà¶§
16 00
Ġ48 1
Ġ37 8
Ġ56 8
Ġ64 1
Ġà¶±à·ħà¶Ł à¶±
ç ī
é Ļ
à¶§ à¶»à¶ļ
à¶§ à¶ºà¶º
Ġà¶Ĩ à¶±à·Ģ
à¶±à¶º à¶½
Ġà·ĥà¶¸ à¶ļà¶½
Ġà·ĥà¶¸ à¶ļà¶ºà¶§
Ġà¶Ķ à¶´à¶º
à¶ļà¶» à¶½à¶¸
Ġà¶¶à¶½ à¶±à·Ģà¶½
Ġà¶ħà¶¯ à·Ħà¶Ń
Ġà¶ħà¶Ń à¶ľà¶Ń
Ġà¶ľà¶± à¶±à¶§
Ġà¶ķ à·Ĥà¶¯
Ġà¶ħà¶» à¶¶à¶±
à¶»à¶« à¶¸
à·Ħà¶» à¶ºà¶§
à·Ģà¶¯ à¶ºà¶ļ
à·Ģà¶½à¶§ à·Ģà¶Ń
Ġ4 11
à¶±à¶± à¶Ł
Ġà¶Ĩà·Ģ à¶¸à¶º
Ġà¶»à¶® à¶ºà¶Ń
à¶łà¶» à¶»
Ġ9 11
à¶ľà¶» à¶ľ
Ġà¶ļà¶³ à¶´
à¶Ńà¶ºà¶± à¶§
Ġ50 9
Ġà¶±à¶Ńà¶» à¶ļà¶»à¶±
Ġà¶±à·ħ à¶½à¶Ń
Ġà¶ħà·Ħà·ĥ à¶¸
à¶´à¶¸à¶« à¶§
Ġ70 5
Ġ2010 24
Ġà¶ĩà¶¶ à¶ľ
à¶½à¶³ à¶ľà¶±
Ġ37 3
44 4
Ġà·ĥà¶»à¶¯ à¶¸à¶ļà¶§
à¶ľà¶Ł à¶§
à¶ħà¶¹ à¶Ńà¶½
ÐµÐ ¼
Ġà¶´à¶¹ à¶ºà¶±
Ġà¶¸à¶»à·Ħ à¶¬
Ġ577 111
Ð ¹
Ġ ðŁĳ
à¶Ń à·Ģà¶§
à·Ķ à·Ĳ
à·ĥ à¶¸à¶§à¶Ń
à¶½ à¶ļà¶»à¶¸
Ġà¶¸ à¶®
à¶´ à¶±à¶ļ
Ġà¶ľ à¶½à¶Ń
Ġà¶ĩ à·Ħà¶»
Ġà¶Ķ à¶»à¶ļà¶½
à¶ĳ à¶¯à¶º
à¶»à¶¸ à¶©
Ġà¶ļà¶½ à¶´à¶±
Ġà¶īà¶± à¶§
à¶±à¶§ à·Ģ
à¶½à¶ļ à¶Ńà¶»à¶ľà¶¸
Ġà·Ħà¶» à·Ģà¶º
Ġà¶ĭà¶´ à¶´à¶Ń
à¶¸à·ĥ à·Ħà¶ľà¶Ń
à¶»à¶¢ à¶ļ
à¶¢à¶±à¶º à¶¯
19 03
Ġ18 88
à·Ģà·Ħ à¶½à¶º
Ġà¶¸à·ħ à¶´
à¶»à¶±à¶º à¶º
Ġà¶īà·Ģ à¶¶à·Ģ
15 4
à¶¯à·Ħ à¶¸à¶ļ
Ġ34 3
Ġ65 000
Ġ43 2
Ġ57 6
Ġ54 8
à¶¯à¶¹ à¶»
Ġ66 8
Ġà¶´à¶§à¶½ à¶ľ
Ġà·Ħà¶¶ à¶»à¶±
à¶ħà·Ħà·ĥ à¶§
Ġà® ħ
à¶½à·ĥà¶§à·Ħà¶± à¶§
ĠØ ª
Ġà¶¸à·Ħà¶¸à¶ľ à¶¯
5 0000
Ï ĥ
à¶± à¶Ĩà¶»à¶ł
à¶» à¶³à·Ģ
à·ĥ à¶ľà¶¸à¶ļ
à¶¯ à¶©à¶ºà¶±
Ġà·Ģ à·ģà¶ºà¶±
à¶ľ à·Ħà¶º
Ġà¶¯ à¶ºà¶ļ
à·ħ à¶¯à¶ľà¶Ń
Ġà¶ļà¶» à¶«à¶ºà¶ļ
Ġà¶ī à¶»à·Ħà¶³
à¶¢ à¶ºà¶ļà¶º
à¶ł à¶ľà¶±
Ġà¶¶à·Ģ à¶ļà¶§
à·Ģà¶§ à·Ģ
à¶ľà¶Ń à·Ģà¶ļ
Ġà¶§ à·Ħ
à¶»à·Ģ à¶©
à·Ħà¶½ à·Ģ
Ġà¶ħà·Ģà·ĥ à¶»à¶½à¶Ń
Ġà·Ħà¶¸ à¶±à·Ģ
à¶ľà¶º à¶´
Ġà¶ħà¶½ à·Ģà¶´
à·ĥà¶½ à·ĥ
à¶Ĭ à¶¶
Ġà¶¸à¶° à·ĥ
à¶«à¶ºà¶ļ à¶ľ
Ġ7 16
à¶½à¶¯ à¶ľ
à¶´à·ħ à¶ļà¶§
Ġà¶Ĩà¶ł à¶»à¶«
Ġ24 000
Ġ50 7
Ġà¶ħà¶Ł à·Ħ
Ġà¶¸à¶ļ à¶±à·Ģ
Ġ42 7
Ġà¶¸à¶³ à·ĥà¶»
Ġ20101 1
1 14
Ë Ĳ
Ù ı
à¶Ń à¶ºà¶½à¶ľ
à¶¸ à¶ľà¶¸
Ġà·ĥ à¶´à¶±
Ġà¶¸ à¶¯à¶§
âĢį à·ĵ
à¶´ à¶§à¶½
Ġà¶± à¶§à¶¯
Ġà·Ħ à¶»à¶ļà¶§
Ġà·Ħ à¶´à¶¸
à¶« à¶°
à¶¶ à·Ħà¶º
Ġà¶¶ à¶¶à¶½à¶Ń
à¶¢ à¶½à¶±à¶ºà¶§
à·Ģà¶» à¶½à¶Ń
à¶ĳ à¶¶à·ĥ
Ġà¶ļà·ħ à¶³à¶ļ
à·Ģà¶º à·ĥà¶Ń
à¶»à¶Ń à¶ľ
à·Ħà¶» à¶ºà¶±
à¶¯à·Ħà·ĥ à¶¯
à¶´à¶» à¶»
à¶»à¶´à¶§ à¶ºà¶§à¶Ń
à·ģà¶±à¶º à·Ģ
Ġ12 10
Ġà¶¶à¶© à¶¯à¶»
à¶ĭà¶¹ à¶¸
Ġà¶½à¶Ł à¶ļ
Ġà·Ħà¶¯à·Ģà¶Ń à¶º
Ġà¶ħà¶§ à¶¯à·Ħà·ĥà¶ļ
Ġà¶¯à¶¹ à¶ļ
à¶½à¶³ à·ĥ
Ġ34 00
Ġ55 3
Ġ44 7
Ġ58 9
à¤ ¤
Ġ96 9
66 7
Ġ20100 9
Ġ20101 9
ĠÃ ¨
ĠÐ½ Ð°
å ¼
æ Ķ
à¶» à¶Ĩà¶»à¶ł
à·Ķ à·Ĵ
à·ĥ à¶¤
à¶½ à¶»à¶±
à¶½ à¶³à·Ģ
à¶ľ à¶±à¶§
Ġà¶¯ à·ĥà¶º
Ġà¶± à¶»à¶½
Ġà¶Ń à·Ģà¶§
à·ħ à¶ľà¶Ń
à·ģ à¶½à¶Ń
Ġà¶ļà¶» à·Ģà¶Ń
à¶® à¶±à¶ºà¶±
à¶ħ à¶±à¶¸
à¶¸à¶± à¶»à¶Ń
à¶»à¶Ń à¶ºà¶±
Ġà¶ħà¶¸ à¶»à¶¶à¶±
Ġà¶¢à¶± à¶ºà¶±
Ġà¶»à¶§ à¶ļà¶º
Ġà¶Ĵà¶ļ à¶ł
à¶»à·Ħ à¶¸à¶«
Ġà¶´à·Ģà·ĥ à¶½
à·Ĥà¶ļ à¶ºà¶§
Ġ6 29
Ġà¶ĳà·Ģ à¶±à·Ģà¶¯
à·Ģà¶ľ à·Ģ
Ġà¶īà¶³ à¶¸
à¶½à¶ľ à¶ļ
à·ĥà¶³ à¶ļ
Ġà¶ĩà¶» à¶½à¶±
Ġà·Ģà·Ħ à·ħà¶ļ
Ġ18 47
Ġà¶ľà·Ħ à¶´à¶½
Ġà¶»à¶« à¶»
Ġà¶ħà¶ľà¶º à¶¯
à¶¢à¶ºà¶ļ à¶¯
à¶±à·Ģà¶½à¶§ à¶¯
à¶ļà¶ļà¶§ à¶¯
Ġà¶´à¶¸à¶± à¶§
Ġà·ĥà¶¶ à¶ºà¶§
à¶ºà¶ļà¶» à¶±à·Ģ
18 83
18 86
Ġà¶ľà¶Ł à¶ļà¶§
Ġà¶ħà¶« à¶¶
à¶Ńà¶ļà¶» à¶±à¶º
Ġà¶Ĩà¶ºà¶Ńà¶±à·Ģà¶½ à¶§à¶Ń
Ġà¶ļà¶±à¶ľ à¶»à¶Ń
Ġ44 8
26 4
Ġ64 8
à¶»à¶ļà¶® à¶±à¶ºà¶±
à·ĥà¶¸à¶º à¶¸
ðŁĺ ī
à¸ £
Ġà¶ĵ à·Ħ
Ġà·ĥà·ĥà¶³ à¶¯
ĠÃ ³
ĠÎ ¼
Ġà·ĥà¶±à·ĥ à·Ģà¶±
Ġà¶¸à·ħà¶ļ à¶³à¶±
ÙĪ Ø±
à¶¸à·Ħà¶ľà¶¸ à·ĥ
Ù Ģ
à¶§ à¶¸à¶ļà¶¯
à¶¯ à¶ºà¶½
Ġà¶ļ à¶ºà¶±
à¶´ à¶½à¶ºà¶º
Ġà¶¯ à·ĥà¶»
à¶« à¶¯à¶¸
à¶¶ à·ħà·Ģ
à¶© à¶»à¶ºà¶±
à¶¢ à¶īà¶¯
à¶ºà¶± à¶ºà¶Ń
à¶³ à·Ģà¶Ń
Ġà·ĥà¶¸ à¶ļà¶§
Ġà·ĥà¶¸ à¶®à¶ºà¶§
Ġà¶Ķ à¶´à¶¯
à¶Ńà¶» à¶´
à¶Ńà¶» à¶ļà¶»à¶«à¶º
à·Ģà·ĥ à¶·
à¶Ĵ à¶Ńà¶»à¶¸
Ġà¶¯à¶ļ à·Ģ
Ġà¶° à¶¢à¶ºà¶§
à¶´à¶± à·Ħ
Ġà¶´à¶± à¶ľà¶±
Ġà·Ħà¶¯ à·Ģà¶±
à¶½à¶ºà¶ļ à¶§à¶¸
à¶¥ à¶µ
Ġ4 21
Ġà¶ľà¶« à¶ļà¶¸
à¶Ĭ à¶ļ
à¶¬ à¶±
Ġ6 11
Ġà¶»à¶® à¶¯
Ġ7 45
à·Ħà¶Ń à¶ļà¶§
Ġà¶Ī à¶ºà¶±
Ġà¶±à·Ģà¶Ń à¶º
Ġ18 66
Ġà¶´à·Ħà·ħ à¶§à¶¸
Ġà¶±à¶» à¶¶
20 22
Ġ01 13
Ġ03 9
Ġ2010 25
à¶»à¶¸à¶« à·Ģà¶½à¶§
à¶¯à·Ħ à·Ģ
Ġ36 1
13 3
Ġ38 7
Ġ43 4
Ġ57 8
à¯ Ĩ
ĠÐ ļ
Ġ77 5
Ðµ Ðº
Ġà¶¢à¶±à¶»à¶¢ à¶ºà¶§
Ġ20101 3
åĽ ½
Ø Ń
Ġ à·Ľ
à·Ģ à¶¸à¶»
à·ĥ à¶±à·Ģà¶±
à¶½ à¶´à·Ħ
Ġà¶ļ à·ĥà¶¸
à¶« à·Ģà¶¯
à¶¶ à¶ºà¶Ń
à¶¶ à¶´à¶½
à¶© à¶¸à¶Ń
à·ħ à¶ľà¶¸
à¶° à¶»à¶«à¶º
à¶±à·Ģ à¶»à¶Ń
Ġà¶¢ à¶±à·Ģà¶±
Ġà¶Ķ à·Ģà¶»
à¶ħ à¶¹à¶±
à¶»à¶¸ à¶Ł
Ġà¶¶à¶½ à¶ļà¶½
à¶ľà¶Ń à¶ºà¶¸
Ġà¶ķ à·Ģà¶Ń
Ġà¶Ńà¶» à¶¸à¶§à¶Ń
Ġà¶¸à¶§ à¶¸à¶º
Ġà¶ħà¶½ à¶¢
01 0
Ġà¶ĩà¶º à·Ģà¶Ń
Ġ6 16
Ġ7 99
Ġà·ĥà¶» à·Ģà¶±
Ġ15 0000
à¶ķ à¶±à¶±
Ġà¶Ńà¶»à¶Ł à·Ģ
à·ĥà¶ºà¶ļ à¶§à¶Ń
à·ĥà¶¯ à·Ħà¶¸
20 21
Ġà¶´à·Ģà¶» à¶´
Ġà¶ħà¶Ł à¶´à·ĥà¶Ł
à¶¢à¶ºà¶ļ à¶¸
Ġà¶¢à¶±à¶´à¶¯ à¶ºà¶º
Ġ05 5
Ġà¶ħà¶»à¶ľà¶½ à¶ļà¶»
à¶ļà¶ľà¶Ń à·Ħ
Ġ56 2
Ï Ģ
à¶± à·Ĩ
à¶ļ à·Ĥà¶«
à·Ħ à·Ģà¶½à¶§
Ġà¶ħ à¶¶à·Ģ
à¶´ à·Ħà¶º
à¶¶ à¶´à¶Ń
à¶© à¶Ĩà¶»à¶ł
Ġà¶ĩ à¶½à¶¸
Ġà¶Ķ à¶»à·Ģà¶±
Ġà¶ºà¶± à¶¶à·Ģ
à¶ľà¶Ń à¶½
Ġà¶´à¶» à·ĥà¶ļ
Ġà¶· à¶»à¶Ń
Ġà¶· à·Ģà¶ºà¶ļà¶¯
Ġà¶ļà¶Ń à¶¸
Ġà¶ķ à·ħ
Ġà¶Ńà¶» à¶±à¶º
Ġà¶ĭà¶´ à¶¸à·Ħ
à·ĥà¶ļ à·Ģà¶±
Ġà¶ħà¶½ à¶¯
à¶»à¶§ à·Ģà¶Ń
à¶»à·Ħ à¶§
à¶»à·Ħ à¶ºà¶¯
Ġà¶ĳà¶½ à·Ģà¶ľ
à¶½à¶° à¶»à¶ºà¶§
Ġà¶Ĩà¶»à¶ļ à·Ĥ
à¶¶à¶½ à¶Ńà¶½
Ġ6 27
Ġ7 0000
à¶§à¶ļ à·Ģà¶»à¶º
Ġà¶Ĩà¶ľà¶¸ à¶±à¶ºà¶§
à¶´à·Ħ à¶»à¶§
19 06
Ġà¶ĩà¶Ł à¶§à¶¸
Ġà¶¯à·Ħà·ĥ à¶ļà¶ľ
à¶»à·Ģà¶½ à¶§à¶Ń
Ġà¶¥ à¶±à¶º
à¶±à¶ľà¶Ń à·Ħ
Ġà¶¸à·ħ à¶¶à¶¯
à¶¢à¶ºà¶§ à¶¯
Ġ40 2
Ġ03 7
Ġ31 00
18 70
18 96
Ġ2010 23
Ġ45 9
17 0
13 7
Ġ33 10
Ġà¶¸à¶½à¶º à¶º
Ġ46 4
Ġ41 00
à¶»à·ĥà¶ļ à·Ģ
à·Ģà¶ł à¶±à·Ģà¶½
Ġà¶¯à·Ħà¶±à·Ģ à¶ºà¶ļ
æĸ °
Ġ Â¼
à¶± à¶±à¶Ń
à·Ģ à¶¯à¶»
à¶½ à·ĥà¶¸
à¶½ à¶Łà¶ļ
Ġà¶Ń à¶¹à¶½à¶ľà¶¸
à¶© à¶ļà¶»à¶ľ
à·ħ à¶§à¶º
Ġà¶ĳà¶ļ à¶»
Ġà·ĥà¶¸ à¶¯
Ġà·ĥà¶¸ à¶ºà¶ļà¶¯
à¶ħ à¶łà¶½
Ġà·ĥà¶³à·Ħ à¶§à¶¸
à·ĥà¶» à¶§à¶Ń
Ġà¶Ķà¶¶ à¶´
à·ĥà¶ļ à¶ļà¶¸
à¶¢à¶± à¶ľà·Ħà¶±
à¶ºà·Ģ à¶±à¶ºà¶§
à¶´à·ĥ à¶ºà¶±
Ġà¶Ĩà¶» à¶®
à¶§à¶´ à¶§à¶º
à¶µ à¶»
19 01
Ġà·Ģà¶»à¶¯ à¶¸
Ġ35 7
à¶»à¶¸à¶«à¶º à¶Ń
Ġà¶´à·Ħà¶± à¶§
Ġà¶¯à¶¹ à¶½
à¶ĭà¶´ à·ĥà¶¸
24 0
Ġ39 5
40 4
Ġ58 4
ĠâĢ ķ
Ġ66 5
à¤ ®
Ġ0718 59
Å ¡
ï ½
Ġ ËĪ
Ġà·ĥ à¶Ľ
à¶ľ à¶Łà¶ļ
Ġà·Ħ à¶½à¶ļà¶§
à¶© à¶±à·Ģà¶½à¶§
Ġà¶º à¶ļà¶§
à¶ºà¶§ à¶§
Ġà¶Ĵ à¶ł
Ġà¶ħà·Ģ à·Ĥ
à¶ľà¶Ń à¶ºà¶¯
à¶±à¶§ à¶¸à¶º
à¶¯à¶± à¶½
Ġà¶Ńà¶» à·Ħà¶¯
Ġà¶Ķà¶º à¶¯
à¶¯à¶º à·Ģà¶Ń
Ġà¶° à¶±à¶±
à¶ĩ à¶§à¶¸
à¶ļà¶½ à¶«
à¶´à¶ºà¶ļ à¶Ń
Ġà·ĥà¶» à¶¸à¶§
à¶ķ à¶¸à¶±
à·Ģà¶ºà¶± à¶¸
Ġà·ĥà¶ļà·ĥ à¶±à·Ģ
à¶¯à¶¸ à¶ºà¶±
Ġà¶¶à¶© à¶ļà¶§
Ġ18 14
à¶ºà¶ºà¶§ à¶º
Ġà¶Ńà·Ħà¶±à¶¸ à¶Ń
Ġà¶ĩà¶Ł à¶º
à¶ºà·Ģà¶½ à¶§à¶Ń
à¶¶à¶© à¶īà¶»
Ġà¶ĭà¶´à¶Ń à¶ļà¶§
à¶§à¶ľ à¶¸à¶ļ
14 1
Ġ66 4
Ġà¶Ńà¶¹ à¶ºà¶ļà¶§
à·Ħà¶³ à¶ľà¶¸
Ġà® ĩ
à¶ĩà¶´ à¶ļà¶»
à¶´à¶ļà¶» à¶±à¶ºà¶ļ
à¶īà·Ħà¶½ à¶¸
Ġà¶¶à¶¶à¶½ à·Ģà¶±
âĪ Ĵ
éľ ĩ
4 000
Ñ ĸ
à ²
ç Ļ
à¶± à¶±à·Ģà¶§
à·ĥ à¶¶à¶³à¶Ń
à¶§ à·Ģà¶º
à¶¯ à¶ļà¶§à¶¸
à¶ľ à¶»à¶±
Ġà¶± à¶»à¶±
Ġà¶ľ à¶ºà¶¯
à·Ĥ à¶§à¶º
Ġà¶Ĩ à¶¸à¶Ń
Ġà·ĥà¶¸ à¶ļà·ħ
à·Ģà¶» à·Ħà¶±
à¶· à¶´à¶Ńà¶±
à¶Ĵ à¶ħà¶±
Ġà·ģ à¶Ńà¶ºà¶ļ
à¶¸à¶Ń à¶°
Ġà¶´à¶» à¶¬
à¶¹ à¶¶
Ġà¶ķ à·Ģà¶»à¶ºà¶ļ
Ġà¶Ķà¶¶ à·Ħà¶§
à¶Ľ à¶¢
à·ĥà¶¸ à¶¶à¶»
Ġà¶ļà¶« à·Ģ
Ġà¶ħà¶· à¶»à¶«
à¶§à¶½ à¶Ł
Ġà¶»à·ĥ à¶ļà¶»
Ġ9 18
Ġà¶ºà¶§ à¶ľà·Ħà¶±
Ġà¶ļà¶´ à¶±à¶ļ
à¶ķ à·Ģà¶ľ
Ġà¶¢à¶½ à¶´à·Ģ
à¶´à·ħ à¶º
à¶»à¶® à¶ºà¶§
Ġà¶ĭà¶» à¶±à·Ģ
à¶©à¶» à¶»
Ġà¶¸à·ħ à¶ľà¶¸à¶§
Ġà¶»à¶¢à¶ºà¶§ à¶º
Ġà¶¸à¶»à¶«à¶º à¶¯
à¶ľà·Ħ à¶ļà¶±
à¶°à¶±à¶ºà¶§ à¶¯
à·ĥà¶¸à¶ļ à¶º
Ġ56 7
Ġ44 00
Ġ42 9
Ġ47 4
Ġ64 2
ĠÐ ¡
Ġà¶ľà¶Ńà·Ģà¶± à¶Ń
Ġ59 4
Ġ59 8
Ġ87 5
ĠØ ³
Ġà·Ģà¶¯à¶ļ à·Ħ
à·Ģ à·ħà¶¸
à¶¸ à¶®
à¶§ à·Ģà¶ľ
à¶¯ à¶ºà¶§à¶¸
Ġà·Ģ à¶¯à¶ľà¶Ń
à·ĬâĢį âĢįâĢį
Ġà¶ľ à·ħà¶´à¶±
Ġà¶½ à¶ľà¶±
Ġà¶Ĩ à¶Ńà¶¸
Ġà¶Ĩ à¶½à¶ºà¶ļ
à¶Ńà¶» à¶±à¶¸
à¶ł à¶¶
à¶ł à¶ļà¶»
à¶ł à¶±à·Ģà¶½
à¶ĳ à¶ļà¶§à¶¸
à¶»à¶ļ à¶´
à¶»à¶º à¶ºà¶±
Ġà¶§ à¶ľ
à¶»à·Ģ à·ħà¶´
Ġà¶¸à¶ľ à¶º
Ġà¶¸à¶ľ à¶µà¶½
à¶ľà¶º à·Ģ
Ġà·Ģà¶» à¶§à¶¯
à¶»à·ĥ à¶ľ
à¶¢à¶± à·ĥà¶Ń
à·Ĥà¶º à¶°
Ġà¶ĳà¶± à¶±
à¶¥ à¶¥
à¶¬ à¶ľ
Ġà¶ħà¶ļ à¶«
à¶´à¶¯ à·Ģà¶¸
à·Ħà¶¸ à¶ŀ
Ġ8 13
à¶µ à¶½à·Ģ
19 0
19 1
19 08
à¶ķ à·Ħ
à¶¤ à¶±
Ġà·Ħà¶¬ à¶ļà·Ģ
Ġà¶ļà·ĥ à¶ļà¶»
Ġ50 3
à¶¶à¶© à¶´à¶Ń
à·ĥà·Ģà¶º à¶º
à¶ļà¶¸à¶§ à¶¸
Ġ2010 29
à¶»à¶¸à¶« à·Ģà¶½
Ġà·Ħà·Ģà·ĥ à¶Ń
15 9
22 3
Ġ37 1
Ġ58 6
Ġà·ģà¶Ńà¶ļà¶º à¶º
Ġà¶ħà¶Ńà¶´à¶Ń à¶ľ
à¶´à¶»à¶ºà¶ļ à¶¸
Ð½ Ð¾
Ð¾Ð ¹
Ġ20100 4
à¶¸ à¶ľà¶½
à¶§ à·Ģà¶¸
à¶¯ à·Ģà¶ľ
Ġà¶± à¶»à¶º
Ġà¶¶ à¶¶à¶º
à¶³ à¶»
Ġà¶ĭ à¶»à¶½
Ġà¶Ĵ à¶»à¶±
Ġà¶ļà¶½ à·Ģà¶±
Ġà¶½à¶¶ à¶ľ
à¶ľà¶¸ à·ĥ
à¶ħà¶´ à¶»à¶¯
à¶Ľ à¶ľ
Ġà¶´à¶¸à¶« à·Ģà¶Ń
Ġà·Ģà¶© à¶ºà¶ļ
Ġà¶¢à¶±à¶Ń à·Ģ
à¶ĭ à¶´à¶Ńà¶ļ
Ġà¶ļà¶± à¶¶
à¶ħà¶¯ à·Ħ
Ġà¶ħà¶ºà¶§ à¶±
Ġà¶Į à¶«à¶±à¶º
à·Ģà¶±à·Ģ à¶±à¶¸
Ġ22 50
Ġà¶±à¶½ à¶½à¶§
à¶½à¶¶ à¶¸
Ġà·ĥà¶Ł à·Ģà¶¸
à¶¢à¶½ à¶¢
Ġ45 1
Ġà¶ļà¶»à¶¯à¶»à¶ºà¶ļ à¶¯
Ġà·Ģà¶ºà¶¹ à¶§
Ġ38 2
ĠÐ Ł
Ġà¶¸à·Ħà¶« à¶ļà¶¸
Ġà¶ºà·Ħà¶± à¶ļ
Ġà¶ºà·Ħà¶± à¶§
ÑĢ Ð°
à·Ħà¶ļà¶ļ à¶¸à¶ļ
à¶±à·Ģà¶ļà·Ģ à¶¯à¶º
å ¥
Ļ ķ
à¶º à¶ħ
à¶º à¶¶à·ĥ
à¶Ń à¶ľà¶½
à¶Ń à·Ħà¶¯
à¶¯ à·Ģà¶¯
Ġà·Ģ à¶©à¶ļ
à¶« à¶ļà¶¯
à¶© à¶ºà¶»
à·ģ à·Ĩ
à·ģ à¶ļà¶»à¶¸
à¶° à·ĥà¶±
Ġà¶ĩ à¶¸à¶¯
Ġà¶ĩ à·ħà¶¯
Ġà¶Ĩ à¶§à¶±
à¶ł à·ĥà¶ºà¶ļ
à¶¸à¶§ à¶´
Ġà¶ļà·ħ à¶¶à¶½à¶ļ
à¶Ĵ à¶±à¶¸
à·Ģà¶§ à¶½
à¶Ķ à¶Ńà¶±à¶§
Ġà¶· à¶ł
Ġà¶ķ à¶¢
Ġà¶¸à¶± à·ĥà¶ļà¶§
à·ĥà¶½ à¶¯
Ġà¶© à¶ł
à¶ļà¶½ à¶¶à¶½à¶ļ
à¶»à·Ħ à¶ļà¶»
à¶ļà¶»à¶«à¶º à·Ģ
à¶¡ à¶»
à¶ºà·Ģà¶» à·Ģà¶½à¶§
à¶»à¶½ à¶´
à¶ļà¶± à¶½
Ġà¶ľà¶½ à¶´à¶¸
à¶½à¶» à¶ºà¶ļà¶§
Ġà¶¢à¶º à¶Ŀ
Ġà¶¯à·Ħ à¶±à·Ģà¶º
Ġà·Ħà¶¬ à¶±à¶ľ
à·ĥà·Ģà¶º à¶Ń
Ġà¶µ à¶ļà¶ļ
Ġà¶»à¶Ł à·Ħà¶½à¶§
Ġà¶ħà·Ģà¶§ à¶Ń
Ġ31 66
Ġ02 4
15 5
Ġ65 4
Ġ56 3
Ġà·Ģà¶ł à¶±à¶¸
Ġ58 8
Ġ54 4
Ġ66 3
Ġ59 9
à·Ħà¶³ à·Ħà¶±
Ġ76 8
ãĤ ī
¦ ģ
Ģ ì
à¶± à¶łà¶»
à¶± à¶ĩà¶Ń
Ġà¶ļ à¶ºà¶Ń
Ġà¶Ń à¶½à¶ļ
Ġà¶ľ à¶³à¶§
Ġà¶º à·ĥà¶»
à¶³ à¶½à¶¸
Ġà¶Ĩ à·Ģà¶»à¶±
à·Ģà¶± à¶½à¶¯
Ġà·ĥà¶¸ à¶¢à·Ģ
à¶Ńà¶» à¶ºà¶§à¶Ń
à¶´à¶Ń à¶ļà¶¯
Ġà¶ħà¶± à¶³
Ġà¶ħà¶± à¶±à·Ģ
à¶»à¶ļ à¶¸à¶º
à¶¸à¶ļ à¶ļ
à·Ħà¶» à¶±à¶ºà¶ļà¶§
à¶ļà¶½ à¶¸à¶±
Ġà¶´à·Ħ à¶ļà¶¯
Ġà¶Ĩà¶º à¶¸à¶Ń
Ġà·Ģà¶§ à¶ļà¶»à¶½
à¶»à¶´ à¶§à¶Ń
à¶¶à¶¯ à·Ģà¶¸
à¶´à¶» à·Ģà¶½
Ġ8 15
à¶´à¶½ à¶ļà¶»à¶±
Ġ10 24
Ġà¶ĳà·ħ à¶±
Ġà¶´à¶§ à¶½à¶±
Ġà¶±à¶ľà¶»à¶º à¶¯
à¶»à·ħ à¶ºà¶§
Ġ14 50
Ġà¶¥ à¶±
à·Ģà¶´ à¶»à¶«à¶ľà¶¸
Ġ40 8
à¶½à¶±à¶ºà¶§ à¶¯
Ġà¶¯à¶Ł à¶½à¶¸
Ġ56 4
à¶łà¶ļà¶º à¶º
Ġ69 9
Ġ79 2
à¸ ²
ĠØ ¯
à¶©à·ĥà¶§ à·Ħ
æĸ ĩ
Ġà¶Ńà¶§à¶¸ à¶½
à¶± à¶½à¶ľ
à¶ľ à¶ľà¶Ńà·Ģ
à¶ľ à¶¢à¶¸
à¶´ à¶ļà¶»à¶¸
à¶« à¶´à¶Ń
à¶¶ à¶¸à¶±
à¶¶ à¶¸à¶ºà¶§
à·ħ à¶¸à¶ºà¶§
à¶° à¶±à·ĥ
à¶¢ à¶ļà·Ģ
Ġà¶ĭ à¶Ńà¶»
à¶Ńà¶» à·Ħà¶ļ
à¶® à¶ļà¶ºà¶±
à¶ħ à¶»à¶ł
Ġà·Ģà¶± à·ĥà¶º
Ġà¶´à¶» à·ģ
Ġà¶ħà¶¸ à¶°
Ġà·Ģà¶½ à¶ľ
Ġà¶· à¶ºà¶º
Ġà¶Ķà¶¶ à·Ģà¶¸
à¶Ńà¶ļ à·ħ
Ġà¶ľà¶« à¶±à¶ºà¶ļ
Ġà¶ľà¶« à¶±à¶§à¶Ń
à¶Ĭ à¶ľà¶½
à¶Ĵà¶ļ à¶´
à¶µ à·Ħ
Ġà¶Ĩà¶ľà¶¸ à¶¯
Ġ18 59
Ġ18 68
Ġà¶¢à¶º à¶´à¶»
Ġà¶¯à·Ħ à¶ºà¶¸
à¶»à¶· à¶½à·Ģ
Ġ40 7
à¶ľà¶±à¶º à¶º
Ġ45 3
Ġ55 7
Ġ49 2
à·ĥà¶»à¶¯ à¶ºà¶§
à¶»à¶¸à¶ºà¶ļà¶§ à¶º
Ġ20101 4
à¶½à¶´à¶± à¶½
â ļ
ê ³
Ġ àª
à·Ģ à¶±à·Ģà¶½
à¶¸ à¶¯à¶º
à¶§ à¶¯à·Ħà·ĥà¶ļ
à¶§ à¶ľà·Ħà¶ľ
à¶¯ à¶©à¶¶
Ġà¶ļ à¶±à¶±
Ġà¶¸ à·Ĩ
Ġà¶± à¶¸à¶§à¶¸
Ġà·Ħ à·ģ
à¶¶ à¶´à¶±
Ġà¶¶ à¶ļà¶´
Ġà¶ļà¶» à·Ģà¶ľ
Ġà¶ĩ à¶§à¶±
Ġà¶» à¶¯à¶»
à¶±à·Ģ à·ħ
Ġà¶ĭ à¶½à¶±
à¶ħ à¶¯à¶ļ
à¶· à·Ģà¶½
Ġà¶±à¶¸ à·Ħ
Ġà¶ħà·Ģ à·ģà¶ºà¶º
Ġà¶ł à·Ħ
Ġà¶· à¶§à¶ļ
Ġà¶ļà¶§ à·ĥ
à¶ľà¶¸ à¶ºà¶ļà¶§
Ġà¶¸à¶ľ à¶°à¶º
Ġà¶»à¶§ à·ģ
à¶ī à¶«
à¶»à¶§ à¶±
Ġà·ĥà¶¯ à¶ļà¶©
à¶ħà¶¯ à·Ģà¶Ń
Ġà¶ĩà·ĥ à¶ļà¶§
à¶Ŀ à¶ºà¶ļ
à¶¢à¶±à¶º à·Ģ
Ġà¶Ŀ à¶±à¶ļà¶¸à¶ļ
Ġà¶ĭà¶¹ à¶½à¶º
Ġà¶Ĩà·ĥ à¶ļà¶»à¶±
Ġ9 28
Ġ18 31
Ġà¶īà·Ģà¶» à¶¸
Ġà¶¶à¶³ à¶±
Ġà·Ħà·Ģ à·Ħà¶§
Ġà·ĥà·Ħà¶ľà¶Ń à¶¯
17 6
13 4
Ġ65 8
à¶ª à·Ģ
Ġ47 9
Ġ46 3
Ġ64 7
Ðµ Ð½Ð¸
Ġà¶¹ à¶¶à¶§
Ġà¶ħà·ĥà¶» à¶±à¶º
2 30
è ®
à¶± à¶©à¶»
à¶½ à¶±à¶Ńà¶±
à¶ľ à·ĥà¶º
à¶´ à¶ļà¶»à¶½
Ġà¶± à¶§à¶Ń
Ġà¶¶ à·Ĥà¶»
à¶© à¶ºà¶§à¶º
à¶ł à·Ģà¶½
à¶ł à¶¸à·Ħ
Ġà¶ļà¶»à¶± à¶¶à·Ģ
à¶ļà¶» à¶±à·Ģà¶¯
à¶ħ à¶Ńà¶½
à¶ħ à¶«à¶¯
à¶´à¶Ń à·Ħ
à¶Ł à¶´
Ġà¶´à·ĥ à¶ļà¶§
à¶ļà¶§ à¶´
Ġà¶ļà¶Ń à¶ľ
à¶Ĩ à¶©
à¶Ĩ à¶ºà¶¸
à¶Ĩ à¶»à¶«
Ġ7 22
Ġà¶ĭà¶¹ à¶±
Ġà¶ĩà¶¯ à¶ºà¶ļ
à¶Ńà¶§à¶¸ à¶¯
à¶ķ à¶©à¶»
Ġà·Ģà¶»à¶¯ à¶º
à¶»à¶ľà¶Ń à·ģ
Ġà¶Ĩà¶¯à¶»à¶º à¶¸
Ġà·Ħà¶º à¶¯à·Ħà·ĥ
Ġà¶ħà¶Ł à¶±
à·Ħà¶¬ à¶±
à¶¸à¶ºà¶§ à¶¯
à¶§à¶ľ à¶±à¶ºà¶§
à¶»à·Ģà¶º à¶º
à¶ħà·ĥ à¶¸à¶Ń
à¶¯à·Ħ à¶ħà¶§
Ġà¶ĭà¶¯à¶º à·ĥ
à·ģà¶« à·Ģà¶½à¶¯
Ġ55 8
Ġ99 5
Ġà¶»à¶¸ à·Ĩ
Ġà¶»à¶¯ à¶½à¶º
à¶´à¶»à¶ºà¶ļ à¶¯
Ðº Ð¸
âĪ İ
à¶Ŀà¶§ à¶ļà¶ºà¶±
ĠÐ¾ Ð±
Ġà¶ħà·ĥà¶»à¶«à¶ļ à¶¸à¶ļ
à¶ļ à·Ĥà¶ļà¶º
à·ĥ à¶¶à¶½
à¶½ à¶ĩà¶³
à·Ħ à¶³à¶§
Ġà¶ļ à·Ģà¶Ń
à¶´ à·Ħà¶½à¶§
Ġà¶¯ à¶ľà¶»
Ġà¶ľ à¶±à¶¸
à¶¶ à·Ģà¶ºà¶ļ
Ġà¶º à¶½à¶§
à·Ĥ à·Ģà¶±
à¶¢ à·Ħà¶§
à¶¢ à¶½à¶ºà¶§
Ġà¶¢ à¶½à¶Ń
à¶Ńà¶» à¶½à¶Ń
Ġà¶¸à·Ħ à¶ľà¶±
à¶¸à¶± à¶ºà¶ļà¶§
Ġà¶´à¶» à·Ħà¶ļà¶§
à¶»à¶¯ à¶Ń
Ġà¶¢à¶± à¶´à·Ģ
Ġà¶¢à¶± à¶¶à¶½à¶ºà¶ļ
Ġà¶ħà·Ģà·ĥ à¶±à¶º
à¶¯à¶» à¶§à¶º
à¶¸à¶« à¶ºà¶ļ
01 8
à·ĥà¶½ à¶§à¶º
à¶ĩ à¶½à·ĥ
à¶ĩ à¶ºà¶§à¶Ń
à¶Ńà¶ļ à¶´
Ġ5 26
à¶»à¶ºà¶ļ à¶º
Ġà¶ľà¶« à¶±à¶ºà¶§
Ġà¶ľà¶« à¶±à¶¯
à¶»à¶´ à·ħ
à¶Ĵà¶ļ à¶¸à¶º
Ġà¶Ĩà¶ºà¶Ńà¶± à¶ļ
Ġà·Ĥ à·Ĥ
Ġ18 58
à¶ħà¶Ń à¶´à·ĥ
Ġà¶Į à¶±à¶´
Ġà¶ĩà¶Ł à¶§à¶Ń
Ġà¶»à¶®à¶ºà¶ļ à¶¯
Ġà·ĥà¶¶à¶³ à¶ļà¶¸à¶ļ
Ġà¶ĳà¶Ńà¶ļ à¶½
à¶«à¶ºà¶§ à¶º
Ġà¶ħà¶« à¶ļà¶»
Ġ38 3
Ġà¶ĩà·ħ à¶ļà¶§
Ġ64 5
Ġ66 9
Ġà¶¢à¶ºà¶¸ à¶½
38 9
à¤ µ
à¶ħà¶¹ à¶ľà¶¸
ĠâĻ ¥
ÑĨ Ð¸
Ë Į
Ø ²
à¶º à¶ŀ
à¶¸ à¶»à·ĥ
Ġà·ĥ à¶»à¶¸à¶Ń
à·ľ âĢįâĢį
Ġà¶± à¶¸à¶ºà¶º
à¶© à·ħà¶º
Ġà¶ħà¶´ à¶¸à¶º
à·Ģà¶§ à·Ģà¶½
à·Ģà¶§ à¶ļà¶¸
Ġà¶¶à¶½ à¶½à¶¯
à¶±à¶Ń à¶§
Ġà¶½à¶¶ à¶ľà¶Ń
à·ģà¶º à¶´
Ġà¶´à¶Ń à¶±à¶ºà¶ļ
Ġà¶ħà¶° à¶ºà¶ļ
Ġà¶ħà¶° à¶¸à¶º
Ġà¶° à¶«
à·ĥà¶½ à¶ļà¶§à¶¸
Ġà·ĥà¶¸à¶ľ à·Ģà¶Ń
à¶»à·ģ à¶±à¶º
Ġà¶´à·Ħ à¶½à¶ļ
Ġà¶ħà¶· à¶ºà¶±
Ġà¶»à¶¢ à¶´
Ġà¶´à¶½ à·ĥà¶ļ
Ġà¶Ķà¶¶à¶§ à¶¸à¶º
à¶±à¶» à¶ľà¶¸
à¶ļà¶ºà¶ļ à¶¯
Ġà·ĥà¶½à¶ļ à¶¯
Ġà¶¶à¶»à¶´à¶Ń à¶½à·Ģ
à·Ģà·Ħ à¶¸à¶Ń
Ġà¶±à¶» à¶ľà¶º
Ġ75 5
Ġ42 6
Ġà¶»à·Ģà¶§ à¶±à·Ģ
Ġà¶¸à·Ħà¶»à¶ľà¶¸ à¶¯
Ġà¶¢à¶±à¶ľà·Ħ à¶«à¶ºà¶§
45 1
Ġ76 7
à¶®à¶ļà¶® à¶±à¶ºà¶±
Ġà¶ļà¶»à¶ļà·Ģ à¶±à·Ģ
à¶Ĩà¶Ĩ à¶Ĩà¶Ĩ
âľ Ķ
Ù Ĥ
à·Ģ à·Ģà¶½à¶¯
à¶» à¶»à¶º
à¶» à¶»à·ĥ
à¶¸ à¶¡
à¶¸ à·Ħà¶½à¶§
à·ĥ à¶«à¶§
à¶½ à·Ģà¶ļà¶§
à¶¯ à·ĥà¶Ń
Ġà·Ģ à·Ħà¶¸
à¶ľ à¶°à¶»
Ġà·Ħ à¶©à¶º
Ġà¶ľ à¶¯à¶º
à·ģ à¶½à¶º
à·Ĥ à¶°à¶º
Ġà¶¢ à¶¶à¶»
Ġà¶¢ à·Ħà¶´
Ġà¶ĭ à¶±à¶¸
à¶¸à¶§ à¶ļ
à¶® à·Ģà¶½à¶§
à¶ļà¶» à¶±à·Ģà¶§
Ġà¶¸à·Ħ à·Ħ
Ġà¶ļà·ħ à·ĥ
à¶»à¶ļ à¶Ńà¶±à·Ģà¶½à¶§
à¶«à¶º à¶ľ
Ġà¶¶à¶½ à¶ļà·ħ
Ġà¶¶à¶½ à¶ļà¶»à¶±à·Ģ
Ġà¶ħà¶» à¶¹à¶½
Ġà¶ĭà¶´ à¶ł
à¶ī à·Ģà¶»à¶º
à¶ħà¶´ à·ĥ
Ġà¶´à·ħ à¶½à¶º
à·Ħà¶» à¶±à¶ºà¶§
Ġà¶° à¶ļ
à¶¥ à¶±à¶º
Ġà¶»à¶¢ à¶ºà¶¸
Ġà¶Ĩà·Ģ à¶¸à¶Ń
à¶§à¶½ à¶¸
à¶ĳà·ĥ à¶¯à¶¶
à¶»à¶¢ à·Ģ
Ġà¶´à¶½ à¶±à·Ģ
Ġ8 16
Ġà¶Ĩà·ĥ à¶±à·Ģà¶½à¶§
Ġ9 25
Ġà¶ļà¶® à¶±à¶ºà¶±
Ġ18 57
Ġà¶ľà·Ħ à·Ģ
à¶łà¶±à¶º à¶º
Ġà¶´à¶±à¶Ń à¶ļà¶§
Ġà·Ħà¶Ńà¶» à¶½
à·Ħà¶±à¶º à¶Ń
Ġà¶¯à·ĥ à¶¯à·Ħà·ĥà¶ļà¶§
Ġà¶»à¶¢à¶ºà¶§ à¶¯
Ġà¶ĸà·Ĥà¶° à·Ģà¶½à¶§
Ġà¶ĩà¶§ à¶¹
Ġ07 0
Ġà¶ħà·Ģà¶½ à¶ļ
15 1
à¶¸à¶»à¶« à¶ļà¶»
Ġ39 1
Ġ39 3
à¶ĭà¶¶ à¶§à¶Ń
ĠÐ ±
Ġ69 7
à¤ ¦
Ġ97 5
ĠÄ «
à¶ħà¶§à¶¸ à·ĥ
ĠâĪ ļ
Ġà¶ľà¶»à·Ħ à¶±à·Ģ
Î ¯
Ù ĳ
æ ²
é ĸ
à·Ĵ à·Ĳ
à¶» à¶±à¶§
à¶ļ à¶´à·ħ
à¶½ à¶»à·ĥ
à¶§ à¶ļà·ħ
à¶§ à·ĥà¶§à¶º
Ġà¶´ à¶½à¶±à¶º
Ġà¶ħ à¶ļà¶»à¶«
âĢ Ĳ
à¶© à¶´à¶»
Ġà¶ĩà¶Ń à¶»
à·Ģà·ĥ à¶§à¶Ń
à¶ħ à·Ħà¶ľ
Ġà¶ļà·ħ à¶§
à¶Ĵ à·Ģà¶½
Ġà¶ħà¶¯ à·ĥ
à¶ľà¶± à¶ºà¶ļà¶§
à·Ĩ à¶ļ
Ġà·Ģà¶» à¶¸à¶§
Ġà·ħ à¶³à¶ļ
à¶¸à¶½ à¶¸
Ġ7 28
à¶½à¶¯ à¶´à¶½
19 09
à¶»à¶ºà¶± à¶§
Ġ18 45
Ġà¶ĳà¶±à·Ģ à¶Ń
Ġà¶´à·Ħà¶» à¶´
Ġà·Ħà¶¬ à¶½
20 5
Ġ03 5
18 95
à·Ģà·ħ à·Ħ
à¶»à¶¸à¶ºà¶§ à¶¯
Ġà·ĥà·Ģà¶± à¶Ń
Ġ39 4
ãĥ »
ÙĦ Ø§
ÑģÑĤ ÑĮ
ĠÂ ±
ïĤ ·
1 16
5 50
Ġà¶´ à¶¹à¶ľ
à¶´ à¶ľà·Ģ
Ġà·Ħ à¶»à¶ļà¶º
Ġà¶ľ à¶¯à¶ļ
Ġà¶ĳ à·ĥà¶º
à·ħ à·ĥà¶ļ
à¶° à¶ļà¶»à¶±
Ġà¶ĩ à¶±à¶º
Ġà¶» à¶°
Ġà¶Ķ à¶»à·Ģà¶½
Ġà¶ħà¶´ à·Ģà¶»
à¶ĳ à¶½à¶º
à¶ĳ à¶½à¶ºà¶ļ
Ġà¶¸à·Ħ à¶ľà¶½
à¶¸à¶ļ à¶±
Ġà¶ºà¶± à¶ĳà¶ļ
à¶ľà¶Ń à¶Ń
Ġà¶ħà¶Ń à¶§à¶¯
à¶¯à¶º à·ĥ
Ġà¶° à¶»à¶¸
à¶ºà¶ľ à¶ºà¶ļ
Ġà¶Ĩà¶»à¶ļ à¶§
Ġà¶ħà·Ħ à¶´à¶½
à¶Ĭ à¶ºà¶¸
Ġà¶īà·Ħ à¶³
Ġ18 69
Ġ18 63
Ġà¶´à¶»à¶¸ à¶Ń
à¶ļà¶»à¶«à¶ºà¶§ à¶º
Ġ50 8
à¶¶à·Ħ à¶ļà¶¯
Ġ00 2
Ġ60 3
à¶Į à¶±
10 80
17 7
à¶ľà¶«à¶ļà¶º à¶Ń
Ġ33 000
Ġ38 00
Ġ49 8
ĠÐ ³
Ġ20100 2
à¶»à¶¯à·Ħà·ĥ à¶ļà¶§
å¸ Ĥ
ãĥ¼ ãĥ
ÙĢ ÙĢ
Ï Ĥ
á Ł
å ĩ
Ġ Ê
Ġ ×
Ġ è
à¶º à¶»à¶ºà¶§
à¶» à¶»à¶¸
à·ļ à·ı
à·Ħ à¶ļà¶»à¶±à¶º
à¶§ à¶»à¶±
à¶¯ à¶Łà¶ļ
à¶¯ à·ģà¶ļà¶ºà¶ļ
Ġà¶´ à¶±à¶ļ
Ġà·ĥ à¶¯à¶º
Ġà¶¸ à·ĥà¶½
Ġà·Ħ à¶´à¶º
à¶¶ à¶ľà¶Ń
à¶¶ à¶¢à¶§
Ġà¶¶ à¶»à¶¸
à¶¢ à¶½à¶ľ
à¶ºà¶± à¶ºà¶º
à¶¸à¶± à¶¢
à·Ģà¶º à¶¸à¶º
Ġà·ĥà¶³ à¶Ń
Ġà¶ľà¶Ń à¶¸
Ġà¶¸à·Ħà¶Ń à¶ľ
à·ĥà¶½ à¶ľ
à¶±à¶ºà¶ļ à·Ģà¶Ń
à¶¸à¶» à¶±à¶º
Ġà¶´à¶¯ à·Ģà¶½à¶§
Ġà¶»à¶¢ à¶ļà¶½
Ġà¶¸à¶Ńà¶ļ à¶±à¶¸
Ġ7 29
Ġà¶ĩà¶¯ à¶¯
à¶µ à¶¶
à¶ļà¶© à¶Ń
Ġ01 0
Ġ2010 31
Ġà¶Ķà¶Ń à¶±à¶¸
15 3
Ġà¶¯à¶»à¶« à·Ģ
Ġ55 2
Ġ55 4
Ġà¶ħà¶»à¶¹ à¶Ń
Ġà¶±à¶Ł à¶Ń
Ġ39 6
Ġ39 8
Ġ43 6
Ġ54 5
Ġ49 4
Ġ59 6
Ġ68 9
à¶īà·Ģà·ĥ à¶½
Ġ180 2
ãĤ Į
åľ ¨
1 200
Ġ à·ļ
à¶± à¶ķà¶±
à¶» à¶ľà¶¸à¶ľ
à¶ļ à¶«à¶¯
à·ĥ à·ħà¶ļà¶±
à¶¯ à¶»à¶¸à¶º
à¶´ à¶Ńà¶»à¶ºà¶±
Ġà·Ħ à·Ģà·Ħ
Ġà¶ľ à·Ģà¶ºà¶ļ
Ġà¶ĳ à¶¹
à·ħ à·Ģà¶»à¶«à¶º
à·ģ à·Ģà¶ļ
Ġà¶ĩ à¶©à¶´
à¶Ńà¶» à¶°
à·Ģà·ĥ à¶ºà¶ļ
à·Ģà¶½ à¶ºà¶ļ
Ġà·ģ à¶»à¶Ń
à·Ģà¶º à¶ľ
Ġà¶ļà¶Ń à¶§
à¶ºà¶º à¶ºà¶ļ
Ġà¶´à·ħ à¶ļà¶»à¶Ń
Ġà¶ħà·ĥ à·ħà¶¸
Ġà·ĥà¶· à·Ģ
à¶Ĩ à¶Ŀ
Ġà¶ħà¶ļ à¶±
Ġà¶īà·Ħ à¶¸
à·Ĥà¶«à¶º à¶¸
à¶§à¶½ à·Ģà¶Ń
à¶½à¶¸ à¶©à¶¸
à¶½à¶¸ à¶®à¶º
à¶Ĵà¶ļ à·Ģà¶Ń
Ġ8 37
Ġà¶Ŀ à¶±à¶ļ
Ġà¶´à¶§ à¶ºà¶ļà¶§
à¶¤ à¶ºà¶ļ
Ġà¶ļà·Ģà¶¯ à¶ļ
à¶ĳà¶½ à·Ģà¶½
ðŁ ¤
à¶Ńà¶¯ à¶¶à¶½
Ġà¶ħà¶´à·Ħ à¶»à¶«
Ġà¶ľà¶Ł à¶¶à¶©
Ġ70 7
Ġ04 0
Ġà¶ļà·Ħ à¶§à¶´
Ġà¶¶à¶§ à¶±à¶º
14 3
Ġ44 9
Ġ43 1
Ġ58 7
à¶»à¶§à¶ļ à¶¢
ĠÐ °
à·Ħà¶Ńà¶» à¶ļà¶§
Ġà¶Ĭà·ħ à¶¸à¶§
âĸ ²
ĠâĢįâĢįâĢį âĢį
à¶»à¶ľà¶¸à¶± à¶ºà¶ļ
ÑģÑĤ Ð²
Ġâĸ ²
à¶īà¶»à¶« à¶¸à¶©
â ²
å ĵ
à¶Ń à¶ĭà¶Ń
à¶¯ à¶ļà¶Ń
à¶« à¶Ńà¶§
Ġà¶ĩà¶Ń à¶½
Ġà¶Ķ à·ģ
à¶ļà¶» à¶ľà¶¸
à·Ģà·ĥ à¶ļà¶§à¶¸
Ġà¶¶à¶½ à¶¸à·Ħ
à¶¸à¶Ń à¶Ń
Ġà¶ħà¶Ń à¶¸à¶º
Ġà¶ķ à¶ł
Ġà¶ķ à¶Ńà¶©
à¶ī à·ĥà·Ģ
à¶ľà¶½ à¶·
à¶ĳà·Ħ à¶±à¶¸
à¶±à¶ºà¶ļ à¶§à¶º
à¶ļà¶½ à¶ºà¶±
à¶»à·Ħ à·Ģà¶Ń
à·ħà¶¹ à·ĥ
à¶¶à¶¯ à¶Ń
Ġà¶¡ à·Ģ
à¶ľà¶½à¶º à¶Ń
Ġ7 34
Ġà¶¶à·Ħ à¶Ń
à·Ģà¶»à¶« à¶ºà¶§à¶Ń
Ġà¶Ĩà¶ºà¶Ń à¶±à·Ģà¶½à¶¯
à¶ļà¶© à·Ģà¶»
Ġ18 12
à¶¤ à¶¸
Ġà¶Ńà¶»à¶Ł à·Ģà¶¯
Ġà·Ħà¶¬ à¶´à¶§à¶ºà¶ļ
Ġà¶ĭà¶´à¶ļà¶»à¶« à¶Ń
Ġ03 2
Ġà¶ħà¶¬ à¶±à¶ļ
ðŁĳ Ĺ
à·ģà·Ģà¶½à¶§ à¶º
Ġ44 2
Ġà¶Ĩà¶· à¶»à¶«à¶º
à·ľâĢį à·Ļ
à¶ļà¶® à¶±à¶ºà¶ļ
Ġ59 7
Ġà¶ĭà¶Ķ à¶ľ
ĠØ§ÙĦ Ø¹
Ġà®¤ à®®
à¶ļà·Ħà¶§ à¶ľà·ĥ
Ð ·
à·Ģ à¶Ľà¶«
à¶½ à¶§à¶»
Ġà¶¸ à¶±à¶º
Ġà·Ħ à¶ľà·Ģà¶±
à¶© à¶ĭà¶ºà¶±
à¶° à¶ļà¶»à¶ľà¶±
Ġà¶º à¶ļà¶±
Ġà¶» à¶Ľà¶º
à¶ļà¶» à¶±à·Ģà¶±à¶¸
Ġà¶ħà·Ģ à·Ħà¶±
à¶»à¶Ń à¶½à¶º
Ġà¶´à¶» à·Ħà¶§
à¶§à¶¸ à¶©
Ġà¶¸à¶± à¶½
à¶¢à¶± à·ģ
01 12
Ġà·Ģà¶© à¶º
à·Ģà¶¯ à¶«
Ġà¶¯à·Ģà·ĥ à¶ļà¶º
à·ħà¶¹ à¶ļ
à¶Ķà¶¶ à¶§à¶¸
à¶Ŀ à¶»à¶ºà¶ļ
Ġ7 23
Ġ7 32
à¶©à·ĥà¶§à·Ħà¶± à¶¯
Ġ9 01
à¶´à·ħ à¶¯
Ġà¶Į à·Ģà¶§
Ġà¶¯à·Ħ à·Ħà¶Ńà¶»à¶ļ
à¶ħà·Ģ à¶¢
Ġà·Ħà¶¬ à¶±à·Ģ
à·ģà¶ļà¶º à¶ľ
Ġà¶»à¶Ł à·Ħà¶½à¶ļ
à¶©à¶ºà¶ļ à¶¸
Ġà¶±à·Ģà¶ļ à·Ģ
Ġà¶ħà¶±à·Ģ à¶»à¶Ńà·Ģ
à¶Ńà¶ļà¶§ à¶Ń
à·Ħà¶½à¶º à¶Ń
à¶Ńà¶ļà¶» à¶¯
25 5
à·Ĵà·Ĵ à·Ĵ
Ġà·Ħà¶»à·Ģ à¶´
Ġà¶ĭà¶´à·Ģ à¶ľà¶±
Ġà¶ľà¶¸à¶ļ à¶§à¶¸
à·Ħà¶Ńà¶» à¶¯
à¶¢à¶±à¶¸ à¶Ńà¶º
Ð° Ðº
âĢįâĢįâĢįâĢįâĢįâĢįâĢįâĢįâĢįâĢįâĢįâĢįâĢįâĢįâĢįâĢį âĢįâĢįâĢįâĢįâĢįâĢįâĢįâĢįâĢįâĢįâĢįâĢįâĢįâĢįâĢįâĢį
ç «
ç Ľ
à¶± à¶»à¶ºà¶§
à¶º à¶»à¶¢
à¶¸ à¶¯à¶»
à¶¸ à·Ģà¶½à¶¯
à¶ļ à·Ģà¶½à¶¯
à¶½ à¶±à·Ģà¶±
à¶¯ à·Ħà¶»
Ġà¶´ à¶´à¶»
Ġà¶´ à¶«à¶±
Ġà¶¸ à¶ľà¶¸
Ġà¶Ń à·Ģà¶½
Ġà·Ħ à¶½à¶´
à¶¶ à¶ļà¶¸à¶ļ
Ġà¶ĩ à¶«à¶ľ
à¶ºà¶± à¶ļà¶§
à¶³ à¶½à¶¯
à·Ģà¶½ à¶ľà¶¸
à¶· à¶ļà·Ģ
Ġà¶ħà¶Ń à¶´à·Ħ
Ġà¶¸à¶ľ à¶½
Ġà¶»à¶§ à¶§à¶º
à¶ī à¶¸à·Ħà¶Ń
Ġà¶ħà¶½ à¶¸
à·Ĥà¶« à¶½
Ġà¶´à¶¸à¶« à·Ģà¶±
à¶¨ à¶Ńà¶¸à¶º
Ġ5 19
Ġà¶ļà¶± à¶ļà¶»
à¶¯à¶ļ à¶ľ
à¶Ŀ à¶§à¶±
Ġ7 19
Ġ8 18
ĠâĢį âĢįâĢįâĢįâĢį
Ġ9 44
à·ĥà¶³ à¶ļà¶©
à¶ķ à·Ĥ
Ġà·Ģà·Ħ à·Ģ
à·ĥà¶ºà¶ļ à¶§à¶¸
Ġà¶¯à·Ħà·ĥ à¶ļà¶§à¶Ń
à¶µà¶½ à¶ļà¶º
Ġ60 9
Ġà¶ħà¶¬ à¶º
Ġï Ģ
Ġ47 2
à¶°à¶¸ à¶±à¶ºà¶§
à¶Ńà¶»à¶ľ à¶ļà¶»
Ġ53 9
Ġ68 2
Ġâ ŀ
Ġà¶¸à¶»à¶«à¶ºà¶ļ à¶¯
Ġá¹ Ń
ðŁĳĹ ðŁĳĹ
ê µ
ì Ĺ
à¶± à¶ľà¶º
à¶± à¶½à¶§
à¶¸ à¶¶à¶»
à¶ļ à¶ľà¶¸
à·ĥ à¶ļà¶»à¶º
à·Ħ à¶¯à¶º
Ġà¶´ à¶¶à¶³
à¶ľ à¶ļà¶»à¶«à¶º
à·ħ à¶¶à¶¯
à·ħ à¶´à¶Ńà¶§
à¶ºà¶ļ à¶ºà¶º
Ġà¶¢ à¶ºà¶º
Ġà¶Ķ à¶Ľ
Ġà¶ĭ à·ĥà¶Ń
à¶Ńà¶» à¶¸à¶§à¶¸
Ġà¶¶à·Ģ à¶§à¶¸
Ġà¶Ĵ à¶¸à¶¯
à¶ļà¶» à¶´à¶±
Ġà¶¸à·Ħ à¶ľà¶¸à¶ľ
Ġà¶ļà·ħ à¶ĳà·ħ
Ġà·ĥà¶³ à·ĥ
à¶Ł à¶ºà¶±
à¶»à¶§ à¶īà¶±
Ġà·Ģà¶© à¶±à·Ģ
à¶ļà¶½ à¶©
à¶ºà·Ģ à¶±à·Ģà¶±
à¶Ĩ à¶Ńà¶»à¶º
Ġà·Ģà¶§ à¶ļà¶»à¶±
Ġà¶Ĩà¶ļ à¶½à¶±
Ġà¶ľà¶« à¶ºà¶§à¶º
à¶¬ à¶´à·Ģà¶Ń
à¶¢à¶´à¶ļ à·Ĥ
à¶łà¶± à¶¯
à¶Ŀ à¶§à¶±à¶º
à¶ºà·Ģà·ĥ à¶ļà¶§à¶Ń
à¶¸à·Ħ à¶Ķà¶º
à¶±à¶ľ à·Ħ
Ġ20 28
à¶ķ à·Ĩ
à¶»à¶ľ à¶´
Ġà·ħà¶Ł à¶¸à¶º
Ġà¶´à¶« à¶Ńà¶§
Ġà¶Į à¶»à¶ľ
Ġà¶Ńà¶»à¶Ł à¶ºà¶Ń
Ġà¶»à¶§à¶§ à·Ģà¶Ń
Ġà·Ħà¶¬ à·Ģà¶±
Ġà¶«à¶º à¶¶à¶»
à¶ļà¶»à¶«à¶ºà¶§ à¶¯
à¶ħà¶° à¶»
Ġà¶¶à¶½à¶½ à·Ģà¶Ń
Ġà¶µ à¶±
à·Ħà¶¬ à¶ļ
Ġ40 9
Ġ27 000
Ġà·Ģà¶łà¶±à¶º à¶¯
Ġ00 9
Ġ02 2
Ġà¶¯à¶¹ à¶ľà¶½
à¶¸à¶½à¶º à¶ľ
Ġ48 9
à¶Ńà¶½à¶º à¶º
Ġà¶ļà·ĥà·ħ à·Ģà¶½
Ġ54 9
Ġ68 6
Ġà¶ħà¶§à¶¸ à¶ľà¶½à¶ºà¶ļ
Ġà¶ľà¶¢ à¶¯
Ġà¶Ĩà¶¯à¶º à¶¸à¶ļ
å ¿
ç §
à¶Ń à¶«à¶Ń
à¶¸ à¶¶à¶±
à¶¯ à¶´à¶½
Ġà¶ļ à·Ħà¶¸
Ġà·ĥ à·Ģà¶º
Ġà·Ħ à¶±à¶¸
Ġà·Ħ à¶¶à¶±
à¶« à·Ģà¶ļ
Ġà¶ľ à·Ģà¶±à¶»
Ġà¶ĳ à¶ĭà¶±
à·Ĥ à¶½à¶ľ
Ġà¶Ĩ à¶±à¶½
à·Ģà¶± à¶½
à·Ģà·ĥ à·Ģ
à¶»à¶¸ à·Ģà¶±
Ġà¶´à¶» à¶§
Ġà¶ľà¶± à¶¯
à¶»à·Ģ à·Ģ
à¶¯à¶± à¶¸à¶ļ
Ġà¶ĳà¶º à¶»
à¶ī à·Ģà¶»à¶ºà¶ļ
à¶ļà¶ļ à¶ļ
Ġà¶ķà¶± à¶ļà¶»à¶±
à¶¢à¶± à¶°
à¶°à¶º à·Ģ
01 7
Ġà¶Ĩà¶» à¶¶
Ġà¶īà¶½ à·ĥ
Ġà¶´à·Ħ à¶½à¶º
Ġà¶´à·Ħ à¶»à¶Ń
à¶Ńà¶½ à·Ģà¶½
à¶ºà·Ģà¶» à¶Ń
Ġà¶īà·Ħ à¶½à¶±
Ġà¶īà¶ļ à¶¸à¶±à¶§
à¶¸à·ħ à·ĥ
Ġà·ĥà¶ļà·ĥ à¶±à¶º
Ġ18 78
Ġ18 79
Ġà¶¶à¶« à¶©
Ġà·Ħà¶º à¶¯à·Ħà·ĥà¶ļ
Ġà¶ĩà¶Ł à¶Ń
Ġà¶´à¶»à¶¸ à·Ģ
à·Ģà¶±à¶º à¶º
à·Ģà¶¸à¶± à¶¸
Ġà¶Ĵà¶ļà¶ļà¶º à¶º
18 89
Ġ08 1
Ġà·Ģà·ħ à·Ħ
à¶©à¶Ń à¶½à¶º
Ġà¶ħà¶¹ à¶º
30 3
à¶»à¶ļà¶®à¶±à¶º à¶¯
15 2
Ġà¶°à¶±à·Ģ à¶Ńà¶ļ
Ġ90 9
14 7
à¶ĭà¶´ à¶ļà¶½
Ġà¶±à¶ľà¶»à¶ºà¶§ à¶Ń
à·ģà¶« à¶ºà¶ļà¶§
Ġà¶ļà¶¶ à¶½à¶§
Ġ38 9
Ġà·ĥà·ĥ à¶´à¶§
Ġ44 6
à¶ĭà¶¶ à¶ľ
Ġ49 1
ĠÐ ĳ
ĠÐ ľ
Ġà¶»à¶Ńà¶± à¶¢
à¶¢à¶¶ à¶¢à¶½
ĠðŁĻ ģ
4 38
ð ĵ
à¶» à¶ļà¶»à¶«à¶ºà¶§
à¶» à¶´à·ĥà·ħ
à¶½ à¶±à¶Ń
à¶§ à¶¢à¶±
à¶ľ à¶¢à¶±à¶ļ
à¶ľ à¶»à¶ºà¶º
à¶¶ à¶§à·Ģ
à·ħ à¶ľà¶±
à·ģ à·Ģà¶»
à¶° à¶±à¶¸
à·Ģà¶± à¶ļà¶¸
à·Ģà¶» à¶ļà¶»
à·Ģà¶» à¶ľà¶½
à¶´à¶Ń à¶§à¶´à¶Ń
Ġà¶ħà¶± à·ĥà¶ļà¶§
Ġà·Ģà¶± à·ĥà¶½
Ġà¶ħà¶º à¶¶à¶¯
Ġà¶ľà¶Ń à·Ģà¶º
Ġà¶· à¶ºà·Ģ
à·ĥà¶» à¶¶à¶¯
Ġà¶ħà¶» à·Ģà¶º
Ġà·Ģà¶© à¶½
à¶ĩ à¶±à¶ļ
à¶ĩ à¶³à¶§
à¶¨ à·ĥà¶¸
à¶Ĩ à¶»à·Ģ
à¶ºà¶¯ à¶¸à¶º
à¶Ńà·Ģ à·Ħà¶»à¶«à¶º
Ġ7 24
à¶ºà·Ģà·ĥ à¶±à¶ºà¶ļ
Ġ8 23
Ġà¶¶à¶¯ à¶ľ
Ġà¶ĩà¶½ à¶ºà¶§
Ġ18 24
Ġà¶¸à·ħ à¶º
Ġà¶ħà¶Ł à·Ģà¶½
Ġà·Ģà¶łà¶±à¶º à¶¸
Ġ03 8
Ġ70 3
à·Ħà¶½à¶º à¶ľ
13 2
Ġ48 7
à¶¸à¶»à¶« à¶ºà¶±
Ġ37 00
Ġà¶±à¶Ł à¶»
80 6
Ġà¶ħà¶»à·Ģ à¶¯
Ġà® ¨
Ġà¶Ńà·Ģà¶» à¶½
Ð°Ð ¼
Ġà¶ħà¶ºà·Ħ à¶´à¶Ńà¶§
Ġà¶ļà·Ģà¶§ à¶ļà¶¸
å¹ ³
ÑģÐº Ð°Ñı
ðŁĳĮðŁĳĮðŁĳĮðŁĳĮðŁĳĮðŁĳĮðŁĳĮðŁĳĮðŁĳĮðŁĳĮðŁĳĮðŁĳĮðŁĳĮðŁĳĮðŁĳĮðŁĳĮðŁĳĮðŁĳĮðŁĳĮðŁĳĮðŁĳĮðŁĳĮðŁĳĮðŁĳĮðŁĳĮðŁĳĮðŁĳĮðŁĳĮðŁĳĮðŁĳĮðŁĳĮðŁĳĮðŁĳĮðŁĳĮðŁĳĮðŁĳĮðŁĳĮðŁĳĮðŁĳĮðŁĳĮðŁĳĮðŁĳĮðŁĳĮðŁĳĮðŁĳĮðŁĳĮðŁĳĮðŁĳĮðŁĳĮðŁĳĮðŁĳĮðŁĳĮðŁĳĮðŁĳĮðŁĳĮðŁĳĮðŁĳĮðŁĳĮðŁĳĮðŁĳĮðŁĳĮðŁĳĮðŁĳĮðŁĳĮ ðŁĳĮðŁĳĮðŁĳĮðŁĳĮðŁĳĮðŁĳĮðŁĳĮðŁĳĮðŁĳĮðŁĳĮðŁĳĮðŁĳĮðŁĳĮðŁĳĮðŁĳĮðŁĳĮðŁĳĮðŁĳĮðŁĳĮðŁĳĮðŁĳĮðŁĳĮðŁĳĮðŁĳĮðŁĳĮðŁĳĮðŁĳĮðŁĳĮðŁĳĮðŁĳĮðŁĳĮðŁĳĮðŁĳĮðŁĳĮðŁĳĮðŁĳĮðŁĳĮðŁĳĮðŁĳĮðŁĳĮðŁĳĮðŁĳĮðŁĳĮðŁĳĮðŁĳĮðŁĳĮðŁĳĮðŁĳĮðŁĳĮðŁĳĮðŁĳĮðŁĳĮðŁĳĮðŁĳĮðŁĳĮðŁĳĮðŁĳĮðŁĳĮðŁĳĮðŁĳĮðŁĳĮðŁĳĮðŁĳĮðŁĳĮ
æ ¬
è ¨
Ġà¶ £
à¶¸ à¶¯à¶±
à¶¸ à¶¥
à¶ļ à¶ºà¶ļà¶º
à¶ļ à¶ŀ
à¶ļ à·Ģà¶»à¶«à¶ºà¶§
à·ĥ à¶¹
à·ĥ à¶¶à¶³
à·ĥ à·Ģà¶±à¶§
à¶½ à·Ĩ
à·Ħ à¶»à¶Ń
Ġà¶± à¶»à¶ľ
à¶« à·Ħà·ħ
Ġà¶½ à·Ĩ
Ġà·ĥà¶¸ à¶ļà¶»
Ġà·ĥà¶¸ à¶±à¶ºà¶§
Ġà¶ĭ à¶¶à¶±
à¶ħ à¶¶à¶½à¶±
à¶ħ à¶¯à·Ħà·ĥà¶§
à·Ģà¶½ à¶¸à¶º
Ġà¶¸à·Ħ à¶°
à¶»à¶º à·Ħ
Ġà¶¶à¶½ à¶ºà¶¸
à¶ľà¶Ń à·Ģà¶½à¶§
Ġà¶´à·ĥ à¶º
à¶Ńà¶± à¶ºà¶ļà¶»
Ġà¶»à¶§ à¶īà¶¯
à¶ºà¶º à·Ģà¶»
à·Ľ à·ı
Ġà¶¯à¶± à¶ľà·ĥ
Ġà·Ħà¶¯ à¶´à¶Ń
à¶ºà·Ģà¶» à¶ºà¶§
Ġà¶īà¶© à¶¸à¶Ń
à¶ļà·ħ à¶§
Ġà·Ģà·ĥ à¶»à¶¯
Ġà¶ľà¶½ à¶ļà¶§
Ġà¶¸à·ĥ à·Ģ
Ġà¶ºà¶±à·Ģ à¶ľ
Ġà¶ĳà¶Ń à¶±à¶§à¶¸
à¶ļà¶© à·Ģà·ĥà¶¸
à·ĥà¶¯ à¶±à·Ģ
à¶©à¶» à¶ºà¶ļà¶§
ðŁ ı
Ġà¶§à¶º à¶»à¶ºà¶ļ
à¶¸à¶ºà¶§ à¶º
18 81
à¶»à¶ļà¶®à¶±à¶º à¶Ń
15 8
à¶ħà·ĥ à·Ģà¶½
à¶ĭà¶´ à¶ļà¶»à¶«à¶º
Ġ48 4
à·Ħà¶½à¶ļ à¶¸à¶§
Ġ47 7
99 99
Ġà¶Ĩà¶·à¶»à¶« à·Ģà¶½
Ġà·ĥà¶ļà¶½ à¶¸à¶±
Ġà¶ļà·Ħà¶§ à¶ľà·Ħ
à¸ ģ
ĠÎ Ķ
ä¸ Ĭ
Ð¸Ð ²
çİ ĭ
è ģ
à¶± à¶±à·Ģà¶±
à·Ģ à¶ħà¶±
à¶º à¶¹à¶±
à¶» à¶¶à¶©
à¶ļ à·ĥà¶º
à¶ļ à¶¸à¶§à¶¯
à·ĥ à¶ľà¶Ńà·Ģ
à·Ħ à¶»à¶¸
à·Ħ à¶Ńà¶»à¶¸
Ġà¶ļ à¶ºà¶½
Ġà·ĥ à¶ļà·ħ
Ġà¶± à·Ħà¶ºà¶ļ
à¶© à¶½à¶ļ
à·ħ à·Ħà¶Ń
à¶° à·Ģà¶»
Ġà¶ļà¶» à¶³
à¶¸à¶§ à¶§
Ġà¶ħà¶´ à·Ģà¶¸
à¶ļà¶» à¶±à·Ģà¶½
à·Ģà·ĥ à¶§à¶º
Ġà·ĥà·Ħ à¶¶à¶±
à¶· à¶ºà¶¸
Ġà¶§ à·Ģà¶Ń
à¶¹ à·Ģà·Ħà¶±
Ġà¶´à¶Ń à¶¯
Ġà¶»à¶§ à·Ħ
Ġà¶Ķà·Ģ à¶¯à¶±à¶ļ
à¶±à·ĥ à·ĥà¶´
à¶Ńà¶¸ à¶ľ
Ġà·Ģà¶© à¶Ń
à¶¸à¶¸ à·Ģà¶Ń
à¶»à·Ħ à·ģ
à¶ĭ à¶ļà·ĥ
à¶Ńà·Ģ à¶ºà¶±
Ġ6 19
à¶Ŀ à¶«à¶ºà¶±
Ġà¶ĳà·ħ à¶½
Ġà·ĥà¶§ à¶±à¶Ń
Ġà¶ĭà¶¹ à¶±à¶¸
Ġà¶Ńà¶± à¶±à·Ģ
Ġà¶ĳà¶Ń à¶ļà¶¸
à¶»à¶´à¶§ à¶¯
Ġà·ĥà¶½ à¶¸à¶±
à¶´à·Ħ à·ħà¶§
Ġ12 34
Ġ18 44
à¶´à¶§ à·Ģà¶½
à·ĥà¶±à¶º à¶§à¶Ń
Ġ00 3
Ġà¶ħà¶¬ à¶ľà·Ħà¶±
Ġà·Ļ à·Ļ
Ġ56 6
Ġ56 9
Ġ47 8
Ġ64 6
Ġ49 3
Ġà·ĥà·ĥà¶» à¶§
Ġà·ģà¶Ńà¶ļà¶º à¶Ń
Ġ78 5
00000000 000000
à¶Ńà¶»à¶Ł à¶ºà¶§
Ø± Ø¨
Ġà¶¯à·Ħà¶ħ à¶§à·Ģà¶±
Ġà¶ļà¶¸à¶§à·Ħà¶± à¶ļ
ðŁĴ ķ
ÑĥÐ ±
à ¬
à¶Ń à¶ºà¶½à¶§
à·Ļ à·³
à¶§ à¶ļà¶»à¶ľà¶±
à¶¯ à¶¯à¶»
Ġà¶´ à¶¯à¶½
Ġà·ĥ à¶¯à¶½
Ġà·ĥ à¶»à¶¸à¶º
à·ĵ âĢįà·Ļ
Ġà¶¯ à¶¸à¶ļ
à¶¶ à¶»à¶¯
Ġà¶º à¶ļà¶¯
Ġà¶º à¶Ńà¶Ń
à¶ºà¶± à¶ľà¶¸
à¶±à·Ģ à¶´
Ġà·ĥà¶¸ à¶®à¶º
à¶ħ à¶ļà¶½à¶§
à¶´à¶Ń à¶ºà¶±
à¶ĳ à·ħà¶¯
Ġà¶¸à·Ħ à·ĥà¶¸à¶ºà¶¸
Ġà¶ħà¶Ńà¶» à¶§à¶¯
Ġà¶ļà¶½ à¶³à¶ļ
à¶ľà¶Ń à·Ģà¶º
Ġà¶ħà¶Ń à¶©
Ġà¶ł à¶»à¶ļ
Ġà¶ļà¶§ à¶±
à·Ħà¶½ à¶¸
Ġà¶»à¶§ à¶īà¶±
à¶ī à¶¶à¶±
à¶ľà¶½ à·Ģà¶±
à¶¯à¶º à¶´
à¶¢à¶± à¶ļà¶¸
Ġà¶ħà¶© à·Ħ
01 9
à¶¨ à¶·à¶º
à¶ºà¶ľ à¶»
à·ħà¶¹ à¶§à¶Ń
Ġà¶±à·Ģ à¶´
à¶ļà¶»à¶« à¶§
à¶»à¶½ à¶¶à¶©
Ġà¶¸à¶½ à¶»
Ġ6 32
à¶´à¶» à¶łà¶±
à¶§à·ĥ à¶ļà¶¸
à¶ļà·ħ à¶«
Ġ7 38
Ġ8 33
à¶´à¶½ à¶§à¶¸
Ġà¶ºà¶§ à·Ģà¶»
Ġà¶ºà¶§ à¶§à¶¸
à¶µ à¶º
à¶»à·ħ à·Ģà¶½
Ġà¶¯à¶Ń à¶ļà¶§
à·Ģà¶±à¶º à¶Ń
à·ģà·Ģ à·Ģà¶½à¶§
Ġ00 6
à¶īà·Ħà¶Ń à¶¯
à¶½à·Ģà¶º à¶º
à¶¸à¶»à¶º à¶º
15 6
Ġà¶´à¶»à¶ļ à¶±
14 4
Ġ75 7
à¶¯à¶¸à¶§ à¶¸
Ġ57 9
à¯ Ĥ
à¯ Ĭ
à¶»à¶ļà¶® à¶±à¶ºà¶ļà¶§
Ġ59 2
Ġ68 7
Ġà·ĥà¶¶à¶¯ à¶ļà¶¸
Ġ76 5
Ġà® ¸
ĠÏ Ħ
· º
æ ³
ç ½
ì ŀ
í Ļ
à·Ģ à·Ģà¶ļ
à¶Ń à¶´à¶»
à¶Ń à¶¤
à¶ļ à¶´à¶¯
à¶½ à·ĥà¶º
Ġà¶´ à·Ģà¶»à¶«
Ġà·ĥ à¶»à·Ģ
Ġà¶¸ à¶ºà¶»
Ġà¶ľ à¶ºà¶½
à¶¶ à·Ĥ
à¶© à¶ľà¶½
à¶© à¶¸à¶ļà¶§
à·ħ à¶§à¶¯
à·ħ à¶´à¶§
Ġà¶» à¶±à¶Ń
Ġà¶Ĵ à¶ħà¶º
à¶ºà¶½ à·Ģ
à¶· à¶ļà¶ºà¶ļ
à¶Ĵ à¶¸à¶§
à¶Ĵ à·Ģà¶§à¶Ń
à¶»à¶Ń à¶ļ
Ġà¶ħà¶Ń à¶§à¶º
à·Ħà·ĥ à¶Ń
à¶±à¶ļ à¶´
Ġà¶¸à¶§ à¶§
à¶ī à·Ħà¶½à¶§
Ġà¶Ĭ à¶Ńà¶»
Ġà¶° à¶»à¶±
Ġà·Ģà¶© à¶¸à·Ģ
à¶¨ à¶ļà¶Ń
à¶ĭ à¶¸à¶ľ
Ġà¶´à·Ħ à¶Ńà¶¸
à¶Ĩ à·ĥà¶¸
Ġà¶ħà·Ħ à¶¶
à¶Ĭ à·ħà¶¸
Ġà·Ħà¶³ à¶Ń
à¶»à¶¢ à¶ļà¶¸
Ġ7 88
à¶Ńà¶±à¶º à¶§à¶Ń
Ġà¶»à¶§à¶ļ à·Ģà¶Ń
à¶ĭà¶¹ à¶±à¶¸
Ġà¶ĳà¶ºà¶§ à¶º
à¶¶à¶© à¶ľà¶½
Ġà·Ħà¶¯à·Ģà¶Ń à¶ļà¶§
à¶¢à¶±à¶ºà¶ļ à¶¯
Ġ01 2
Ġ29 00
Ġ60 4
18 64
Ġ80 2
à¶»à¶¥ à·Ģ
16 5
Ġ56 5
Ġ89 6
Ġà¶»à¶³ à·Ģà¶¸
Ġà¶´à·Ħà¶ļà¶§ à·Ģà¶Ń
Ġ78 3
à¤ ¯
à¶»à¶ľà¶½ à¶§
Ġà·Ģà¶±à·ĥ à¶±à·Ģ
ãĢ į
Ð» Ð°
ï¼ ī
è ¯
à¶± à¶¥à¶º
à·Ģ à·Ĥ
à·Ģ à¶ī
à¶» à¶»à¶ļ
à¶¸ à¶ļà¶»à¶«
à¶ļ à¶Ľ
à¶ļ à·Ĥà¶«à¶º
à¶½ à¶»à·Ģ
à·Ħ à¶»à¶§
à¶¯ à·Ģà¶§
Ġà¶ļ à¶±à¶¸
Ġà¶´ à¶Łà¶»
Ġà¶¸ à¶±à·Ģ
à¶« à¶¶
à¶« à¶¸à¶½
à·ħ à¶Ńà¶º
à¶³ à¶³
Ġà¶ĭ à¶¯à¶±
Ġà¶ħà¶´ à¶±
Ġà¶Ĵ à¶ºà¶§
à·Ģà·ĥ à¶½
Ġà·ĥà·Ħ à¶±à¶ºà¶§
à¶»à¶ļ à¶¸à¶Ń
à¶¸à¶Ń à¶¸
Ġà¶ļà¶½ à¶½à¶ºà¶§
à¶ľà¶Ń à¶ļà¶»à¶±
Ġà·Ģà¶ľ à·Ģà¶Ń
à¶Ķ à¶Ķ
Ġà·ĥà¶³à·Ħ à¶¸
Ġà¶ĭà¶´ à¶±à¶Ń
à¶ľà¶½ à¶±à¶º
à¶ļà¶ļ à¶½
Ġà¶ħà¶© à¶¯à¶¶à¶»
à·Ĥà¶« à¶·
à·Ħà¶» à·Ģà¶½
à¶§à¶» à¶ºà¶±
Ġà¶ļà·Ģ à¶łà¶º
Ġ6 33
Ġà¶ħà¶´à¶§ à¶±à¶¸
Ġ8 22
Ġà¶´à¶« à¶¸
Ġà¶¯à·Ģà·ĥà¶ļ à·Ģà¶Ń
Ġ11 40
à·ħà¶¯ à¶´à·ħ
Ġà¶īà·Ģà¶» à¶Ń
à·ĥà·Ħ à·ģ
Ġà¶¸à¶© à·Ģà¶±
à¶ľà¶±à¶º à¶§à¶Ń
Ġà¶ĸà·Ĥà¶° à¶ºà¶±
à·ĥà¶ºà¶§ à¶º
Ġ70 2
à¶¢à¶½ à¶·
à¶½à·Ģà¶½ à¶§à¶Ń
à·ıâĢį âĢįâĢį
Ġà¶ħà¶ºà¶ļ à¶»à¶ľà¶Ń
Ġà¶¶à¶¶ à·ħà·Ģà¶±
Ġà¶¶à¶½à¶Ńà¶½ à¶Ń
Ġà¶¶à¶½à¶Ńà¶½ à·Ģà¶½
Ġ2011 31
16 2
à¶©à¶ľ à·Ħà¶½
Ġ38 1
Ġà·ĥà·ĥ à¶´à¶º
Ġ47 3
Ġà·ĥà·ħ à¶ļà¶º
88 9
Ġà¶´à¶§à¶½ à¶ľà¶±
à¤ ²
Ġ74 1
à¶ĩà¶¹ à¶»
ÙĪ Ø¯
åŃ Ĳ
à·Ģ à¶ºà¶±à·Ģ
à·Ģ à¶´à¶½
à¶ļ à¶©à¶¸
à¶ļ à·Ģà¶»à¶¯
à·ĥ à¶´à¶½
à¶¯ à¶«à¶º
Ġà¶ħ à·Ģà¶»à¶«à¶º
à¶´ à·Ģà¶¸
à¶« à¶¸à·Ħà¶½
Ġà¶ľ à¶»à·Ħà¶¸
Ġà¶» à¶¡à¶º
à¶¢ à¶´à¶Ń
à¶ºà¶½ à¶¶
Ġà·Ģà¶± à¶¸à¶½
à¶±à¶¸ à·Ģ
à·Ģà¶º à¶īà¶±
à¶¹ à¶§à¶Ń
à·Ħà¶½ à¶§à¶¯
Ġà¶ķ à·Ģà¶±
à¶ºà¶º à¶¶à·Ħ
à¶»à·ĥ à¶³
Ġà¶ħà¶½ à¶ľà¶ļ
à·Ģà¶¯ à¶ºà¶§
Ġà¶´à¶¯ à·Ģà¶±à·Ģ
Ġà¶¯à·Ģà·ĥ à¶¯
à·ħà¶¹ à¶º
à¶Ńà¶½ à¶¸à¶º
à¶¡ à¶±à¶ºà¶§
à¶ºà·Ģà¶» à¶ľà¶Ń
Ġà¶¸à¶½ à¶ľà¶¸
à¶Ŀ à¶¯
à¶½à¶Ń à¶§
à·ģà¶± à¶ľ
Ġ7 36
Ġà¶»à¶± à¶»
Ġ8 48
Ġà¶Ĩà·ĥ à¶±à¶¸
Ġ9 10
Ġ9 0000
à¶±à¶ľ à·ĥ
Ġà¶Ĩà·ĥà¶± à¶ºà¶ļà¶§
à¶ļà¶© à¶´
à¶»à¶® à·Ģà¶½à¶§
Ġ18 01
Ġ18 25
Ġ18 41
à¶ºà·ħ à¶±
à¶ļà¶¸à¶ļ à¶¯
Ġ17 98
Ġ70 9
à¶©à¶½à¶ºà¶§ à¶¯
à¶ª à¶¢
27 0
Ġ46 1
Ġ64 3
Ġà¶¶à¶¹ à¶ºà¶ļ
Ġ68 4
Ġà¶ħà¶§à·Ģ à¶ľà¶Ń
Ġ69 2
à¶£ à¶Ń
Ġà¶īà¶¹ à¶ľ
à¸ Ļ
à¶®à¶ļà¶® à¶±à¶ºà¶§
Ð°Ð ´
Ġà¶ļà·Ħà¶³ à¶ľà¶¸à¶ľ
Ġ é
à¶± à¶½à¶¸
à¶Ń à¶¯à¶ļ
à·ĥ à¶´à¶§
à·Ļ âĢįâĢį
à·Ħ à¶´à¶±
à¶§ à·ĥà¶±
à¶§ à¶§à¶¯
Ġà¶¸ à¶¯à·Ħà·ĥà¶ļ
à·ģ à¶¢
à¶° à¶¯à¶Ń
Ġà¶ļà¶» à¶±à¶ºà¶§
à·Ĥ à¶»à¶ºà¶±
à·Ģà¶± à·ĥà¶Ń
Ġà¶ĭ à¶¶à¶º
Ġà¶ħà¶Ńà¶» à¶§à¶Ń
Ġà¶ł à¶»à¶±
Ġà¶ļà¶Ń à¶±à¶º
Ġà¶»à¶§ à¶±
Ġà¶ķ à¶©à¶»à¶ºà¶ļ
à¶ľà¶º à¶ľ
à¶Ľ à¶±à¶¯
Ġà¶´à¶¸à¶« à¶§à¶Ń
à·ģà¶´ à¶½
Ġà¶¯à·Ģà·ĥ à¶ľ
Ġà·Ħà¶¯ à·Ģà¶½
Ġà¶Ĩà¶ļ à¶±
Ġà¶īà·ĥ à¶©
Ġà¶ľà¶« à¶Ń
Ġà·ĥà¶± à·Ħà¶±
Ġà¶ħà¶ľ à·Ģà¶¸
à¶ĳà¶ļ à·ĥà¶Ń
Ġà¶¶à·ĥ à·Ģà¶ļ
à¶«à¶ºà¶ļ à¶§à¶¸
à¶´à¶±à¶º à¶¸
Ġ7 33
Ġà¶¶à¶¯ à¶ºà¶ļ
Ġà¶ĳà·ħ à·Ģà¶ľ
Ġà¶Ŀ à¶»à·ĥà¶»à¶´
Ġ9 24
Ġ9 35
19 04
à¶ķ à·Ģà¶½
à¶ħà·Ģ à·Ħ
à·Ĥà¶ºà¶ļ à¶§à¶Ń
Ġà¶´à·Ħà¶½ à·Ģà¶±
ðŁ ĩ
Ġà¶ĭà¶´à¶ļà¶»à¶« à¶ºà¶ļà¶§
Ġà¶¶à¶½à¶ļ à¶«
à·ĥà¶½à¶ļ à¶¯
18 40
Ġà·ĥà¶Ł à·Ģà¶½
à·ĥà¶´ à¶½à¶±
Ġ80 6
Ġà¶ħà¶¹ à¶ľà·Ħ
15 7
ðŁĳ ī
Ġà¶īà¶»à¶« à¶¸à¶Ń
25 000
Ġ65 7
0000 000
Ġà¶īà¶Ł à¶§
à¶¯à¶»à¶ļ à¶¸à¶§
Ġà·ĥà·ħ à¶ļà¶Ń
Ġ46 6
Ġ77 6
Ġ67 4
Ġ67 7
77 7
Ġ180 3
Ġ74 8
ãĤ Ī
âĻ £
à §
æ ı
à·Ĭ âģ£
à·ĥ à¶ºà¶±à¶º
à·ĥ à¶Łà¶º
à¶¯ à·ħà¶³
Ġà·Ģ à¶¯à¶±à¶º
Ġà·Ģ à¶ŀ
Ġà·ĥ à¶¶à¶§
Ġà¶ħ à¶§à·ħ
Ġà¶± à¶§à·Ģà¶±à·Ģ
Ġà¶ľ à¶³à¶ľ
Ġà¶ľ à·Ģà¶»à·Ģ
Ġà¶¶ à¶¶à¶»
à¶³ à¶ºà¶ļ
Ġà·ĥà¶¸ à·Ģà¶Ń
à·Ģà¶» à·ģ
Ġà¶ħà¶´ à¶»à¶°
à¶® à·Ģà¶§
à¶ħ à¶ºà¶ļ
à¶ĳ à¶ŀ
Ġà¶ļà·ħ à¶½à¶ºà¶§
Ġà¶½à¶¶ à¶ľà¶±
à¶»à·Ģ à¶¶
à¶»à¶« à¶½
à¶ºà¶º à·Ģà¶½
à¶ļà¶½ à¶¶à¶½à¶º
à¶Ĭ à¶´
Ġà¶īà¶© à¶¸à¶º
à¶ĳà¶ļ à¶ľ
Ġà¶ħà·Ģà·ĥà¶± à¶¯
à¶Ŀ à¶±à¶Ń
Ġà¶´à¶½ à¶ļà¶»à¶º
Ġ7 26
Ġ8 31
Ġà¶ĭà¶© à¶¶
à¶ħà¶¸ à¶»à¶ļ
Ġà¶¢à¶½ à¶¸à¶§
Ġ18 16
Ġà¶¸à¶¯ à·ĥà¶»
Ġà¶¢à¶º à¶´à¶Ń
Ġà¶ĭà¶« à·Ħà¶´
Ġà¶¸à¶»à¶« à¶ļ
Ġ17 000
à¶ºà·Ģà¶½ à¶º
Ġà¶»à¶Ł à¶¸à¶©à¶½
Ġà¶ħà·Ģà¶§ à¶¸
18 97
Ġà·ĥà¶Ł à·ĥà¶Ń
Ġ80 5
à¶ºà¶¸à¶± à¶Ń
Ġà¶¯à¶Ł à¶¸à¶½
Ġà¶ĩà·Ĩ à¶ľà¶±
à¶Ĩà¶¯à¶»à¶º à¶Ń
Ġ47 00
Ġ85 2
Ġà¶ħà¶§à·Ģ à¶ľà¶±
36 1
Ġ69 6
Ġ78 6
Ġà¶¯à·ģ à¶¸à·ĥ
Ġ86 4
ãĢ Į
ĠÎ ±
ïĤ §
Õ ¡
æ Ľ
à·Ģ à¶°à¶ļ
à¶ļ à¶¸à¶±à¶¸
à·ĥ à·ħà¶Ń
à¶½ à¶¥
Ġà·ĥ à·Ģà¶·
Ġà¶¸ à¶¯à·Ħà·ĥ
Ġà¶¸ à¶©à¶±
à¶ľ à¶±à·Ģà¶½
à¶¶ à¶§à¶±
à·ģ à¶±à¶§
à¶° à¶¸à¶±à¶ºà¶ļ
à¶³ à¶´à¶±
Ġà¶ļà¶»à¶± à¶½
Ġà¶¸à·Ħ à·ĥà¶·
à¶Ł à·Ģà¶±
à¶±à¶§ à¶¶
à¶ºà¶¸ à¶ľ
à¶½à¶ļ à¶ºà¶ļà¶§
Ġà¶ħà¶¯à·Ħà·ĥ à¶§à¶Ń
à¶§à¶´ à·ħ
à¶»à¶½ à¶ºà¶§
Ġ6 31
à¶Ŀ à·Ģà¶»
à¶¸à·Ħ à¶¸à¶ľ
Ġ8 36
Ġ8 34
Ġà¶´à¶§ à¶ļà¶ºà¶ļ
Ġ18 37
Ġà·Ģà¶º à¶Ķ
Ġà·Ħà¶Ńà¶» à¶ļà¶§à¶Ń
Ġà¶»à·Ħà·ĥ à¶Ł
à¶©à¶´ à·Ħà¶»
à·Ģà·Ħ à¶¸à¶º
Ġà¶ĳà¶ļà¶ļà¶§ à¶º
Ġà¶ĭà¶´à¶Ń à¶Ń
Ġ60 2
18 99
Ġ70 6
Ġ70 8
à¶¸à·Ħà¶» à¶¢à¶Ń
Ġ75 6
Ġ75 8
Ġ65 9
Ġà¶ħà¶»à¶½ à¶ľà¶±
à¶ĭà¶« à·Ģà¶§
Ġ98 4
Ġ119 0
Ð°Ð ¹
8 000
æ Ģ
ë Į
Ġ à·ĸ
à¶± à¶»à¶ļà¶º
à¶º à¶´à¶º
à¶» à¶¶à¶º
à¶½ à¶¯à¶ľà¶Ń
à¶½ à¶±à·Ģà¶§
Ġà¶¯ à¶§
Ġà·Ħ à¶±à·ĥ
Ġà¶ľ à¶©à¶½
Ġà¶ĭ à¶«à¶±
à¶ł à¶¡
à¶® à¶ļà¶»
à¶ħ à¶ľà¶ļ
à¶»à¶¸ à¶¬à¶½
à¶· à¶ļà¶¸
Ġà·Ģà¶± à¶ľà·Ħà¶±à¶º
Ġà¶¶à¶½ à¶Ńà¶«
à¶½à¶º à·Ģà¶Ń
à¶Ķ à¶»à¶ļà¶½
à¶»à·Ģ à¶¸à¶º
à¶»à·Ģ à¶«à¶ºà¶§
Ġà¶¢à¶± à·Ħà¶¬
à¶½à¶ļ à·Ģà¶Ń
Ġà¶»à¶§ à¶¶
à¶ľà¶½ à¶¶
Ġà¶´à·ħ à·Ģà¶±à¶¯
à¶¢à¶± à¶»à¶¢à¶º
Ġà·ĥà¶¯ à·Ģà¶Ń
à¶¶à¶» à¶´à¶Ń
à¶ľà¶½à¶º à·Ģ
à¶ĳà¶ļ à¶Łà¶º
Ġà¶Ķà·ĥ à¶³
Ġà¶´à¶« à¶§
Ġ11 50
Ġà¶Ńà¶¯ à¶ļà¶»à¶±
Ġà¶ħà·ħ à·Ģ
à·ĥà·Ģà¶º à¶¯
Ġ21 000
à¶ħà·Ģà·ĥ à¶»à¶º
à¶ľà·Ħ à¶«
Ġà·ĥà¶»à¶½ à¶Ńà¶¸
à¶½à¶ļà¶§ à·Ģà¶Ń
Ġ07 5
18 98
à¶Ńà¶ļà¶» à·Ģ
Ġà¶ħà¶¹ à¶ºà¶ļ
Ġà¶½à¶¸à¶º à¶Ń
16 3
à¶½à¶ºà¶ļà¶§ à¶º
à¶½à¶· à¶¸
Ġà¶»à¶łà¶±à¶º à¶Ń
Ġà¶ļà¶§à·Ħà¶¬ à¶Ń
Ġ67 2
Ġ67 3
Ð° Ð½Ð¸
Ġà¶ĭà¶¶à¶½ à¶Ń
Ġà¶±à·Ģà¶¯ à·Ħà·ĥ
Ġà¶´à¶±à·Ħ à¶ļà¶§à¶Ń
ãĥ ª
æľ ī
åľ° éľĩ
Ġâŀ ¤
Ï Į
å ī
ë ¬
Ġ à·
à·ĥ à¶Ńà¶ļ
à·Ħ à¶«à¶ºà¶§
à¶§ à¶½à¶ļ
Ġà·ĥ à¶»à¶ļ
à¶« à·Ģà¶½à¶¯
à¶¶ à¶½à¶§
à¶¶ à·Ħà¶Ń
à·ģ à¶·à¶ļ
Ġà¶º à¶´
à¶ł à¶ºà¶Ń
à¶ł à¶¤
Ġà¶Ĵ à¶¯à¶±
à¶ĳ à¶¸à¶»
à¶· à¶»à¶±
à¶»à¶Ń à¶ºà¶§
Ġà¶ħà¶¸ à¶Ńà¶»à¶¸
Ġà¶ľà¶Ń à¶´
à¶¹ à¶ļà¶»à¶º
Ġà¶¸à¶Ń à¶ļà¶¸
à¶ī à¶³à¶´
à¶ħà¶´ à¶¸à¶«
Ġà¶´à·ħ à¶ļà¶»à¶´
à¶ĩ à¶¯à¶½
à¶»à¶± à·ģ
Ġà¶ļà¶¸ à¶½à¶¯
à¶»à·Ħ à·Ģà¶ļ
à¶§à¶» à·Ģà¶½
Ġà¶¯à·Ģà·ĥ à¶§à¶º
à¶ļà¶ł à¶¡
Ġ7 200
à¶©à¶¸ à¶ļà¶»
Ġ18 74
Ġà¶¯à·Ħ à¶¸à¶§à¶Ń
à¶ĭà¶¹ à¶½à¶§à¶Ń
à¶»à·ħ à·Ģ
Ġ100 1
à·ĥà¶¯ à·Ħà¶§à¶¸
à·Ħà¶¯ à·Ģà¶Ńà¶ļ
Ġà¶½à¶ľ à¶´
Ġà·ĥà¶ļ à¶¶à¶»
Ġà¶ļà·Ģà¶» à¶ºà¶§
Ġà·ĥà·Ħà¶ľà¶Ń à·Ģà¶º
18 93
à¶¶à¶»à¶º à¶º
16 6
Ġà·ĥà·ĥ à·ħ
24 1
23 4
28 8
Ġà¶Ńà¶¹ à·Ģ
Ġ69 4
Ġà¶ļà¶©à¶ļ à¶½
Ġà¶´à¶§à¶½à·Ģ à¶ľà¶±
Ġà¶¯à·Ħà¶± à¶ļ
à¸ Ń
Ġà¶ļà¶§à·Ħ à¶©à¶§
Ġà¶¯à·Ģà¶§ à¶±à¶º
à¶īà¶©à¶ļ à¶©
Ð°Ð» ÑĮ
Ø ·
å ł
à¶º à¶Łà¶½
à¶» à¶±à·Ģà¶±
à¶½ à¶¶à¶©
Ġà¶´ à¶¶à¶º
Ġà·ĥ à¶Ńà¶»à·Ģ
à¶´ à·Ģà¶»à¶±
Ġà¶¯ à¶±à¶ļ
à·ħ à¶°à¶»
à¶° à¶¢à¶º
Ġà¶» à·ĥà¶±
Ġà¶Ĩ à·ĥà¶Ń
Ġà¶Ķ à¶½à¶±
à¶Ńà¶» à·Ģà¶½à¶Ń
à¶ł à¶½à¶±à¶ºà¶ļ
à·Ģà¶ļ à¶´
à¶»à¶¸ à¶±à¶ºà¶±
à¶½à¶º à·ĥ
à¶Ł à·Ģà¶½
Ġà¶ħà·Ģ à·Ħà¶¸
Ġà¶ļà¶½ à·Ģà¶º
à¶±à¶§ à¶½
Ġà¶· à·Ģà¶±à¶º
Ġà¶ķ à¶´à¶½
à·ĥà¶» à¶«à¶ºà¶ļ
Ġà·Ħà¶¸ à¶»
à¶ī à·Ģà¶ļ
à¶ī à¶¸à¶ļ
à¶ĩ à¶¯à¶ľ
Ġà¶Ĵà¶ļ à¶ļà¶§
à¶ĭ à¶Ķà¶§
à¶½à·ĥ à·ĥà¶´à¶º
Ġà¶ļà¶± à¶ľà·ĥ
Ġà¶ħà¶ľ à¶¸à¶Ń
à¶ħà¶© à¶ľ
à¶łà¶» à¶ºà¶±
Ġà¶¸à¶» à¶¶
Ġ8 12
Ġ8 21
Ġ8 26
à¶¸à·ħ à¶Ń
Ġà¶±à·Ģà¶Ń à¶½
Ġà¶ľà·Ħ à¶½à¶±
Ġà¶´à·Ħà·ħ à¶ľà¶¸
Ġ17 99
Ġà¶µ à¶»
Ġà¶»à¶Ł à¶¸
Ġ00 8
Ġà¶´à¶¯à¶± à¶¸à¶ļà¶§
Ġ43 9
29 0
Ġ53 1
à¶½à¶ľà¶± à¶±
Ġà¶»à¶¹ à¶ļ
Ġ69 5
Ġ87 2
ðŁĺ Ĭ
ðŁĺ Ĺ
Ð» Ñı
à¶ħà·Ħà¶¸ à¶©
à·Ģà¶Ł à¶±à¶±
Ġà·Ģà·ĥà¶½ à¶ºà¶±
åı °
à¶Ĩà¶´à¶± à·ģ
7 000
Î ¬
å ĳ
à¶Ń à¶§à¶±
à¶Ń à¶´à·ĥ
à¶Ń à¶±à·Ģà¶Ń
à¶ļ à¶¶à¶©
à·Ħ à¶ļà¶¯
à¶§ à¶»à¶ºà¶º
à¶¯ à¶ļà¶ļ
Ġà·Ģ à·Ĥ
Ġà¶¸ à¶ºà¶ļ
à¶´ à¶±à·Ģà¶½à¶§
Ġà¶Ń à·ħà¶±
Ġà¶ľ à¶¸à¶¯
à¶¶ à·ĥà¶ºà¶ļ
à¶ł à¶±à¶¸
Ġà¶Ĵ à¶¯à·Ģà·ĥ
à·Ģà¶ļ à¶ļ
Ġà·ģ à¶§à¶»
Ġà¶ħà¶Ń à·Ģà¶±à¶±
Ġà¶´à¶» à¶ł
Ġà¶· à¶ľà¶¸à¶«
à¶§à¶Ń à¶º
Ġà¶Ńà¶» à¶ľà¶Ń
Ġà¶īà¶¯ à¶½à¶¯
à·ĥà¶± à¶ºà¶ļà¶§
à¶¯à¶» à¶ºà¶§à¶Ń
à¶Ľ à·Ģà¶½à¶§
à¶Ľ à¶±à¶ºà¶ļà¶§
01 5
Ġà¶© à¶¸à·ĥ
à¶Ńà¶ļ à·ĥ
Ġà¶ĳà¶± à¶¶à·Ģ
à¶ĭ à·ĥà¶§
à¶ĭ à¶¶à·Ģ
à¶Ĩ à¶·à¶»à¶«
Ġà·Ģà¶§ à¶½à¶±à·Ģ
Ġà¶īà·ĥ à¶¯
à¶¸à¶½ à¶§à¶Ń
Ġà¶»à¶¢ à·Ģà¶Ń
à¶ļà¶± à¶´
Ġà·Ģà·ĥ à¶Łà¶º
à¶±à¶ľ à¶»à·Ģà¶½
à¶ºà¶ºà¶± à¶ºà¶º
à¶µ à¶½à¶ļ
Ġ18 56
Ġà¶Į à·Ģà¶´à¶»à¶«à¶ľà¶¸
20 4
Ġà¶µ à¶½à¶ºà¶º
à·ĴâĢį âĢįâĢį
Ġ60 7
à¶½à¶Ł à¶ļà¶¯
14 8
Ġ55 000
à·Ĥà·Ģà¶½ à¶§à¶Ń
Ġ76 2
Ø§ Ø¯
ãĤ Ĥ
à¶Ŀà¶±à¶ļ à¶ºà¶§
à¶īà·Ģà¶Ń à¶½à¶±
ðŁĳįðŁĳįðŁĳįðŁĳį ðŁĳįðŁĳįðŁĳįðŁĳį
è µ
Ġ ãĢĤ
à¶Ń à·Ģà¶½à¶¸
à¶¸ à·Ģà¶ļà¶§
à·ĥ à·Ģà¶±à·Ģ
à¶½ à¶½à¶±
à¶½ à¶¶à¶¯
à·Ħ à¶¯à¶ļ
à¶§ à¶¸à¶§à¶Ń
Ġà·ĥ à¶ºà¶¸
Ġà·ĥ à¶µà¶½à¶¯
à¶´ à¶¶à¶½
Ġà¶± à¶ºà¶ļà¶º
à¶« à¶Ńà¶º
à¶¶ à¶§à¶º
à¶° à¶°
à¶¢ à¶Ńà¶º
Ġà¶Ķ à·Ģà¶§
à¶Ńà¶» à·Ħà·Ģ
à¶® à·Ģà¶º
à¶ļà¶» à¶½à¶±
à¶ħ à¶§à¶´
à¶ĳ à¶½à¶¸
à¶»à¶¸ à¶¸
à¶· à¶ļà¶ºà¶±
Ġà¶ħà·Ģ à¶¸à¶ºà¶ļ
Ġà¶´à¶» à¶Ńà¶»à¶ºà¶±
Ġà¶ľà¶Ń à¶±
Ġà¶· à¶¢à¶±
à·Ħà¶½ à·Ģà¶½
à·Ģà¶»à¶º à¶¯
Ġà¶Ńà¶¸à¶± à¶ľ
à¶Ĩ à¶¸à¶»
Ġà¶Ĩà·Ģ à·ģ
à¶¯à¶ļ à¶±
à¶ĳà·ĥ à¶´
Ġà¶īà·Ħà·ħ à¶´
Ġà¶īà·Ħà·ħ à¶ľà¶¸
Ġà¶¶à¶¯ à¶¯
Ġà¶Ŀ à¶«à¶ºà¶§
Ġ9 15
Ġ9 36
Ġ9 45
Ġà¶´à¶§ à¶ºà¶º
Ġà·Ĥ à¶Ń
Ġà·Ģà¶»à¶¯ à¶§à¶º
Ġ18 39
Ġà¶ĭà¶« à¶¶à¶§
Ġ25 0000
Ġà·ħà¶¸ à¶ºà¶§à¶Ń
à¶»à¶· à¶½à¶Ńà¶¸
à·Ĥà¶«à¶ºà¶ļ à¶»
à·Ģà¶« à¶ºà¶§
à¶¸à¶© à·Ģà¶½
Ġà¶ļà·Ģà¶» à·Ģà¶½
Ġ00 4
18 50
18 17
18 91
Ġà¶ħà¶¬ à¶ľà·ĥ
Ġà¶¯à·ģà¶ļ à·Ģà¶½à¶¯
17 67
16 8
Ġà¶ĩà¶¹ à¶½à¶º
24 7
Ġ39 7
Ġà¶»à¶ľ à¶¯à¶ļ
à¶ª à¶°à¶¯
Ġ47 1
Ġà¶Ĩà¶ľ à¶¸à¶§à¶Ń
Ġ74 6
Ġ79 8
à¶©à¶±à¶Ł à¶±à·Ģ
çľ Į
å ¨
æ ¸
Ġ Ñĥ
à·Ģ à¶´à¶»
à¶º à¶¶à¶»
à¶Ń à¶¶à¶º
à·Ħ à¶³à¶´
à¶¯ à¶±à·Ģà¶¯
Ġà¶ħ à¶ħ
Ġà¶ħ à¶½à¶±
à¶¶ à¶°à¶º
à¶¶ à¶ļà¶Ń
Ġà¶¶ à¶»à¶±
Ġà¶¶ à¶ºà¶§à¶º
à·ħ à¶¶à¶¯à·Ģ
Ġà¶½ à¶¹
à¶° à·Ģà¶½à¶¯
à¶ºà¶ļ à¶©à¶±à¶º
Ġà¶ĩ à¶¸à¶±
Ġà¶¢ à¶¹
Ġà¶ĩà¶Ń à¶¯
Ġà¶Ĵ à¶±à·Ģ
à¶Ĵ à¶¢
Ġà¶¶à¶½ à¶¸à¶±
Ġà¶§ à¶ļà·ĥ
Ġà¶ł à¶½à¶±à¶ºà¶§
à¶ļà¶º à¶´
Ġà¶ľà¶Ń à¶ļà¶»à¶º
Ġà¶īà¶¯ à·Ģà¶±
Ġà¶ħà¶» à¶ħà¶³
Ġà·Ģà¶» à¶«à¶ºà¶§
à¶±à¶ºà¶ļ à¶§à¶¯
à¶¯à¶½ à·Ģà¶Ń
à¶ºà¶¯ à¶¸à¶¯
à¶¶à¶½ à¶´à¶½
à¶½à·Ģ à¶«
à¶½à¶±à¶º à·Ģ
à¶ļà¶± à¶ºà¶±
Ġà·Ģà·ĥ à¶ľà¶ºà¶§
Ġ8 44
Ġ8 38
Ġà¶Ŀ à¶«à¶ļ
Ġà¶ĩà¶³ à·Ģà¶½
Ġà·ĥà¶½ à¶¶à¶º
19 02
Ġà¶ĩà¶½ à¶´à¶Ń
à¶ħà·Ģ à¶´
Ġà·Ħà¶¬ à¶±à¶Ł
à·ħà·Ģ à·ģà¶º
à¶§à¶ľ à·ĥà¶±
17 1
Ġï ģ
à¶§à¶»à¶§ à¶ļà¶¯
Ġà¶¯à¶Ł à¶ľ
à¶©à¶ľ à·ĥà¶±
Ġà·ħà¶ľ à¶ļà¶¯
29 9
Ġà¶¶à¶ºà¶ļ à¶»à¶±
à¤ Ĥ
Ġ0112 78
Ġà·Ģà·ħà¶³ à¶½
Ġà¶´à¶¯à¶» à¶łà¶±à¶º
ìĿ ĺ
Ġá¹ ħ
ĠÙ ģ
Ġà¶±à·Ģà¶ļà·Ģà¶¯ à¶ºà¶§
à·Ĵ âĢİ
à·Ģ à·ħà¶º
à·ĥ à¶¸à¶¸
à¶½ à¶¡
à¶§ à¶»à¶Ń
Ġà·Ģ à¶ºà·Ģà·ĥ
Ġà·Ģ à·Ģà¶½à¶º
Ġà¶± à·ħà·Ģ
à·ħ à¶¶à·Ģ
Ġà¶º à¶§à¶±
Ġà¶ļà¶» à¶³à¶ľ
Ġà¶ĩ à¶¶à¶º
à·Ĥ à¶½à¶§
à¶³ à¶´à·ħà¶§
à·Ģà¶± à¶ľà¶Ń
Ġà¶ĭ à¶©à¶±
à¶ł à¶»à¶¸à¶º
à¶ļà¶» à¶¬
à¶ļà¶» à·Ģà¶±à·Ģ
Ġà¶ħà¶± à¶ľà¶Ń
à¶Ł à¶±à·Ħ
Ġà¶ħà¶Ńà¶» à·Ģà¶Ń
Ġà¶´à¶» à¶¢à¶º
Ġà·Ħà¶» à¶«
à¶¶à¶± à¶±à¶ºà¶§
à¶ħà¶´ à¶»à¶·
à·ĥà¶¸ à¶´
Ġà¶´à¶¯ à·Ģà¶ľ
à¶¥ à¶¯
Ġà¶ľà¶« à¶´
à¶»à¶´ à¶½à¶¯
à¶ļà·Ģ à¶¸à¶º
Ġà¶ĳà¶´ à·Ģà¶Ń
Ġà¶ºà¶±à·Ģ à¶¸à¶º
Ġ10 30
Ġ9 13
Ġà¶ļà¶® à¶ļ
Ġà·Ģà¶ºà·ĥ à¶§à¶Ń
Ġà¶¶à¶« à¶ļà¶§
à¶ºà¶ºà¶§ à¶¸
Ġà¶»à¶« à¶ľà¶½
Ġà·Ħà¶Ńà¶» à¶´à·ĥ
Ġà¶¯à·Ħà·ĥ à¶Ń
à·Ħà¶±à¶º à¶¯
Ġ28 000
Ġ02 1
Ġà·Ħà¶ºà¶ļ à¶§à¶Ń
Ġ75 2
Ġà¶ļà¶»à¶« à¶¸à¶ļ
11 016
Ġà¶´à¶±à·Ģ à¶´
23 5
Ġà¶»à¶³ à·Ģà¶ľ
ĠÐ ¢
Ġ85 1
Ġ69 1
Ġà¶ħà¶¸à¶» à¶»à¶Ń
Ġ88 3
Ġà¶ħà¶·à¶º à¶»à¶Ńà¶±
Ġ94 7
Ġ86 6
Ġ125 00
Ġ79 7
Ø± Ø¯
à¥ ģ
Ð ¡
ë ĭ
à·Ģ à¶¢à¶ºà¶±
à·Ģ à¶ĩà¶¸à¶Ń
à·ĥ à¶±à·Ģà¶§
à¶¯ à¶°à¶º
Ġà¶¸ à¶¯à·Ģ
à¶ľ à¶±à¶Ń
à¶¶ à¶»à¶§
à·ħ à¶ļà¶ºà¶±
Ġà¶ī à¶»à¶º
à¶ºà¶± à¶»
Ġà¶Ĩ à¶§à¶ļ
Ġà¶ĭ à¶·
Ġà¶¸à·Ħ à¶ĭà¶½
Ġà¶ħà¶± à·ĥ
à¶· à¶¢
à¶¸à¶ļ à·Ģà¶º
à¶»à¶º à¶´
à¶¸à¶± à¶»à¶¸
Ġà¶ħà¶Ńà¶» à¶±
à¶»à¶Ń à¶¸à¶º
Ġà¶ļà¶½ à¶¹à¶±
Ġà¶´à·ĥ à¶¯
Ġà¶ł à¶»à¶«
Ġà¶ļà¶Ń à·ħ
à¶¶à¶± à¶ºà¶ļ
Ġà¶Ķà¶¶ à·Ģà¶±
Ġà·Ģà¶» à¶´à¶Ń
Ġà¶ħà¶½ à·Ħ
à¶»à¶§ à¶»
à¶»à¶§ à¶§à¶Ń
à¶ĩ à¶»à¶´
à¶ĩ à¶ľà¶§
Ġà¶© à¶ºà¶ľ
à·ĥà¶¸ à¶»à¶ļ
Ġà¶´à¶¯ à¶ºà¶Ń
Ġà¶ľà¶¸à¶± à¶§à¶Ń
Ġà¶ĳà¶½ à·Ģà¶º
à·ħà¶¹ à¶»
à¶Ńà¶½ à¶ľà¶¸
à¶§à¶´ à¶¯à¶º
à¶Ĭ à¶Ńà¶½à¶ºà¶ļ
à¶»à¶½ à¶ľà¶±
à·ģà¶± à¶»
Ġà¶»à·ĥ à¶´à¶»
Ġ8 32
à¶ºà·Ģà¶± à¶ļà¶¸
Ġà¶ĭà¶¹ à¶½à¶¸
Ġ9 26
Ġ9 77
Ġà¶ºà¶§ à¶ļà¶»à¶±
à¶§à¶ļ à·Ģà¶Ń
Ġà¶Ī à¶¸à¶»
Ġà·Ģà·Ħ à¶«
Ġ18 54
Ġà¶Į à¶½
Ġ25 62
Ġà¶Ńà¶»à¶Ł à¶ºà¶±
à¶±à¶ºà¶± à¶Ń
Ġà¶ħà¶¶ à·ĥ
Ġ100 4
Ġà¶ħà¶±à·Ģ à¶»à¶Ńà¶º
Ġ05 6
18 7
Ġ02 7
à¶¢à¶½ à·ĥà¶¸
à¶ļà¶»à¶ľà¶Ń à·Ħ
à·ħà¶³à¶´ à¶½à¶ļ
Ġà¶ħà·Ģà¶± à¶Ńà¶·
22 22
26 5
Ġà® İ
Ġà¶±à·Ħ à¶»à¶º
ðŁĺ Ľ
ãĤ Ĭ
Ġà¶±à·Ħà¶» à·Ģà¶½
Ð¾Ð ±
Ġà¶¶à¶½à¶Ń à·ħ
Ġà¶ħà¶ľà¶½à¶ļ à¶©
ìĿ ´
Õ¡ Õ
à¶¸ à¶¸à¶§
à¶ļ à¶¶à¶»à¶º
à·ĥ à·Ģà¶½à¶¸
à·Ħ à¶ºà¶ľ
à¶¯ à·ĥà¶¸
Ġà¶ļ à¶±à·Ģà¶½
à¶ľ à·ĥà¶§
Ġà¶Ń à¶¸à¶§
à¶±à¶º à·Ħ
à¶® à¶§
Ġà¶Ĵ à¶Ńà¶±
Ġà¶Ĵ à¶¸à¶§à¶¯
à¶ħ à¶Ńà¶¸
à¶ħ à¶§à¶½
à¶ħ à·ĥà¶´
Ġà·ĥà·Ħ à¶¯
Ġà¶¸à·Ħ à¶¸à¶Ń
Ġà·Ģà¶± à¶»à¶Ńà¶±
à¶Ĵ à¶ĳà·Ĩ
Ġà¶¶à¶½ à¶±à¶ļà¶½
Ġà¶´à¶Ń à¶½à¶§
Ġà¶ļà¶Ń à¶ļà¶§
à¶ī à¶´à¶½
à¶Ńà¶¸ à¶°
Ġà¶Ĵà¶ļ à¶¸à¶±
Ġà¶¢à¶±à¶Ń à·Ģà¶§
Ġà·Ĩ à¶¢
à¶Ĩ à¶±à¶ºà¶§
Ġà¶ħà¶¯à·Ħà·ĥ à·Ģ
à¶§à¶´ à¶¯
à¶§à¶½ à¶ºà¶±
à¶±à¶¯ à¶Ń
Ġà¶ĭà¶© à·Ģà¶½
à·ĥà¶³ à¶ľà¶Ń
Ġà¶Ī à¶Ńà¶§à¶¸
à¶ļà¶ļà¶» à¶º
Ġà¶Į à¶¶à¶»
Ġà¶¯à·Ħ à¶´
Ġà¶Ńà¶»à¶Ł à¶ºà¶º
Ġà¶ļà¶³ à·Ģà¶½
à·ĥà¶¯ à¶¸à¶±
20 7
Ġà¶»à¶Ł à¶¸à¶¬à¶½
Ġ23 000
Ġà¶ħà¶±à·Ģ à·ģà¶º
Ġà¶¢à¶±à¶´à¶¯ à¶ºà¶Ń
18 76
Ġà¶ľà¶Ł à¶Ń
à¶©à¶Ń à·Ħà¶±
Ġà¶ħà¶ºà¶ļ à¶½
Ġà¶ħà¶¬ à¶ľà·Ħà¶ľ
Ġà¶¶à¶§ à¶ħà¶Ń
Ġà¶¶à¶½à¶Ńà¶½ à¶¯
à·ģà·Ģà¶º à¶Ń
Ġà¶¢à¶ºà¶± à¶±
Ġà¶´à¶ł à·Ģ
Ġà¶±à¶§ à·Ģà¶¸
Ġ75 4
à¶»à·Ħà¶« à·Ģà¶½
à·ħà·Ģà¶» à¶ļà¶§
à·ħà·Ģà¶» à¶§à¶¸
à¯ ĭ
Ġ49 6
Ġ85 5
ãģ ¤
ãģ ĭ
Ġ67 6
à·Ļà·ĬâĢį à·ĬâĢį
Ġ78 1
à¤ ¸
Ġ74 3
Ġ98 2
à·ģà¶«à¶ºà¶ļ à¶¯
47 2
ĠÎ ²
ï¼ Ī
à·Ģà¶Ł à¶§
è¡ Į
Ø Į
è ¾
ê ¸
à·Ģ à·Ģà¶¸
à¶Ń à¶±à¶§à¶¸
à¶½ à¶¶à¶½
à·Ħ à¶ºà¶§à¶Ń
Ġà¶¸ à·Ģà¶§à¶¯
à¶´ à·Ģà·ĥà¶¸
à¶« à¶ļà¶½
à·ħ à¶Ńà¶§
à·ģ à¶ļà¶¸
Ġà·ĥà¶¸ à¶¯à¶»
à·Ģà¶» à¶§à¶¸
à¶ł à¶¸à¶§
à¶¸à¶§ à¶ºà¶ļ
Ġà¶ļà¶»à¶± à¶ľà¶¸à¶±
à¶ħ à¶½à¶º
Ġà·ĥà·Ħ à·ĥà¶±
à¶ºà¶½ à¶ºà¶ļ
Ġà¶¸à·Ħ à¶¸à·ħ
à¶»à¶º à¶¯à·Ħà·ĥ
à·Ģà¶§ à¶´à¶Ń
Ġà¶ħà¶Ń à¶±à¶§
Ġà¶ľà¶Ń à·Ģà¶Ń
à¶»à¶« à·Ģà¶½à¶¯
Ġà¶¸à¶± à¶»
Ġà¶ħà¶© à¶¯
à¶´à¶± à¶±
Ġà¶´à·Ħ à¶§à¶¸
Ġà¶´à·Ħ à¶ļà¶½
à¶Ĩ à¶ºà¶Ń
Ġà¶¶à¶½à¶± à¶ļà¶¸
à·ĥà¶§ à¶±à¶ļ
Ġà·Ģà¶§ à·Ħà¶½
à¶½à¶§ à¶±à¶¸
Ġà¶±à·Ģ à·Ģà·ĥà¶»à¶ļ
Ġà¶ľà¶« à¶ºà¶ļ
à¶¡ à·ĥ
à¶ºà·Ģà¶» à¶¯
à¶½à·Ģ à¶ľà¶±
Ġà¶ħà¶· à¶ºà¶»à¶Ń
à¶ľà¶½à¶º à¶º
à¶§à¶½ à¶»
Ġà¶´à¶½ à·Ģà¶½
Ġà·Ģà·ĥ à¶¯
Ġà·Ģà·ĥ à¶ľ
Ġà¶ĭà·ĥ à·Ģ
Ġ8 14
Ġ8 27
Ġà·ĥà¶§ à·Ħ
Ġà·ĥà¶» à·ħà¶¸
Ġ9 32
Ġà¶Ī à¶ļ
à¶½à¶´ à¶§à¶¶
Ġ18 19
Ġ18 21
Ġà¶ĩà¶ľ à¶ļ
Ġà¶¯à·Ħ à¶¸à¶¯
Ġà¶´à·Ħà·ħ à¶§à¶Ń
à·Ħà¶ºà¶ļ à¶ľ
18 6
18 88
Ġ02 12
Ġà·Ģà·ħ à¶¯à¶±
Ġà¶ħà¶»à¶ľà¶½ à·Ģà¶½à¶¯
Ġà¶¯à·ģà¶ļ à¶ºà¶ļà¶§à¶Ń
17 3
Ġ75 1
16 9
à¶¯à¶±à¶ºà¶§ à¶¯
Ġà¶ļà¶Ńà¶»à¶ľà¶¸ à¶¯
Ġà¶ķà·Ģà¶» à¶ºà¶ļà¶§
Ġ86 5
Ġ86 7
Ġ84 9
Ġà¶ħà·Ħà·Ģà¶» à·Ģ
ãĤ ¹
ãĥ ©
00000000 00
ĠÅ į
å¤ ©
Ġâĺ ħ
Ġà¶¸à¶°à¶º à·ĥ
0 30
2 60
3 20
Ñ ī
à ½
æ İ
ì Ĥ
à· ¿
à¶» à¶©à¶ļà¶ºà¶ļ
à¶Ń à¶ļà¶»à¶¸
à¶ļ à·Ĥà·Ģ
à·ĥ à¶ħ
à·Ħ à·ħà¶§
Ġà¶¸ à·ģ
Ġà¶¯ à¶´à¶±
Ġà¶Ń à¶¯à¶ļ
Ġà¶Ń à¶ľà¶»
à¶« à¶§à¶¯
à¶¶ à·ĥà¶§
Ġà¶º à¶±à¶¸
Ġà¶ĩ à¶½à¶¯
Ġà¶ĩ à¶§à¶¯
à·Ĥ à¶·à¶º
à·Ĥ à·ĥà·Ħà¶ľà¶Ń
Ġà¶ī à¶¸à¶§
à¶ºà¶± à·Ģà¶§à¶Ń
Ġà¶Ķ à¶©à¶»
Ġà¶Ĵ à¶ĳà¶±
à·Ģà·ĥ à¶§à¶¯
à·Ģà¶ļ à¶ºà¶§
à¶· à¶ľà¶Ń
à·Ģà¶º à¶´
à¶Ł à·Ħ
Ġà¶ħà¶¯ à·ħ
Ġà¶ħà¶º à·Ģà¶º
Ġà¶´à¶» à·ĥà¶±
Ġà¶§ à·Ĥ
à¶ºà¶¸ à¶»
à¶½à¶± à¶±
Ġà¶ħà·Ģà·ĥ à¶»à¶ºà¶±
Ġà¶ĭà¶´ à¶¢à¶±
Ġà·ĥà¶Ń à¶§
à¶©à¶ļ à¶Ń
à·Ģà¶¯ à·Ħ
à¶¨ à¶ºà¶Ń
à¶ĭ à¶·à¶º
à¶±à¶ºà¶§ à·Ģà¶Ń
Ġà¶´à¶± à¶¯
à·Ģà¶ºà¶ļ à¶§à¶¸
à¶Ńà¶½ à¶½
à¶ļà¶Ń à¶ļà¶§
Ġà¶¸à¶½ à¶«
à¶ħà¶© à·ĥ
à¶´à¶¯ à¶±à¶º
à¶ļà·ħ à¶¶à¶½
Ġ9 38
Ġà·ĥà¶§à·Ħà¶± à¶ļà¶¯
à¶¸à·Ģ à¶´
Ġà¶ĳà¶±à·Ģ à¶ļ
Ġà¶¯à·Ħà·ĥ à¶§
Ġà¶Ĩà¶Ń à¶ľ
Ġà¶īà¶©à¶ļ à¶©à¶Ń
Ġ26 000
Ġà¶Ĵà¶ļà¶ļà¶º à¶¯
à¶©à¶±à¶º à¶¯
à¶Ĵà¶ļà¶§ à¶±à¶¸
18 4
17 96
à·Ħà¶« à¶°
Ġà·ĥà·Ģà¶± à¶ļ
23 6
Ġ77 3
Ġ69 3
Ġ67 1
Ġ74 9
Ġà¶¹ à¶ļ
Ġá º
Ð¸Ð ¼
äºº äºº
å İ
å Ł
è ª
à¶» à¶µà¶½à¶¯
à¶¸ à¶ļà¶»à¶¸
à¶ļ à·Ħà¶Ń
à·ĥ à¶±à·Ģà¶½
à¶½ à·Ħà¶º
à¶½ à¶Ńà¶»à¶«à¶º
à¶ľ à¶´à¶§
Ġà¶ħ à¶±à¶º
Ġà¶ľ à¶±à¶Ń
à¶¶ à¶ļà·Ģ
Ġà¶¶ à¶¶à¶Ń
à·ħ à¶·
à·ģ à¶Ńà¶ļ
à¶ºà¶± à¶ºà¶§à¶Ń
Ġà¶Ķ à¶±à¶¯
à¶ł à¶łà¶»
Ġà¶ħà¶´ à¶½à¶¯
Ġà¶ļà·ħ à¶¶à·Ģ
à¶· à·Ģà¶½à¶§
à¶»à¶º à¶¸à¶º
à¶ľà¶Ń à¶±
Ġà¶´à·ĥ à¶³
Ġà¶½à¶¶ à¶±à¶ļ
à¶Ķ à¶ľà·ĥ
à¶¹ à·ĥà¶ļ
à¶Ńà¶º à·ĥ
à·Ħà¶½ à¶ļà¶»à¶«à¶º
à·ĥà¶» à¶ºà¶ļà¶º
Ġà¶ħà¶» à¶ºà¶ļ
à¶ī à¶ºà¶»
à·ĥà¶º à·Ģà¶Ń
à¶ĩ à¶ľà¶½
Ġà¶ĭà¶¯ à¶ºà¶§
Ġà¶ļà¶© à·Ħ
Ġ5 200
à¶»à¶½ à¶´à¶±
à¶§à·ĥ à¶§à¶¸
Ġà¶»à¶® à¶ºà¶±
Ġà¶Ĩà·ĥ à·Ģà¶±
à¶§à·Ħ à¶º
Ġ9 16
Ġ9 22
Ġ9 27
Ġà¶´à¶§ à·Ģà¶º
à¶µ à¶¸à¶±
à¶´à·ħ à·Ģà¶±
Ġ18 35
Ġ18 36
Ġà¶¯à·Ħ à¶¸à¶±
à·ħà¶Ł à¶ļà¶¯
à·Ĥà¶ºà¶ļ à¶ľ
Ġà¶±à¶Ńà¶» à¶ļà¶½
Ġà¶ļà¶»à¶¯ à¶¬
à·ĥà·ĥ à¶¢
Ġà¶±à·Ģà¶ļ à¶ºà¶ļ
à¶»à¶ļà¶» à¶±à¶º
18 5
18 65
à·Ģà¶ºà¶ļà¶§ à¶¯
Ġà·Ģà·ħ à¶ļà¶¸
Ġà¶Ĩà¶¥ à¶¯
Ġà·ĥà¶¸à¶» à¶»à¶Ń
25 4
Ġ56 1
Ġ39 00
Ġà¶Ĩà¶· à·ĥ
Ġ43 00
Ġ58 00
35 00
Ġ180 4
Ġ74 2
Ð¸ Ð»
Ġà¶Ĩà·Ģà¶»à¶« à¶ºà¶±
Ġà·ĥà·ĥà¶½ à·Ģ
4 80
ç »
ë ı
Ġ ã
à¶± à¶»à¶¸à¶½
à·Ģ à¶©à¶±
à¶¸ à·Ĥ
à¶ļ à¶«à¶§
Ġà¶¸ à¶ļà·ĥ
à¶´ à¶¥
Ġà¶¯ à·ĥà¶¸à·Ħ
à¶¶ à¶ĳ
Ġà¶½ à¶¡
Ġà¶ī à¶ŀ
à¶ºà¶± à¶ºà¶ļà¶¯
Ġà¶ĳà¶ļ à¶ĳà¶ļ
Ġà¶ĳà¶ļ à¶½à¶¯
Ġà¶Ķ à¶±à¶»
à·Ģà¶» à·ĥà·Ħ
à¶ł à¶Ńà¶±
Ġà¶Ĵ à¶Ńà¶ļ
à¶ļà¶» à¶±à¶¸
Ġà¶ļà·ħ à¶¶à¶½à¶º
à¶Ĵ à¶ĳà·ĥ
à·Ģà¶§ à¶§
à¶½à¶º à¶ºà¶§
à¶»à¶Ń à¶ºà¶ļ
à¶±à¶§ à¶»
Ġà¶¢à¶± à¶ļà¶ľ
à¶¯à¶» à·ĥ
à¶¯à¶» à·Ģà¶±
Ġà¶ĭà¶´ à¶ºà¶Ń
à¶ī à¶³à¶ľ
Ġà¶Ńà¶¸ à¶ī
à¶Ľ à·Ģà¶½
Ġà¶½à¶¯ à¶¯
Ġà¶īà¶½ à¶ľ
Ġà·Ħà¶¯ à¶ľà¶¸
Ġà¶ľà¶« à¶´à¶Ń
à¶¸à¶½ à¶¶
à¶»à¶¢ à¶ľà¶½
Ġà¶ĭà¶© à¶¶à¶½
Ġ9 34
19 3
Ġà·ĥà¶´ à¶¸
Ġà¶ĳà¶±à·Ģ à¶¸à¶º
Ġà¶Į à¶»à¶ļ
Ġà¶¯à·Ħ à¶¸à¶ļà¶§
à¶©à¶´ à¶½à¶ļ
Ġà¶¸à¶© à¶ľà·Ħà¶±
à·Ģà¶« à¶ļà¶¸
ðŁ ĵ
Ġà¶ħà¶§ à¶½à¶ļ
à·Ħà¶¬ à¶¶à·Ģ
Ġà¶¶à¶³ à¶ļ
à·ĥà¶½à¶ļ à¶Ń
à¶Į à¶»à¶ľà·ĥ
18 82
Ġà¶¶à¶½à¶±à·Ģ à¶ļ
à¶½à¶¹ à¶ľ
Ġà¶ĩà¶»à¶½ à·Ģà¶½
à¶Ńà¶±à¶ºà¶ļ à¶¯
à¶¯à¶ºà¶ļà¶§ à¶º
24 8
à¶¯à¶»à¶ļ à¶§à¶¸
à¶»à¶¸à¶¶ à¶½à¶ļ
Ġ51 00
Ġâ ĩ
à·ģà¶ľà¶Ń à·Ģà¶±
Ġ78 9
Ġà¶ĭà¶¶à¶½ à·Ģ
Ġ79 5
Ġ79 6
à¶ħà·Ģà¶¸ à¶Ł
à¸ ±
ĠÐ¿ Ð¾
æĹ¥ æľ¬
6 50
ä ¿
æ ĭ
ç ¥
ç Ń
à¶º à¶¶à¶±
à¶Ń à¶Ł
à·ĥ à¶»à¶¸à¶ļ
à¶½ à¶¸à·ĥ
Ġà¶ļ à¶¸à¶¸
à¶ľ à¶§à¶º
Ġà·Ħ à¶´à¶ºà¶ļ
à¶¶ à¶´à¶½à¶¯
Ġà¶¶ à¶±à¶ļ
Ġà¶ĳ à·ĥà¶±
à·ħ à¶«à¶ºà¶ļ
à¶° à¶®
à·Ģà¶± à¶ħà¶½
Ġà¶Ķ à¶¢à·Ģ
à¶ł à·ĥà¶º
à¶ļà¶» à¶ºà¶§à·Ģà¶Ń
à¶´à¶Ń à¶ľà¶¸
Ġà¶¸à·Ħ à¶´à¶»
Ġà¶¶à¶½ à¶Ŀà¶±à¶º
à¶±à¶Ń à¶Ń
Ġà¶¸à¶Ń à·Ģà¶Ń
Ġà·Ħà¶¸ à¶¶
à¶¯à¶» à¶ľà¶¸
Ġà¶ħà¶½ à·ĥà¶º
Ġà¶ħà¶½ à·ĥà·Ģ
Ġà¶½à¶ļ à¶«
Ġà¶Ĭ à¶½à¶¸à¶ļ
à¶ĩ à¶¸à¶º
à¶ĭ à¶¯à¶½
à¶ĭ à¶½à¶¸
à¶Ĩ à·Ģà¶»à¶«à¶º
à¶Ńà·Ģ à¶ľ
à·ĥà¶§ à¶±à¶§
Ġà¶ļà¶© à¶¸à¶½
à¶»à¶´ à¶ºà¶§
à¶«à¶ºà¶ļ à¶¸
à¶´à¶±à¶º à·Ģ
Ġà¶ħà¶´à¶§ à¶¸à¶º
à¶»à¶¢ à¶ºà¶ļà¶§
Ġ7 31
à¶ºà·Ģà·ĥ à¶±
à¶ºà·Ģà·ĥ à¶»
Ġà¶ľà¶½ à¶¶à¶©
Ġ10 70
Ġà¶ĭà¶© à¶§à¶Ń
Ġ20 37
Ġ20 34
à·ĥà¶³ à¶§
à¶ķ à¶ļà¶ľ
à¶»à¶ºà¶± à¶¸
Ġà¶īà·Ģà¶» à¶ļà¶»
Ġà¶»à¶« à¶¸à¶º
à¶°à¶ļ à¶¸à¶§
à·ĥà·Ħ à¶ļà¶»à¶±
à¶»à¶¸à¶ºà¶ļ à¶¯
Ġà¶Ĵà¶ļà¶§ à¶±
Ġà¶ħà¶§ à·Ģà¶±à¶¯
à·ĥà¶±à¶º à¶º
Ġà¶±à¶½ à·Ģà¶½
Ġà¶Ĩà¶ºà¶Ńà¶±à¶ºà¶ļ à¶§à¶¸
Ġ80 4
Ġà¶¯à¶« à¶ľà·Ħà¶½
Ġà·Ģà¶½à¶ļ à¶¢
14 9
22 1
22 6
à¶ľà·Ģà¶½à¶§ à¶¯
à¶ª à¶µ
Ġà¶¸à·Ħà¶« à¶¯à¶¸
Ġ76 3
Ġ94 8
Ġ87 6
Ġ79 1
Ġ84 00
à¶ľà¶¸à¶±à¶ºà¶§ à¶¯
æĸ ¹
âĺħ âĺħ
Ġà¶¢à¶½à¶ļ à¶³
ä¼ ļ
Î¿Ï ħ
ìĦ ±
ĠØ§ÙĦØ¹ Ø±Ø¨
å ½
æ ĥ
à¶± à·Ħà¶Ń
à·Ģ à¶®
à·Ģ à¶ľà¶º
à¶º à¶ħà¶±à¶Ń
à¶¸ à¶»à·Ģ
à¶ļ à·Ĥà¶ļ
à·Ļ à·ļ
à·Ħ à·ģ
à·Ħ à¶Ńà¶º
à·Ħ à¶Ńà¶»à¶º
à¶¯ à·Ĥ
à¶¯ à·Ħà¶ºà¶ļ
Ġà¶´ à·Ģà¶ļà¶§
Ġà¶´ à·Ģà¶±à¶§
Ġà¶¸ à¶ĳà¶´
Ġà¶ħ à¶ļà¶»à·Ģ
âĢį à·ļ
à¶´ à¶¸à¶±à¶¯
Ġà¶¯ à¶¢
Ġà¶± à¶¶à¶©
Ġà·Ħ à¶»à¶ºà¶º
Ġà¶ĩ à¶½à¶ļà¶±
Ġà¶» à¶ºà¶§
à·Ĥ à·Ģà¶¯
Ġà¶¢ à·Ħà¶±
Ġà·ĥà¶¸ à¶ºà·Ģà¶»
Ġà¶ĭ à¶©à¶ļà¶±
Ġà¶Ĵ à·ħ
Ġà¶¸à·Ħà¶Ń à¶Ń
Ġà¶ħà¶© à·Ģà¶½
à¶Ľ à¶ºà¶º
Ġà¶ļà¶¸ à¶½à·ĥ
à¶¨ à¶»
à¶¨ à¶¶
à¶ĭ à·ĥà¶¸
Ġà¶´à¶¯ à¶Ń
Ġà·Ħà¶¯ à¶ľà¶±
à¶½à¶§ à¶¸à¶º
Ġà¶Ĩà¶¯ à·ħ
Ġà·ĥà¶¸à¶Ł à¶¸à¶º
Ġà¶īà¶© à¶½à¶¶
à¶ħà¶¯ à¶§à¶¯
Ġà¶ĭà¶© à¶´à·ħ
à·ģà¶±à¶º à¶¸
à·ģà¶±à¶º à¶§à¶Ń
Ġà¶ĩà¶³ à¶ļà¶§
à¶ķ à¶ļà¶º
Ġà¶ĩà¶½ à¶ļà¶§
Ġ18 29
Ġà¶īà·Ģà¶» à¶ļà¶½
Ġà¶ħà·ĥà¶½ à¶§à·Ģà¶Ń
à¶ľà·Ħ à¶ľà¶Ń
Ġ05 7
18 77
à·Ĥà¶¥ à¶·
à¶»à¶ļà¶Ńà¶± à¶ºà¶ļà¶§
17 2
Ġ90 4
Ġ90 6
Ġà¶»à¶ľ à¶¯
28 0
ĠÐ Ĵ
à¶ľà·Ħà¶± à¶ļ
à·Ħà¶³ à¶ľà¶¸à¶ľ
Ġà¶ħà¶§à¶¸ à·Ħ
Ġ86 9
Ø§ Ùħ
Ġ79 3
Ġ101 2
à¶Ŀà¶«à¶ļ à¶ºà¶§
ï¼ ļ
Ġà¶¯à¶ľà¶½ à¶´
ĠØ§ÙĦ Ø³
ÑģÐº Ð¸Ð¹
Ð½Ñĭ Ð¹
à¶īà¶»à¶« à¶¸
Ġà¶»à¶¢à¶¯à·Ħà¶± à¶ļ
ì ĭ
Ġ ĉ
Ġ ÙĨ
Ļ ×
à¶± à·Ħà¶±
à¶º à¶ĭà¶±
à¶¸ à¶¢à¶º
Ġà¶ļ à¶Ńà¶»à¶§
Ġà·ĥ à·Ģà·ĥà¶ļ
à¶ľ à¶µà¶½à¶ºà¶ļ
à¶´ à¶Ł
Ġà¶± à¶ºà¶±à¶ļ
à¶« à¶ļà¶»à¶«
à¶« à¶±à·Ģà¶¯
à¶° à·Ģà¶»à¶ºà¶§
à¶ºà¶ļ à·Ģà¶½
Ġà¶º à·Ģà·Ħà¶±
à·Ĥ à¶©
Ġà·ĥà¶¸ à¶·
Ġà¶ĭ à¶½à¶Ń
à¶® à¶ľà¶±
Ġà¶Ĵ à¶©à¶±
à¶· à¶½
à¶»à¶ļ à·ĥ
à¶¸à¶ļ à·ĥ
à¶¸à¶ļ à¶¶
Ġà·ģ à¶§à¶½
Ġà¶§ à¶ļà¶»à¶¸
à¶ļà¶º à·Ģà¶Ń
à¶»à¶¯ à¶§
Ġà¶· à¶ľà¶Ń
Ġà¶¢à¶± à·ģà¶ļ
Ġà¶¢à¶± à¶ļà¶ºà¶ļ
Ġà¶ļà¶§ à·Ģà·Ħà¶±
Ġà¶¸à¶ľ à¶ħà¶»
à¶¯à¶» à¶±à¶¸
Ġà¶Ńà¶¸ à¶½
Ġà¶ħà¶½ à·Ģà¶ľ
Ġà¶ħà¶© à·ĥà¶³
à¶ĩ à¶Ńà¶Ń
à¶Ńà¶ļ à¶©
Ġà¶Ĵà¶ļ à¶¢
Ġà¶´à¶ļ à·Ĥà¶º
à·Ģà¶¸ à·Ħ
à¶´à·ĥ à¶§à¶¸
Ġà·ĥà¶· à¶·
Ġà·ħ à¶ľà¶±
à¶Ńà¶½ à¶ºà¶±
à¶§à¶´ à·Ħà¶ļ
à¶¸à¶½ à¶¥
Ġà¶»à¶¢ à¶ľà¶½à¶Ń
à¶§à¶½ à·Ģà¶½
Ġà¶»à·ĥ à¶ľ
Ġà¶ĭà¶© à¶¸à¶½
Ġ9 39
Ġà·ĥà¶½ à¶´à¶Ńà¶½
à¶ļà¶ºà¶ļ à¶§à¶¸
à¶»à¶® à¶ļ
Ġ18 28
Ġà·Ħà¶Ńà¶» à¶¶
Ġ17 80
Ġ17 70
Ġ17 65
Ġ17 93
Ġà¶ļà·ĥ à¶´à·Ħà¶»
Ġà¶ħà¶Ł à¶ļ
à¶ľà¶ºà¶± à¶§
Ġà¶¢à¶±à¶´à¶¯ à¶ļà¶»à¶«à¶º
à¶»à¶±à¶º à¶Ń
à¶§à¶´à¶Ń à¶º
Ġà·Ģà·ħ à¶±
à·ıâĢį à¶Ĥ
Ġà¶¶à¶§ à·Ģà¶½
Ġà¶ĭà¶¶ à¶¸
Ġà¶¯à·Ħà·Ģà¶½ à¶ļ
Ġà¶ĭà¶¯à¶º à¶ľ
Ġà¶±à¶§ à·Ģà¶½
25 6
22 7
Ġ48 00
Ġà¶īà¶©à¶ļà¶© à¶¯
Ġà¶¸à¶³ à¶ļà¶¸
Ġ88 2
Ġ78 2
Ġà¶ĳà·Ģà¶ļ à¶§à¶Ń
à¤ ¹
à¤ ķ
ðŁĺ ģ
à¶´à·Ħà¶± à¶ļ
à¶¸à¶³ à¶¶à·Ģ
ä¸ į
à¶´à¶»à·ĥ à¶Ń
ÑģÐº Ð¸
Ġ20112 1
éĢ ļ
åĩ º
Å ŀ
æ ł
ì §
í ĺ
Ġ É
à¶Ń à¶´à¶Ńà¶§
à¶Ń à¶¢à¶±à¶ļ
à¶½ à¶´à¶ļ
Ġà·ĥ à¶ļà¶º
Ġà¶¸ à¶ļà¶´
à¶ľ à¶ļà¶»à¶±
Ġà¶ħ à·ĥà¶ļ
âĢ ķ
à¶´ à·Ĩ
Ġà¶± à¶»à¶Ń
à¶« à¶«
à¶« à·ĥà¶¸
à¶« à¶ļà¶»à¶±
à¶¶ à¶ļà¶½
Ġà¶¶ à·ģ
à¶© à¶ļà¶»à¶¯
à·ħ à¶¸à¶ºà¶ļ
Ġà¶½ à¶±à¶ļ
à¶ºà¶ļ à¶»à¶«à¶ºà¶±
Ġà¶ĩ à·ħà¶´
Ġà¶ī à·ĥà¶ļ
à¶ºà¶± à¶ľà¶¸à¶±
Ġà¶Ĩ à¶¸à¶«
Ġà¶¶à·Ģ à¶´
à¶¸à¶ļ à·Ģà¶¯
Ġà¶ļà¶½ à·Ħà¶º
Ġà¶´à¶» à¶±à¶º
à¶¹ à¶ľà·Ħà·Ģà¶Ń
Ġà¶¸à¶Ń à¶§à¶º
Ġà¶īà¶¯ à·Ħà¶±
Ġà·Ģà¶» à¶±à¶º
Ġà·Ģà¶» à¶«à¶ºà¶ļ
à¶ļà¶ļ à¶Ń
à¶¢à¶± à¶»à·ħ
Ġà¶° à¶º
01 3
à·ģà¶´ à¶½à¶±à¶º
Ġà¶ļà¶»à¶½ à¶±à¶¸
à¶ĭ à·Ħà¶±
à¶ĭ à¶©à·Ģ
à¶¯à·Ħà·ĥ à¶§à¶Ń
Ġà¶´à¶± à·Ħà¶Ń
à¶»à¶´ à¶®
à¶¸à¶½ à¶ļà¶§à¶¯
Ġà¶īà·Ħ à¶ľà¶±
Ġà¶īà¶© à¶´à·Ħà·ĥ
Ġà¶¸à¶Ńà¶ļ à·Ģà¶Ń
Ġà¶Ńà¶»à¶ľ à¶ºà¶§à¶Ń
Ġ8 19
Ġ8 24
à¶§à·Ħ à¶Ńà¶»
Ġ9 19
Ġ9 88
à¶¸à·ħ à¶¸
à¶ºà¶ºà¶± à¶Ń
Ġà¶¢à¶±à¶´ à¶¯à¶±à¶¸à¶ļ
Ġ18 10
Ġ18 27
Ġ18 53
Ġà¶´à¶¯à¶±à¶¸ à¶Ń
Ġà¶¯à·Ħ à·Ħà¶Ńà¶ļ
à¶»à¶ľà¶Ń à¶º
à¶»à¶ľà¶Ń à·Ģà¶º
à·Ģà¶· à¶ļ
Ġ17 39
à¶Ńà¶ºà¶± à¶¸
Ġà¶īà·Ģà·ĥ à¶´à¶±
18 71
18 87
à¶½à¶±à¶ºà¶ļ à¶¯
Ġà¶»à¶³à·Ģ à¶ľà¶±
à·Ĥà¶«à¶ºà¶§ à¶¯
Ġà¶ħà¶¬ à¶ľà·Ħà¶½
à¶§à¶½à¶º à¶º
Ġà·Ħà¶ºà¶ļ à¶¯
13 00
à¶§à¶»à¶§ à¶¯
22 9
Ġà·Ħà¶»à·Ģ à¶¯
Ġà¶ħà¶»à¶¹ à¶´
Ġà¶©à¶º à¶´à¶»
à¶ºà¶±à·Ģà¶± à¶±
Ġ54 00
Ġ53 33
Ġ85 4
Ġ77 4
Ġà¶±à·Ģà¶º à¶¸
Ġà¶ħà·Ģà¶» à¶ľ
à¶ĩà¶Ł à¶´à¶Ń
à¶ħà¶´à¶±à¶ºà¶± à¶ļà¶»
à¶ľà¶¢ à¶¸à¶±
Ġà¶¶à¶§à¶± à·ħ
à¶ºà¶Ł à¶ºà¶ļà¶§
à¶ħà¶Ńà¶»à¶¸ à¶Ł
ãģĹ ãģŁ
ĠïĢ ł
Å Ł
à¶Ń à¶´à¶§
à¶ļ à¶´à¶ļ
à·ĥ à¶¸à¶«
à¶§ à¶¨
à¶§ à¶ļà¶»à¶½
à¶ľ à·ħà¶º
Ġà¶ħ à¶ºà¶±à¶ľ
à¶´ à¶»à·Ħ
Ġà¶¯ à¶±à·Ģà¶¸
Ġà¶¯ à¶ľà¶´à¶±
à¶« à¶ĩà¶´à¶ļà¶»
Ġà¶¶ à·Ĩ
à·ħ à¶¸à¶§
à¶° à¶´à¶Ń
Ġà¶» à¶Ńà¶º
Ġà¶» à·Ģà¶±à·Ģ
à¶¢ à¶»à·ĥ
à¶ºà¶§ à·Ģ
à¶ļà¶» à¶½à¶º
Ġà·Ģà¶± à¶ľ
à¶¸à¶Ń à¶¯
Ġà¶ħà¶¯ à·Ģà¶ľ
Ġà¶ħà¶¯ à·Ħà¶´
à¶¹ à¶ľà·ĥ
à¶§à¶Ń à¶¸à¶º
à·Ħà¶½ à¶§à¶¸
à¶ºà¶º à·ĥ
Ġà·ĥà¶Ń à¶´
à¶¢à¶± à¶»à¶¢
Ġà¶° à¶±à¶ºà¶º
à¶Ńà¶¸ à¶ºà¶§
à¶ĩ à¶«à·Ģ
à¶¸à¶» à¶ł
à¶¨ à·ĥ
à¶Ĩ à¶¢
Ġà¶±à·Ģ à¶±à·Ģ
à¶¡ à¶ºà¶ļ
à¶¡ à·Ģà¶ļ
à¶Ĭ à¶§à¶¸
à¶Ķà¶¶ à¶§à¶¯
Ġà¶±à¶ľ à¶»à·ģ
Ġà¶¶à·Ħ à¶ļà¶¯
Ġà¶¡à¶± à¶´à¶Ń
à¶±à¶½ à¶½
Ġà¶ħà¶¸à¶Ń à¶¯
Ġ9 29
Ġ9 37
Ġà¶¸à¶Ł à¶ĩà¶»
Ġà¶Ĩà·ģ à¶ºà¶±
Ġà·ħà¶Ł à¶³
Ġ18 34
Ġ18 42
à¶±à·Ħ à·Ģà¶Ń
Ġ16 40
Ġà·Ģà¶¯ à¶´
20 2
20 23
Ġà¶ļà¶»à¶Ń à¶¶
Ġà¶ļà¶»à¶¯ à¶»à¶Ń
Ġà¶ħà¶§ à¶¸à¶§
Ġ07 8
à¶ĩà¶½ à·Ħ
à¶ĳà¶ºà¶§ à¶¯
à·Ĥà¶±à¶º à¶Ń
Ġà¶ħà¶¹ à¶ļ
30 7
Ġ09 1
à¶ĭà¶© à·Ħ
à¶»à·Ģà¶½à¶§ à¶¯
23 1
Ġ44 1
Ġà·ĥà¶Ńà¶» à¶ļà¶§
à¶Ĩà¶¯à¶»à¶º à¶º
Ġ99 8
à·Ħà¶Ńà¶» à¶§
Ġ77 9
à¶ļà·Ģà¶»à¶«à¶º à¶Ń
à¶ĭà¶´à¶Ń à·ģ
Ġ76 9
Ġà¶¹ à¶¶à¶ľ
Ġ98 7
Ġì Ŀ
ÐµÐ ¹
0 71
4 10
Â ħ
Ä «
è §
Ġ Õ
Ġ ÉĻ
à·Ķ à·ĵ
à¶½ à¶½à¶º
à¶¯ à·ģà¶ļà¶º
Ġà¶´ à¶ºà¶Ń
à¶ľ à¶¥
Ġà¶± à¶¸à¶§à¶º
à¶« à¶Ĩà¶»à¶ł
Ġà¶ľ à¶Ķà·Ĥ
à¶¶ à¶µà¶½
Ġà¶¶ à¶«à¶Ń
à¶© à¶±à·Ģ
Ġà¶ĳ à·Ģà¶ļà¶¯
à·ģ à¶«à·Ģ
Ġà¶ĩ à¶§à¶Ń
Ġà¶ī à·Ģà¶§
à¶³ à¶±à¶º
à¶³ à¶¸à¶º
Ġà¶Ķ à¶ŀ
à¶Ńà¶» à·Ģà¶¯
à¶ł à·Ħ
Ġà¶ħà¶´ à¶¸à¶±à¶º
à¶ļà¶» à¶½à¶Ń
à¶ħ à¶ľà·Ħ
Ġà·ĥà·Ħ à¶´
à¶ĳ à¶½à·Ģ
à¶· à¶ºà¶½
à¶¸à¶º à¶»
à·Ģà¶§ à·Ģà¶±
Ġà¶ħà¶Ń à·Ģà¶±
Ġà¶ł à·Ģà¶±
Ġà¶· à·ĥ
à¶ľà¶± à¶±à¶ļ
à¶»à·Ģ à·Ħà¶±à¶º
Ġà¶¸à¶ľ à¶¶à¶½
à·ĥà¶» à¶±à¶ļ
Ġà¶īà¶¯ à¶¸
à¶ľà¶º à·Ģà¶Ń
Ġà¶ħà¶» à¶«à¶§
Ġà¶ĭà¶´ à¶½à¶ļ
Ġà·ĥà¶Ń à¶½
à¶´à¶º à¶¸à¶º
Ġà·Ĩ à·Ħ
à¶ĭ à¶Ķà¶½
à·ĥà¶§ à·Ģà¶Ń
à¶¥ à¶ļ
à¶»à¶½ à¶ºà¶ļà¶§
Ġà¶¶à·ĥ à¶ļà¶§
Ġà¶´à¶½ à¶ļà¶§
Ġ8 39
à¶«à¶ļ à¶ºà¶ļ
Ġà¶Ĩà¶¯à¶» à¶ºà¶±
Ġà¶Ī à¶³à¶½
à¶¯à¶¸ à¶±à·Ģ
Ġ18 43
à¶ºà·Ħ à¶ºà¶ļ
Ġ25 50
à·ĥà·Ħ à¶ºà¶º
Ġ17 90
Ġ17 82
20 6
à¶¢à¶ºà¶§ à¶º
à¶ľà¶« à¶ļà¶ºà¶±
Ġ01 7
Ġà¶ĭà¶´à·ĥ à¶´à¶±
à¶«à¶ºà¶§ à¶¯
Ġà¶īà·Ģà·ĥ à¶´
Ġ07 73
18 32
Ġ04 7
Ġà¶ħà¶« à¶´à¶«à¶Ń
Ġà¶ļà·Ħ à¶¸à¶¯
Ġ32 000
Ġ90 5
Ġà¶ĩà¶»à¶½ à¶½
Ġ400 4
à¶ĭà¶© à·Ģà¶Ń
Ġà¶»à¶«à·Ģà¶ļ à¶½
à¶½à·Ħ à¶§à¶Ń
à·ħà¶¸à¶º à¶ľ
ĠðŁĺ ģ
Ġ99 3
Ġ95 2
Ġ95 00
ĠÐ Ŀ
77 8
Ġà¶¯à·ģ à¶¸à¶º
Ġ94 1
Ġ86 8
Ġ96 4
ðŁĺ İ
à·Ģà¶ºà¶¹ à¶¯
à·Ģà¶«à¶ļ à¶¸à¶ļ
à¶į à·Ĥ
âĺ º
ĠØ§ÙĦ Ø
20100 1
ãģ¾ ãģĻ
ìł ķ
ĠØ§ÙĦØ¹Ø±Ø¨ ÙĬØ©
Ã ¶
Î Ń
Ñ į
à µ
ï ¿
à·Ģ à·ģà¶±
à¶º à¶ħà¶±
à¶½ à¶ľà¶Ńà·Ģ
à¶§ à¶»à¶ºà¶Ń
Ġà¶ļ à·Ģà·ĥ
Ġà·ĥ à¶©
à·ĬâĢį à·Ĭ
Ġà¶¯ à·Ģà¶º
Ġà·Ħ à¶©à¶ľ
Ġà¶ľ à·Ģà¶±
à¶¶ à¶ºà¶»
à¶¶ à¶©à¶½
Ġà¶¶ à¶¢à¶±
Ġà¶¶ à¶»à¶ļà¶§
à¶° à¶ºà¶§à¶¸
à¶ºà¶ļ à¶»à¶º
Ġà¶ĩ à¶ľà¶Ń
Ġà¶» à·Ħà¶¯
Ġà¶» à¶¯à¶±à¶ļ
à·Ĥ à·Ĩ
Ġà¶ī à¶«à¶§
Ġà¶Ĩ à¶ļà¶¸
Ġà¶Ĩ à¶Ńà¶±à¶º
à¶ħ à¶»à·Ħà¶Ń
à¶¸à¶Ń à¶ºà¶º
Ġà¶´à·ĥ à¶Ń
à·ģà¶º à¶ºà¶ļ
à¶ļà¶¸ à·ĥ
Ġà¶¢à¶± à¶±à¶ºà¶§
Ġà¶¸à¶Ń à¶½à¶±
Ġà¶ķ à¶¯
Ġà¶ķ à¶ľà·ĥ
à·ĥà¶» à·Ħà¶º
Ġà¶īà¶¯ à¶½à¶º
à¶»à¶« à¶ºà¶§à¶Ń
à¶ľà¶½ à¶§à¶Ń
Ġà·ĥà¶Ń à¶´à·Ħ
à·Ĥà¶º à·Ģà¶Ń
Ġà¶° à¶±à¶ºà¶ļà¶§
à¶±à·ĥ à¶¯
01 2
à¶Ĩ à¶Ľ
Ġà¶ļà¶« à¶ļà¶»
à¶Ńà¶½ à¶§à¶Ń
Ġà¶ľà¶« à¶±à·Ģà¶ļ
à¶¸à¶½ à¶ļà¶§
à¶ļà¶¯ à·Ģà·ĥà¶ļ
Ġà¶Ĩà·Ģ à·Ħ
Ġà¶ĳà¶´ à¶¸à¶±à¶ļ
Ġ7 11
Ġ8 17
à¶½à¶ľ à¶ļà¶¯
à¶´à¶½ à¶´
Ġ10 60
Ġà¶ĭà¶© à¶½à¶¸à¶Ń
Ġ20 35
à¶µ à·ħ
Ġà¶Ī à¶Ńà¶ļà¶¯
Ġ15 92
à¶ķ à¶¶
Ġà·Ĥ à¶»à¶´
Ġ18 49
à¶ħà¶Ń à¶´à¶Ń
à¶¤ à¶ºà¶±
Ġà¶ħà¶´à¶ľ à¶¸à¶±à¶ºà¶ļ
Ġà¶Ńà¶½ à¶´à¶º
à¶»à¶¶à¶½ à¶¯
Ġà¶ļà¶»à¶¯ à¶¸à¶±
Ġ01 8
Ġ03 42
18 30
18 73
Ġà·Ģà·ħ à·ħ
Ġà·Ģà·ħ à¶½à¶½
Ġà¶Ĩà¶¥ à¶´à¶Ń
17 76
à¶Ĩà¶¯à¶» à¶±
26 6
Ġ49 7
Ġ89 9
à·Ĥà¶±à¶ºà¶ļ à¶¯
Ġ76 6
Ġ87 9
Ġà¶ĳà¶½à·Ģ à¶ľà¶±
Ġ81 1767
ãĥ ĥ
Ġà¶ļà¶±à¶ļ à¶´
Ñĥ ÑĢ
Ġà¶¸à·Ħà¶¸à¶Ł à¶§
ä» ¥
ðŁĻ ı
Ġà¶±à·Ģà¶ļà·Ģ à¶°à¶º
Ġà¶ľà¶³à¶ľ à·Ħà¶±
Î ´
Ģ ï¸ı
à·Ĵ à·ļ
à¶± à·ĥà¶»
à¶º à¶»à¶«à¶º
à¶ļ à·Ĥà¶ºà¶»
Ġà·Ģ à¶Ńà¶ļ
Ġà·ĥ à¶»à¶´
à·ĵ âĢįâĢį
Ġà¶ħ à¶Ķ
à¶´ à¶»à¶ºà¶º
Ġà¶± à¶ºà¶º
Ġà·Ħ à¶¸à¶Ń
à¶¶ à·Ħà¶±
Ġà¶ĩ à¶©à¶½
à·Ĥ à¶ļà¶½
à¶±à¶º à¶¢
à·Ģà¶± à¶ľà¶»
Ġà¶ĭ à¶»à¶¸à¶Ń
à¶ł à¶±à¶Ń
Ġà¶ļà¶»à¶± à·ĥ
Ġà¶Ĵ à¶Ĵ
à¶ļà¶» à¶±à¶Ń
à¶ºà¶½ à¶§à¶Ń
à·Ħà¶± à¶§
Ġà¶ħà¶¯ à¶¸à¶¯
à¶ľà¶¸ à¶ºà¶§à¶Ń
à·ĥà¶» à¶½à¶º
à·ĥà¶» à·Ħà¶Ń
Ġà¶īà¶¯ à¶´à¶½
à·Ĩ à¶»à·ĥ
Ġà¶Ńà¶¸ à·ĥ
à¶ļà¶ļ à¶ľ
à¶Ľ à¶±à¶¸
Ġà·Ģà¶© à·Ģà¶º
à¶ĩ à¶§à¶ļ
à¶¸à¶» à¶ºà¶ļà¶¯
à¶»à¶° à¶´
à¶Ĩ à¶ľà¶»à¶´à¶Ńà¶±
à¶¯à¶ļ à¶ł
à¶¸à·Ħ à¶ĩà¶¸à¶Ń
à¶©à¶¸ à¶ļà¶»à·Ģ
à¶¸à·Ģ à·Ħà¶±
Ġ200 000
à¶®à¶ļ à¶Ńà¶±à¶ºà¶±
Ġ18 46
Ġà¶Į à¶»à¶ľà·Ħ
Ġà¶īà·Ģà¶» à¶±à¶¸
Ġà¶īà·Ģà¶» à¶ļà¶»à¶ľà¶±
à·Ģà¶±à¶º à¶¯
à¶ľà·ĥ à¶±à·Ģ
à¶ħà·Ģà·ĥ à¶»à¶ºà¶ļ
Ġà¶ħà¶Ł à¶½à¶ļà¶§
Ġà¶Ĵà¶ļà¶ļà¶º à¶Ń
Ġà¶ħà·ģ à¶¸à¶±
Ġà¶¢à¶´ à¶¸
Ġ01 3
Ġà¶ħà¶¢ à¶´à¶½
Ġ2011 10
Ġà¶ºà·Ģ à¶´à¶±
Ġà¶ºà·Ģ à¶±à·Ģà¶¯
Ġà¶ħà·ĥà¶¸ à¶¶à¶»à¶Ń
Ġà¶»à¶§à·Ģà¶½à¶§ à¶º
à¶ľà¶ºà¶ļà¶§ à¶º
23 2
Ġ99 6
26 1
Ġ95 9
à·ĥà¶ļà¶º à¶ľ
ãģ £
Ġà¶Ĩà¶ľà¶¸à¶± à¶ºà¶ļ
à¶īà¶³ à¶ľà¶±
à¶ļà¶¶ à¶½à¶ļ
Ġà¶°à¶±à·ĥ à¶¸
Ġà·Ģà·ħà¶³ à¶¸
Ġà·ĥà¶±à·ĥ à¶¸
à¶į à¶«
Ġà¶¸à·Ħà¶¸à¶Ł à¶¯
Ġà¶ĸ à·ģà¶°
Ġ590 200
à¶ªà¶¯ à¶¨
Ð¾Ð³ Ð¾
çĻ º
3 40
æ Ĭ
ç ´
Ġ ÙĦ
à¶± à¶ĳà¶¸
à·Ģ à¶ľà¶¸à¶±à¶º
à¶º à¶ĳ
à¶ļ à·Ħà¶»
à¶½ à¶¶à¶§
à·Ħ à¶»à¶¯
à·Ħ à¶¯à¶§
à¶§ à·Ģà¶»à¶ºà¶±
Ġà¶ļ à¶±à¶º
Ġà¶ļ à¶·
à·Ĳ à·ı
à·ĵ à·ı
Ġà¶¸ à¶»à¶¸à·ĥ
à¶ľ à·Ģà¶§
à¶¶ à¶Ńà¶§
à¶© à·Ģà¶ļ
à¶© à¶ºà¶§à¶Ń
Ġà¶ĳ à¶¤
à·ģ à¶ļà¶»à¶½
à¶° à¶¢à¶ºà¶±
à·Ŀ à·Ļ
Ġà¶ĩ à¶»à¶¸
à·Ĥ à¶§à¶¯
à¶¢ à¶¥
à¶±à·Ģ à¶ļà¶®
Ġà¶¢ à¶©à¶ºà¶±
à¶±à¶º à¶¸à¶º
Ġà¶ĭ à¶±à·Ģà¶§
à·Ģà¶» à¶±à¶ºà¶ļà¶§
à¶® à¶´à¶Ń
Ġà¶Ĵ à¶¸à¶±
à¶ĳ à·Ģà¶§
Ġà¶¸à·Ħ à¶·
à¶¸à¶± à·ĥà¶ļ
Ġà¶±à¶¸ à·Ģà¶±
Ġà¶ºà¶± à¶ĳà¶±
Ġà¶´à¶» à¶±à·Ģ
Ġà·Ģà¶½ à¶³à¶±
Ġà¶· à¶ºà¶§
à¶»à·Ģ à·Ħà¶±
à¶»à·Ģ à¶ºà¶ļà¶§
Ġà¶¢à¶± à¶ļà¶´
à¶½à¶ļ à¶¸à¶§
à¶Ńà¶º à¶¸à¶º
à·Ħà¶½ à·Ģà¶Ń
Ġà¶¸à¶Ń à¶ºà¶±à¶¸
Ġà¶Ńà¶» à¶«à¶ºà¶ļ
Ġà¶Ĭ à¶Ĵà¶´
à¶ĩ à¶³à¶ľ
à¶ºà·Ģ à¶±à·Ģà¶±à¶¸
Ġà·Ģà¶½à¶§ à¶¸à¶º
à¶½à¶§ à¶ľ
Ġà¶Ĩà¶»à¶ļ à·Ĥà¶ļ
à¶Ńà¶½ à¶´à·Ħà·ĥ
à¶ºà·Ģà¶» à¶±
à¶½à·Ģ à¶ļà¶»
à¶¸à·ĥ à·Ħ
à¶Ŀ à¶ºà¶±
à¶¸à·Ħ à¶½à¶ļ
Ġà¶īà·Ħà·ħ à¶§à¶Ń
Ġà¶īà¶³ à¶½à¶±
Ġà¶Ĩà¶¯à¶» à¶ºà¶§à¶Ń
Ġà¶ħà¶¸à¶Ń à¶ļà¶Ń
19 2
à¶ºà¶ºà¶ļ à¶§à¶¸
Ġà¶¸à¶¯ à¶ºà¶§
Ġà¶¯à·Ħ à¶ľ
Ġà¶´à¶±à¶Ń à¶¯
à¶±à¶ºà¶± à¶¸
Ġ16 10
à·ĥà¶¯ à¶¸à¶¸
ðŁ į
Ġà·Ģà¶§à·Ħ à¶ľà¶±
à¶¯à¶»à·Ģ à¶¸
18 8
18 85
Ġà¶ľà¶Ł à¶±à¶ľ
à·Ĥà¶¸ à¶·
Ġ06 0
Ġ80 8
Ġà¶»à¶łà¶± à¶ºà¶±
à¶©à¶ļà¶§ à¶Ń
Ġà·ĥà¶»à¶« à¶ľ
à¶¯à·Ħ à¶ļà¶§
Ġà¶´à¶»à¶ļ à¶©
Ġà¶ħà¶ľà¶ºà¶ļ à¶»à¶±
à·ģà¶« à·Ģà¶½
22 8
Ġà¶Ńà¶»à¶ľà¶ºà¶§ à¶¯
Ġà¶Ĩà¶ºà¶Ńà¶±à¶ºà¶§ à¶º
23 3
26 7
28 6
Ġ46 00
Ġ66 00
à¶´à¶»à¶« à¶ľà¶¸
Ġ67 9
Ø§ ÛĮ
âĢįâĢįâĢįâĢį âĢį
à¸ ¢
Ġà¶±à·Ģà¶± à¶ľà¶»à¶º
âĻ «
Ø´ ÙĨØ¨Ùĩ
æĺ ¯
æĪ Ĳ
Ä ±
å ĭ
ç Ł
è ´
à¶º à¶Ńà¶»
à¶º à·ĥà¶½
à¶½ à¶Ńà¶»
à¶¯ à¶ļà¶§à¶¯
Ġà·ĥ à·ĥà¶±
Ġà¶ħ à¶µ
Ġà·Ħ à¶Ńà¶Ń
à¶¶ à¶ºà¶ľ
Ġà¶¶ à·ĥà¶Ń
à¶Ĥ âĢįâĢį
à¶ºà¶ļ à·Ħ
à·Ĥ à·Ĥ
Ġà¶¢ à¶ľà¶¸
Ġà¶¢ à·Ĩ
Ġà¶ĭ à¶»à¶łà¶ļ
à·Ģà¶ļ à¶±à·Ģ
à¶´à¶Ń à¶§à¶Ń
à¶· à¶ºà¶§à¶Ń
à¶±à¶Ń à·Ģ
Ġà·Ģà¶ľ à¶±à¶¸
Ġà¶īà¶± à¶»
à¶ľà¶± à¶±à¶º
à¶»à·Ģ à·Ħ
Ġà¶ħà¶» à¶«à¶ļà¶§
Ġà¶´à·ħ à¶ļà·ħà·Ħ
à¶»à·ĥ à¶ºà¶Ń
à·Ľ à·ĬâĢį
à¶¸à¶» à¶±à·Ģ
Ġà¶¶à¶½à¶± à¶±
Ġà¶»à¶¢ à·Ģà¶±
à¶°à¶±à¶º à·Ģà¶±
à¶»à¶¢ à¶ľ
Ġà¶´à·Ħà·ĥ à¶§
Ġà¶īà¶³ à·Ħà¶±
Ġà¶ĳà·ħ à·Ģà¶´
Ġà¶ĩà·Ħ à¶ļ
Ġ9 12
Ġ15 50
Ġà·Ĥ à¶§à¶»à¶º
Ġà·ĥà¶½à¶ļ à¶«
Ġ18 22
Ġ25 61
à¶¤ à¶¤à¶º
à¶ĭà¶¹ à¶½à·Ģ
Ġà¶¸à¶»à¶« à¶ºà¶§à¶Ń
Ġà¶īà·Ģà¶» à¶½
Ġà¶»à¶« à·Ģà¶ļà¶º
Ġ14 40
Ġà¶«à¶º à·Ģà¶½à¶§
Ġ17 07
Ġ17 95
Ġà¶¶à¶Ń à¶½à¶º
à·ĥà¶· à·Ģà¶±à¶º
18 94
à¶©à¶Ń à·Ħà¶±à¶¸
Ġà¶ħà¶¹ à¶»à¶±à·Ģ
17 89
Ġï ĺ
Ġ150 6
à·ħà·Ģà¶» à·Ģà¶½
Ġ89 5
Ġ85 3
Ġ77 66
Ġà¶¸à·Ħà¶¶ à¶¹
Ġ180 9
Ġà¶ħà¶§à¶¸ à¶ľà¶½à¶ļ
à¶ĸà·Ĥ à¶°à¶ºà¶ļ
à¶»à·ĥà¶ļ à¶ºà¶±
à¸ ĩ
ĠÃ ¢
ÐµÐ ²
åħ ¬
ÐµÐ» ÑĮ
æĿ ±
âĸ¬âĸ¬ âĸ¬âĸ¬
íķ ľ
9 78
â ¦ģ
ç ¾
é Ŀ
Ġà¶ ¦
à¶º à¶³
à¶ļ à·ĥà¶ļà·ĥ
à·ĥ à¶«à·ĥ
à¶½ à¶¸à¶¸
à·Ħ à¶ľà¶¸
à¶§ à¶ļà¶»à¶¸
Ġà¶¸ à¶¶
à¶ľ à¶»à¶¸
à¶ľ à¶ļà¶º
à¶´ à·Ħà¶»à¶±
Ġà¶Ń à¶±à¶¸à¶½
Ġà¶¶ à·Ĩà¶§
à¶© à¶ľà¶¸à¶§
à¶° à¶Ńà¶¸
à¶° à¶°à¶»
à¶¢ à¶½à¶ļ
à·Ģà¶± à¶§à¶Ń
Ġà·ĥà¶¸ à·ħ
Ġà¶ħà¶´ à¶«
à¶ļà¶» à¶¯à¶»à¶ļ
à¶ħ à·ĥà·Ħ
Ġà·ĥà·Ħ à¶ľ
Ġà¶¸à·Ħ à¶«à¶ļ
à¶¸à¶ļ à¶ºà¶ļ
à¶»à¶º à¶Ńà¶¸
à¶¸à¶± à¶ļà¶§
Ġà¶ħà¶¯ à¶¶
Ġà¶ħà¶» à¶«à¶ļ
Ġà¶ĳà¶¸ à¶»à¶½
à¶ºà¶º à¶ºà¶§
à¶ħà¶´ à¶ł
à¶ľà¶½ à·ĥ
à¶ºà¶Ń à¶ºà¶±
à¶¯à¶º à¶¶
à·Ĥà¶« à¶¸à¶º
à¶ĩ à¶¯à¶±
à¶Ĩ à·Ģà¶¸
à¶Ĩ à·ĥà¶±à¶º
Ġà¶ĳà¶½ à·ĥ
à¶¯à·Ħà·ĥ à¶ļà¶§à¶Ń
à¶ºà¶ľ à·ĥ
à¶»à¶ºà¶ļ à·Ģà¶Ń
à¶¡ à¶ļ
à¶ºà·Ģà¶» à¶ļà¶¯
Ġà¶ļà¶± à¶ļà¶»à¶Ń
Ġà¶¸à¶» à¶ĭà¶ľ
Ġà¶ľà¶½ à¶ľà¶¸à¶ľ
Ġ20 45
Ġà¶ºà¶§ à¶ľà·ĥ
Ġà¶Ī à¶³à¶±
Ġà¶ĩà¶» à·Ģà¶±
à¶ķ à¶ļà·Ģ
Ġà¶´à¶« à·Ħà¶§
Ġ18 52
à¶©à¶º à¶¸à¶ļ
Ġà¶¯à·Ħ à·Ģà¶½à¶§
Ġ14 0000
Ġà¶Ľ à¶ľ
Ġà¶ħà·Ħà¶½ à¶¯
Ġà¶ĩà¶´ à¶ļà¶»à¶ºà¶ļ
à¶»à¶ļà¶» à¶±à·Ģ
à·Ģà¶ļà¶ºà¶± à¶§
à·Ĥà¶ļà¶ºà¶± à¶§
Ġà¶¢à¶±à¶´à¶¯ à·Ģ
Ġ07 3
18 66
à·Ĥà¶±à¶º à¶º
Ġ80 3
Ġà¶ħà¶¹ à¶½
30 2
à·ģà·Ģà¶º à¶¯
Ġ09 0
à¶Ī à·ĥ
Ġà¶±à¶Ł à¶½
Ġ99 4
Ġ89 8
ĠÐ Ĳ
Ġ85 6
Ġ85 50
à·Ħà¶Ńà¶» à·Ģà¶§
Ġ69 8
Ġà·ģà¶Ńà¶ļà¶º à¶¯
Ġà·ĥà¶»à·ħ à·Ģà¶¸
Ð¸ ÑĢ
Ð¸ Ñı
Ġ86 3
à¶¯à¶© à¶ļà¶»à¶«à¶º
ĠØ ±
âĺ Ĥ
ĠÄģ Äģ
à¶ħà¶¸à¶Ń à¶±
à¶Įà¶Į à¶Įà¶Į
æ° ĳ
ãģ¦ ãģĦ
ĠØ´ ÙĨØ¨Ùĩ
åĮ Ĺ
á Į
ì Ī
à¶ ĸ
à¶» à¶´à·ĥ
à¶Ń à·Ģà¶»à¶ºà¶ļ
à¶¸ à¶µà¶½
à¶ļ à¶·à¶ļ
à·ĥ à¶¢à¶º
à·ĥ à¶ļà¶»à¶«
à¶½ à¶ľà¶º
Ġà¶ļ à¶±à·Ģà¶±à¶¸
Ġà·Ģ à¶ļà¶§
Ġà¶± à·Ģà¶½à¶ļ
Ġà¶ľ à·Ģà¶ľ
à¶© à·ĥà¶ļ
Ġà¶ĳ à¶ºà¶½à¶ľ
à·ħ à·Ģà¶¯
à¶° à·Ģà¶¸
Ġà¶ļà¶» à·Ģà¶§
à·Ĥ à¶±à¶Ń
Ġà¶Ķ à¶¸à¶»
Ġà¶Ķ à¶±à¶±
Ġà¶Ķ à¶Ńà¶±à¶º
à¶Ńà¶» à¶ľà¶Ńà·Ģ
à¶ł à¶±à¶ļ
Ġà¶ħà¶´ à·Ģà¶¯
Ġà¶Ĵ à·ĥà¶³à·Ħ
à¶ħ à¶»à¶´
à¶ĳ à¶¶à¶±
à¶Ķ à¶ļà¶§
Ġà·Ģà¶½ à¶³
à¶Ńà¶º à·Ħ
Ġà¶ļà¶Ń à¶±à¶ºà¶ļ
à¶¯à¶» à¶ºà¶ļà¶§
à¶¯à¶» à¶§à·Ģà¶Ń
Ġà¶´à·ħ à·Ģà¶±à·Ģ
Ġà¶ĭà¶± à¶´
Ġà¶ĭà¶± à·Ħà¶´
à¶Ľ à¶«à¶ºà¶±
Ġà¶° à¶§
à¶ĩ à¶¶à¶»
à¶»à·Ħ à·Ģà¶§
à¶´à¶± à¶¸à¶ļ
à¶¨ à¶¯
à¶´à¶º à¶ľ
à¶ĭ à·Ģà¶¯
à¶ĭ à¶¯à¶¸
Ġà¶´à·Ħ à·Ģà¶±
Ġà¶´à·Ħ à¶¯à¶¸
à¶Ĩ à·ĥà·ĥ
à·Ģà¶ºà¶ļ à¶ºà¶±
à¶ºà¶±à·Ģ à¶¸à¶º
Ġà¶ļà¶± à¶´à¶Ń
à¶ļà¶Ń à¶Ń
à¶¸à¶½ à¶¶à¶¯
Ġà¶ħà¶· à·Ģà¶ļ
Ġà¶¸à¶½ à¶ºà¶§à¶Ń
à¶Ŀ à·ĥà¶·
à¶½à¶Ń à¶¸à¶º
à¶Ńà¶§ à¶¸à¶Ń
à¶ļà·ħ à¶¸
à¶ļà¶± à¶¯
Ġà¶Ńà¶»à¶ľ à¶¯
Ġ7 21
Ġà¶ľà¶½ à¶´à¶ľ
Ġà¶¶à¶» à¶¶
Ġà¶ĳà¶Ń à¶±à¶§à¶Ń
Ġà¶¯à¶¸ à·Ģ
Ġà¶ºà¶§ à¶ļà¶»à¶¸
à¶»à¶ł à¶ļà¶ºà¶±
Ġ15 21
à·Ģà·Ģ à¶łà¶±à¶º
Ġ12 15
Ġ12 80
à¶¸à¶ºà¶ļ à¶§à¶¸
Ġà¶¸à¶¯ à¶ļà¶¸
Ġ13 13
Ġà¶Ńà·Ħà¶±à¶¸ à¶¯
Ġ16 70
Ġà·Ħà¶¬ à¶±à¶ľà¶±
Ġ17 60
20 24
Ġà¶ºà·Ģà¶± à¶ļ
Ġà¶±à¶½ à¶½à¶Ń
Ġà·ĥà·Ħà¶ľà¶Ń à¶¸
18 2
Ġà¶ħà·ĥà¶»à¶« à¶ºà¶§
Ġà¶ľà¶Ł à·ĥ
Ġ02 6
à·Ħà¶»à¶« à·Ģà¶½
Ġà·Ħà¶¯à¶±à·Ģ à¶º
à¶ľà¶«à¶ļà¶º à¶º
Ġ75 3
Ġà¶¯à¶Ł à¶½à¶¯
à·Ħà¶ļà¶§ à¶º
Ġà·ĥà¶¸à·Ħà¶»à¶ļ à¶ľ
Ġ77 8
Ġ88 6
Ġ88 7
Ġ87 8
Ġ84 3
Ġà¶¸à·Ħà·ĥ à¶Łà¶»
55 00
Ġà·Ħà¶Ł à·Ģà¶Ń
à¶īà¶© à¶¸à¶§
âĺ »
à·ĥà¶»à·ħ à·Ģà¶¸
Ð½Ñĭ Ðµ
Î¿Ï Ĥ
éģ ĵ
Ġà¶¢à¶»à¶¸ à¶»à¶ºà¶ļ
Â ²
ä ¾
å £
æ ĻĤ
ì Ļķ
à·Ģ à¶¸à¶¸
à·Ģ à¶ļà¶»à¶ľà¶±
à¶» à¶»à·Ģ
à¶» à·Ĥà¶±
à¶» à¶ļà¶»à¶º
à¶Ń à·Ģà¶½à¶Ń
à·Ħ à¶¸à¶½
à¶§ à¶ºà¶ľ
à¶¯ à¶ľà¶½à¶ºà¶ļ
Ġà¶¸ à¶¯à¶ºà¶ļ
à¶ľ à¶ĩà¶»à¶½
Ġà¶¶ à¶§à¶Ń
à¶© à¶ĳà¶±
Ġà¶½ à·ħ
Ġà¶½ à¶½à¶ļ
Ġà¶ĩ à¶¢à·ĥ
Ġà¶» à¶¯à¶±
Ġà¶» à¶±à·ĥ
à¶ºà¶± à¶¥à¶º
Ġà¶ĳà¶ļ à¶Ńà¶¸
à¶±à·Ģ à¶§à·Ģà¶Ń
Ġà¶ĩà¶Ń à·ħà¶Ń
Ġà¶Ķ à¶ºà¶½à¶Ń
à¶ł à¶¸à¶º
Ġà¶Ĵ à·ĥà¶¯à·Ħ
à·Ģà·ĥ à¶»à¶§
à¶· à·Ģà¶¸
Ġà·Ģà¶± à¶¶
Ġà¶ħà·Ģ à¶¸à¶ļ
Ġà¶ħà·Ģ à¶°à¶±à¶º
Ġà¶ľà¶± à¶»
à¶Ķ à¶¯
à¶Ķ à·ĥà¶»
Ġà¶ħà¶¸ à¶¸
Ġà¶¢à¶± à·ĥà¶§à¶±
à¶½à¶ļ à¶´
à¶Ńà¶º à¶´
Ġà¶ħà¶° à¶¸à¶ºà¶±
à¶¯à¶» à·Ħ
à¶ľà¶½ à·Ģà¶½
à·Ĥà¶« à¶¸
Ġà¶ĳà¶± à¶´
à·ĥà¶¸ à¶»à¶Ń
à¶ļà¶½ à¶±à¶¸
à¶ºà·Ģ à¶ľà¶Ń
Ġà¶¢à¶±à¶Ń à·Ģà¶ľ
à¶ĭ à¶©à¶´
Ġà¶´à¶¯ à¶ºà¶ļà¶§
Ġà·Ħà¶¯ à¶½à¶º
Ġà¶ļà·Ģ à¶ºà¶§
à¶¥ à¶ł
à·Ģà¶ºà¶ļ à¶¸
à·Ģà¶ºà¶ļ à¶»à¶±
à¶¶à¶½ à¶¸à¶§
à¶¸à·ĥ à¶³à·Ħ
à¶½à¶¸ à¶ºà¶§
Ġà·Ħà¶³ à¶¸
Ġà¶»à·ĥ à¶ºà¶º
Ġà¶Ĩà¶ºà¶Ń à¶±à¶§
Ġ9 17
Ġ9 33
à¶±à¶ľ à¶»à·ĥà¶·
Ġà¶ļà¶® à¶±à¶ºà¶§
à¶łà¶±à¶º à¶Ń
à·ħà¶¯ à¶ľà¶±
Ġ16 20
Ġ16 87
à¶¯à¶»à¶º à·Ģ
Ġà¶īà·Ħà¶½ à¶ļà¶§
à¶»à¶· à¶½à¶ºà¶±
Ġà·Ħà¶¬ à¶½à¶±
Ġà¶ĭà¶½ à·ħ
à¶Ńà¶±à·Ģ à¶§à¶Ń
Ġà¶¢à·Ģ à·Ħà¶½
Ġà¶ĭà¶´à¶º à¶ľà¶±
à¶ľà·Ħ à¶½à¶±
à·Ħà¶½à¶º à¶¸
Ġà·Ħà¶»à¶ļ à¶ľ
17 9
Ġà¶ĭà¶¯à¶º à¶´
14 00
Ġà¶¯à¶Ł à¶»à¶º
11 11
Ġà·ĥà·ĥ à¶»à¶ļ
Ġ56 00
24 4
Ġ99 2
Ġ99 7
Ġà¶¶à¶¹ à¶»à¶ľà¶½
à¶Ńà·Ģà¶½à¶§ à¶¯
Ġ88 4
à¶´à¶±à¶Ń à¶ļ
Ġ94 3
Ġ180 5
Ġ180 8
Ġ87 4
Ġ97 6
Ġ84 2
à¶ĩà¶Ł à·ħ
Ġà¶ĳà·ħà·Ģ à¶µ
Ġà·ĥà¶§à¶ļà¶´à¶§ à¶ļà¶¸
çĶ ¨
Ġâĸ º
Ġà¶ļà·Ħà¶³ à¶ľà¶¸
à¶©à¶Ńà·Ħà¶± à¶¸à¶§
2 10
Î ³
à·Ģ à·Ģà¶¯
à¶º à¶ħà¶¸
à¶» à¶»à·ģ
à¶ļ à¶±à¶±
à¶½ à·Ħà¶¸
à¶¯ à·ħà¶¹
Ġà·Ģ à¶ļà¶¸
Ġà·Ģ à¶Łà¶ļ
Ġà¶ħ à¶«à·Ģ
à·ĬâĢį âĢįà·ĬâĢį
Ġà¶ľ à¶®
à¶¶ à¶ļà¶º
Ġà¶¶ à¶ºà¶§à¶¯
Ġà¶ĳ à·Ģà¶»à¶¯
Ġà¶½ à¶§à¶´à¶§
à¶ºà¶ļ à·Ģà¶½à¶§
Ġà¶º à¶¸à¶º
Ġà¶ļà¶» à¶¶à¶¯
Ġà¶ĩ à·ĥà¶º
Ġà¶ĩ à·Ħà¶§
Ġà¶» à¶¸à¶´
Ġà¶ĳà¶ļ à¶ľà¶¯
Ġà¶Ķ à¶»à·Ģà¶ľ
Ġà¶ĭ à·Ģà¶±
à·Ģà¶» à¶ļà¶½
à¶»à¶ļ à·Ģà¶½à¶§
à¶«à¶º à·Ģà¶Ń
Ġà·Ģà¶½ à¶´
à·Ħà¶½ à·Ģà¶½à¶§
à¶Ńà¶± à¶ļà¶©à·Ģà¶½
Ġà¶ķ à¶ļà¶¯
Ġà·Ģà¶» à¶ºà¶§
à¶ī à¶»à¶ļ
à¶ºà¶Ń à¶¸à¶º
à·Ħà¶» à¶ľ
01 4
à¶ĩ à¶Ńà¶±
Ġà¶ĭà¶¯ à¶Ŀ
à·Ģà¶¯ à·Ħà¶¸
à¶ĭ à¶¸à¶Ł
Ġà¶ļà¶« à¶ļà¶§
à¶ºà¶ľ à¶ºà¶§
à¶¶à¶» à·Ģà¶º
Ġà¶ľà¶« à¶ºà¶±
à¶Ĭ à¶ĳà·ĥ
Ġà¶»à¶¢ à¶¸à¶½
Ġà¶»à¶¢ à·Ħà¶§
à¶¯à¶ļ à¶¸à¶Ń
Ġà¶ĩà·Ģ à¶ľ
à¶»à¶¢ à¶ºà¶±
à¶¢à¶±à¶º à¶§à¶Ń
Ġà¶ºà¶±à·Ģ à¶ļ
Ġà¶Ŀ à¶Ńà¶±à¶º
Ġà·ĥà¶» à¶±à·Ģ
à¶ºà¶ºà¶± à¶ļ
Ġà¶ĩà¶³ à¶§à¶¸
à·ĥà¶³ à¶´
Ġà¶ĩà¶± à¶¶
à¶ľà¶¸à¶º à¶ľ
Ġà¶ĩà¶ľ à·Ģà¶½
Ġà¶Į à¶«à¶´
Ġà·ĥà¶¸à¶± à¶½à·Ģ
Ġà·Ģà¶º à·ĥà¶±
Ġ100 8
Ġ16 30
Ġ16 38
Ġà¶īà·Ħà¶½ à¶¯
à·Ĥà¶ºà¶§ à·Ģà¶Ń
à¶ŀ à¶ļ
Ġ17 87
Ġà·ĥà¶¸à·ĥ à¶·
Ġà¶ķà¶ļ à¶¸à¶±
Ġà¶µ à·ħ
[...]
